{
  "</s>": 0,
  "<unk>": 1,
  ",": 2,
  ".": 3,
  "\u2581da": 4,
  "\u2581the": 5,
  "\u2581a": 6,
  "\u2581\"": 7,
  "\u2581to": 8,
  "\u2581and": 9,
  "\u2581of": 10,
  "\u2581ya": 11,
  "'": 12,
  ":": 13,
  "\u2581kuma": 14,
  "?": 15,
  "\u2581ne": 16,
  "\u2581ba": 17,
  "\u2581in": 18,
  "\u2581yi": 19,
  "\u2581Allah": 20,
  "\u2581su": 21,
  "\u2581-": 22,
  "\u2581(": 23,
  "\u2581is": 24,
  "\u2581that": 25,
  "\u2581you": 26,
  "\u2581ta": 27,
  "\u2581na": 28,
  "s": 29,
  "\u2581daga": 30,
  "\u2581ga": 31,
  "\u2581for": 32,
  "\u2581mu": 33,
  "\u2581they": 34,
  "\u2581not": 35,
  "\u2581suka": 36,
  ")": 37,
  "\u2581will": 38,
  "\u2581ce": 39,
  "\u2581ku": 40,
  "\u2581mai": 41,
  "\u2581Kuma": 42,
  "\u2581shi": 43,
  "\u2581be": 44,
  "\u2581them": 45,
  ";": 46,
  "\u2581cikin": 47,
  "\u2581God": 48,
  "\u2581Jehovah": 49,
  "\u2581wa": 50,
  "\u2581ka": 51,
  "\u2581sa": 52,
  "\u2581who": 53,
  "\u2581with": 54,
  "\u2581abin": 55,
  "\u2581za": 56,
  "\u2581have": 57,
  "\u2581'": 58,
  "\u2581are": 59,
  "\u2581it": 60,
  "\u2581we": 61,
  "\u2581his": 62,
  "!": 63,
  "\u2581their": 64,
  "\u2581Ya": 65,
  ".\"": 66,
  "\u2581": 67,
  "\u2581from": 68,
  "\u2581he": 69,
  "\u2581cewa": 70,
  "\u2581on": 71,
  "a": 72,
  "\u2581as": 73,
  "\u2581He": 74,
  "\u2581Mai": 75,
  "\u2581Jehobah": 76,
  "\u2581was": 77,
  "\u2581We": 78,
  "\u2581wa\u0257anda": 79,
  "\u2581And": 80,
  "\u2581sun": 81,
  "\u2581kasance": 82,
  "\u2581your": 83,
  "\u2581A": 84,
  "\u2581zai": 85,
  "\u2581I": 86,
  "\u2581yin": 87,
  "\u2581do": 88,
  "\u2581what": 89,
  "\u2581wani": 90,
  "\u2581wannan": 91,
  "\u2581gare": 92,
  "\u2581those": 93,
  "\u2581nan": 94,
  "\u2581yake": 95,
  "\u2581ke": 96,
  "\u2581him": 97,
  "\u2581so": 98,
  "\u2581suke": 99,
  "\u2581haka": 100,
  "\u2581wanda": 101,
  "\u2581an": 102,
  "\u2581us": 103,
  "\u2581by": 104,
  "\u2581b\u00e3": 105,
  "\u2581yana": 106,
  "n": 107,
  "\u2581our": 108,
  "\u2581suna": 109,
  "\u2581aka": 110,
  "\u2581The": 111,
  "\u2581[": 112,
  "\u2581iya": 113,
  "\u25811": 114,
  "\u2581m\u00e3su": 115,
  "\u2581all": 116,
  "\u2581idan": 117,
  "\u2581when": 118,
  "\u2581or": 119,
  "\u2581has": 120,
  "\u2581people": 121,
  "\u2581Yesu": 122,
  "\u2581can": 123,
  "\u2581Ka": 124,
  "\u2581this": 125,
  "\u2581zuwa": 126,
  "\u2581Jesus": 127,
  "\u2581lalle": 128,
  "\u2581ko": 129,
  "\u2581sai": 130,
  "\u2581but": 131,
  "\u2581Lord": 132,
  "\u2581were": 133,
  "\u2581masu": 134,
  "\u2581zama": 135,
  "\u2581don": 136,
  "\u2581What": 137,
  "\u2581kan": 138,
  "\u2581game": 139,
  "\u2581one": 140,
  "ing": 141,
  "\u2581said": 142,
  "\u2581Lalle": 143,
  "\u2581sun\u00e3": 144,
  "\u2581had": 145,
  "\u2581kai": 146,
  "\u2581me": 147,
  "\u2581mutane": 148,
  "\u2581yadda": 149,
  "\u2581ma": 150,
  "\u2581would": 151,
  "an": 152,
  "]": 153,
  "\u2581Tsarki": 154,
  "\u2581musu": 155,
  "\u2581ni": 156,
  "\u2581may": 157,
  "\u2581which": 158,
  "\u2581Littafi": 159,
  "\u2581nuna": 160,
  "-": 161,
  "\u2581if": 162,
  "\u2581did": 163,
  "\u2581wasu": 164,
  "\u2581kuwa": 165,
  "e": 166,
  "\u2581wata": 167,
  "\u2581shall": 168,
  "\u2581To": 169,
  "\u2581at": 170,
  "\u2581Bible": 171,
  "ad": 172,
  "\u2581In": 173,
  "\u2581How": 174,
  "\u2581my": 175,
  "\u2581about": 176,
  "\u2581no": 177,
  "\u2581then": 178,
  "\u2581kamar": 179,
  "\u2581Ta": 180,
  "\u2581bai": 181,
  "\u2581gaba": 182,
  "r": 183,
  "\u2581gaskiya": 184,
  "\u2581good": 185,
  "\u2581They": 186,
  "\u2581earth": 187,
  "\u2581yawa": 188,
  "\u25812": 189,
  "\u2581life": 190,
  "\u2581z\u00e3": 191,
  "\u2581there": 192,
  "\u2581dukan": 193,
  "\u2581kyau": 194,
  "\u2581been": 195,
  "\u2581son": 196,
  "\u2581sosai": 197,
  "\u2581take": 198,
  "\u2581ji": 199,
  "\u2581wa\u0257annan": 200,
  "\u2581Sa": 201,
  "\u2581yan": 202,
  "\u2581har": 203,
  "\u2581domin": 204,
  "\u2581duniya": 205,
  "\u2581d\u00f5min": 206,
  "\u2581amma": 207,
  "\u2581hakan": 208,
  "\u2581time": 209,
  "\u2581say": 210,
  "\u2581His": 211,
  "\u2581yaya": 212,
  "\u2581Muka": 213,
  "\u2581ciki": 214,
  "\u2581should": 215,
  "\u2581out": 216,
  "\u2581ci": 217,
  "\u2581f\u00e3ce": 218,
  "\u2581mana": 219,
  "\u2581\u0129m\u00e3ni": 220,
  "i": 221,
  "\u2581how": 222,
  "\u2581ake": 223,
  "\u2581Amma": 224,
  "\u2581But": 225,
  "\u2581ha\u0199\u0129\u0199a": 226,
  "\u2581some": 227,
  "\u2581san": 228,
  "\u2581amfani": 229,
  "\u2581muka": 230,
  "\u2581masa": 231,
  "\u25815": 232,
  "\u2581Mu": 233,
  "\u2581things": 234,
  "\u2581make": 235,
  "\u2581kada": 236,
  "\u2581day": 237,
  "\u2581muna": 238,
  "\u2581made": 239,
  "\u2581akwai": 240,
  "\u2581Me": 241,
  "\u2581bi": 242,
  "?\"": 243,
  "\u2581before": 244,
  "\u2581help": 245,
  "\u2581al": 246,
  "\u2581does": 247,
  "\u2581only": 248,
  "\u2581upon": 249,
  "\u2581sani": 250,
  "\u2581way": 251,
  "\u2581Shi": 252,
  "),": 253,
  "\u2581Da": 254,
  "\u2581know": 255,
  "\u2581wurin": 256,
  "\u2581more": 257,
  "\u2581Mun": 258,
  "\u2581mafi": 259,
  ").": 260,
  "\u2581come": 261,
  "\u2581It": 262,
  "\u2581Sai": 263,
  "\u2581wajen": 264,
  "\u2581lokacin": 265,
  "\u2581bauta": 266,
  "\u25813": 267,
  "\u2581taimaka": 268,
  "\u2581up": 269,
  "\u2581mut\u00e3ne": 270,
  "\u2581Idan": 271,
  "\u2581kamata": 272,
  "\u2581her": 273,
  "\u2581l\u00f5kacin": 274,
  "\u2581other": 275,
  "\u2581\u0199asa": 276,
  "\u2581love": 277,
  "\u2581mutum": 278,
  "\u2581So": 279,
  "\u2581than": 280,
  "\u2581When": 281,
  "b": 282,
  "\u2581muku": 283,
  "\u2581irin": 284,
  "\u2581such": 285,
  "\u2581shekara": 286,
  "\u2581Him": 287,
  "\u2581ita": 288,
  "\u2581If": 289,
  "\u2581muke": 290,
  "\u2581s\u0169": 291,
  "\u2581Y\u00e3": 292,
  "\u2581also": 293,
  "\u2581rai": 294,
  "\u2581any": 295,
  "\u2581zo": 296,
  "the": 297,
  "\u2581sab\u00f5da": 298,
  "\u2581biyu": 299,
  "\u2581\u0257aya": 300,
  "\u2581into": 301,
  "\"": 302,
  "da": 303,
  "\u2581among": 304,
  "\u2581kun": 305,
  "\u2581believe": 306,
  "\u2581man": 307,
  "\u2581sanya": 308,
  "\u2581world": 309,
  "\u2581You": 310,
  "\u2581see": 311,
  "\u2581Paul": 312,
  "\u2581Shin": 313,
  "\u2581ye": 314,
  "\u2581Bulus": 315,
  "\u2581faith": 316,
  "\u25814": 317,
  "u": 318,
  "\u2581whom": 319,
  "\u2581\u0257an": 320,
  "\u2581many": 321,
  "\u2581give": 322,
  "\u2581truth": 323,
  "\u2581kansu": 324,
  "\u2022": 325,
  "\u2581over": 326,
  "\u25816": 327,
  "\u2581aiki": 328,
  "\u2581down": 329,
  "\u2581Why": 330,
  "\u2581others": 331,
  "\u2581girma": 332,
  "\u2581farin": 333,
  "\u2581even": 334,
  "\u2581kawai": 335,
  "\u2581bayyana": 336,
  "ed": 337,
  "n\u00e3": 338,
  "\u2581Our": 339,
  "\u2581could": 340,
  "\u2581because": 341,
  "uwa": 342,
  "\u2581c\u1ebdwa": 343,
  "\u2581against": 344,
  "\u2581Kiristoci": 345,
  "\u2581jin": 346,
  "\u2581Wannan": 347,
  "\u2581mun": 348,
  "\u2581like": 349,
  "\u2581kuka": 350,
  "\u2581after": 351,
  "\u2581these": 352,
  "\u2581Ba": 353,
  "\u2581men": 354,
  "\u2581This": 355,
  "\u2581work": 356,
  "\u2581Then": 357,
  "\u2581alh\u00e3li": 358,
  "\u2581magana": 359,
  "\u2581Christians": 360,
  "\u2581sent": 361,
  "\u2581nufin": 362,
  "\u2581abu": 363,
  "azi": 364,
  "\u2581lokaci": 365,
  "\u2581its": 366,
  "\u258111": 367,
  "ya": 368,
  "\u2581sha": 369,
  "\u2581farko": 370,
  "\u2581tare": 371,
  "\u2581Yan\u00e3": 372,
  "\u2581For": 373,
  "\u2581sama": 374,
  "\u2581k\u00f5": 375,
  "\u2581true": 376,
  "\u2581nor": 377,
  "\u258115": 378,
  "\u2581spirit": 379,
  "\u2581indeed": 380,
  "\u2581tana": 381,
  "\u2581gaya": 382,
  "\u2581\u0199arfafa": 383,
  "\u2581away": 384,
  "\u2581Christian": 385,
  "\u2581As": 386,
  "\u2581kuke": 387,
  "\u2581bukatar": 388,
  "\u258110": 389,
  "\u2581yan\u00e3": 390,
  "\u2581she": 391,
  "\u2581Day": 392,
  "\u2581addu": 393,
  "\u2581Christ": 394,
  "\u2581soma": 395,
  "\u2581That": 396,
  "\u2581d\u00e3": 397,
  "in": 398,
  "\u2581Kingdom": 399,
  "\u2581being": 400,
  "\u2581All": 401,
  "\u2581koya": 402,
  "\u2581first": 403,
  "ly": 404,
  "\u2581yau": 405,
  "\u2581need": 406,
  "\u2581fear": 407,
  "\u2581muhimmanci": 408,
  "\u2581Za": 409,
  "\u2581az\u00e3ba": 410,
  "\u2581ones": 411,
  "\u2581own": 412,
  "\u2581unto": 413,
  "\u258113": 414,
  "\u2581Ubangiji": 415,
  "\u2581kansa": 416,
  "\u2581fi": 417,
  "\u2581example": 418,
  "\u2581Do": 419,
  "\u2581abubuwa": 420,
  "\u2581Kristi": 421,
  "\u2581aikata": 422,
  "\u2581must": 423,
  "\u2581two": 424,
  "\u2581given": 425,
  "Allah": 426,
  "\u2581shafi": 427,
  "\u2581Ku": 428,
  "\u2581aminci": 429,
  "\u2581might": 430,
  "\u2581well": 431,
  "\u2581Say": 432,
  "\u2581An": 433,
  "\u2581surely": 434,
  "\u2581worship": 435,
  "\u2581bisa": 436,
  "\u2581become": 437,
  "\u2581Shai\u0257an": 438,
  "\u2581another": 439,
  "Ku": 440,
  "\u2581k\u00f5me": 441,
  "\u2581Isra": 442,
  "\u25817": 443,
  "\u2581aikin": 444,
  "\u2581y\u00e3": 445,
  "\u2581k\u00e3firta": 446,
  "\u2581cika": 447,
  "\u2581most": 448,
  "\u2581rubuta": 449,
  "\u2581Ko": 450,
  "\u2581congregation": 451,
  "\u2581halitta": 452,
  "Lalle": 453,
  "\u2581let": 454,
  "\u2581spiritual": 455,
  "\u2581/": 456,
  "su": 457,
  "\u2581heavens": 458,
  "\u2581bayan": 459,
  "I": 460,
  "\u2581children": 461,
  "\u2581misali": 462,
  "\u2581samu": 463,
  "\u2581O": 464,
  "\u2581Saboda": 465,
  "\u2581tabbata": 466,
  "\u2581saukar": 467,
  "\u2581sami": 468,
  "\u2581Na": 469,
  "\u2581Menene": 470,
  "\u258114": 471,
  "\u2581heart": 472,
  "\u2581years": 473,
  "\u2581mutanen": 474,
  "\u2581death": 475,
  "\u2581right": 476,
  "\u2581gani": 477,
  "\u2581themselves": 478,
  "\u2581Hakika": 479,
  "\u2581b\u00e3bu": 480,
  "\u2581mata": 481,
  "\u2581words": 482,
  "d": 483,
  "\u2581great": 484,
  "\u2581family": 485,
  "\u2581knowledge": 486,
  "\u2581Sh\u0129": 487,
  "\u2581Witnesses": 488,
  "\u2581fa": 489,
  "\u25811,": 490,
  "\u25818": 491,
  "\u2581dabam": 492,
  "\u2581je": 493,
  "ta": 494,
  "\u2581every": 495,
  "\u2581Satan": 496,
  "\u2581Ubangijinka": 497,
  "\u2581find": 498,
  "\u2581hikima": 499,
  "\u2581evil": 500,
  "\u2581\u0199auna": 501,
  "\u2581maka": 502,
  "\u2581never": 503,
  "\u2581hankali": 504,
  "\u2581dai": 505,
  "\u2581came": 506,
  "\u2581bring": 507,
  "wa": 508,
  "\u2581where": 509,
  "\u2581dace": 510,
  "O": 511,
  "\u2581except": 512,
  "\u2581am": 513,
  "\u2581Yake": 514,
  "\u2581says": 515,
  "\u2581\u0199asar": 516,
  "\u2581back": 517,
  "\u2581keep": 518,
  "\u2581show": 519,
  "Kuma": 520,
  "\u2581each": 521,
  "\u2581hidima": 522,
  "\u2581Who": 523,
  "\u2581Those": 524,
  "...": 525,
  "\u2581believers": 526,
  "\u2581Yana": 527,
  "\u2581wa\u0257ansu": 528,
  "\u2581karanta": 529,
  "\u2581Adam": 530,
  "\u2581Indeed": 531,
  "\u2581thou": 532,
  "\u2581(1": 533,
  "\u2581kira": 534,
  "\u2581cikinsu": 535,
  "\u2581ta\u0199awa": 536,
  "\u2581David": 537,
  "ila": 538,
  "\u258112:": 539,
  "\u2581Yohanna": 540,
  "\u2581wadda": 541,
  "\u2581Moses": 542,
  "\u25819": 543,
  "\u2581between": 544,
  "\u2581hanyar": 545,
  "\u2581Kirista": 546,
  "\u2581ganin": 547,
  "yan": 548,
  "\u2581name": 549,
  "\u2581rayuwa": 550,
  "\u258117": 551,
  "\u2581tsarki": 552,
  "\u2581duk": 553,
  "\u2581used": 554,
  "\u2581cikinta": 555,
  "\u2581tuna": 556,
  "\u2581sammai": 557,
  "\u2581garga\u0257i": 558,
  "\u2581created": 559,
  "\u258116": 560,
  "\u2581sanin": 561,
  "\u2581turn": 562,
  "\u2581now": 563,
  "\u2581through": 564,
  "\u2581Kamar": 565,
  "\u2581while": 566,
  "\u2581punishment": 567,
  "\u2581Word": 568,
  "\u2581just": 569,
  "\u2581hanya": 570,
  "\u2581abubuwan": 571,
  "\u2581mini": 572,
  "\u2581ban": 573,
  "ar": 574,
  "\u2581ask": 575,
  "\u2581place": 576,
  "\u2581Israel": 577,
  "\u2581Shaidun": 578,
  "\u2581gave": 579,
  "\u2581shakka": 580,
  "\u2581ri\u0199a": 581,
  "\u2581k\u0169": 582,
  "\u2581\u0199warai": 583,
  "\u2581*": 584,
  "\u2581My": 585,
  "\u2581kula": 586,
  "\u2581Book": 587,
  "Ka": 588,
  "\u2581fahimci": 589,
  "\u2581Abin": 590,
  "\u2581hearts": 591,
  "\u2581go": 592,
  "\u2581bar": 593,
  "\u2581yanzu": 594,
  "\u2581set": 595,
  "\u2581ba\u0199in": 596,
  "\u258120": 597,
  "\u2581ruhaniya": 598,
  "\u2581brothers": 599,
  "\u00e3": 600,
  "\u2581part": 601,
  "\u2581though": 602,
  "\u2581Dauda": 603,
  "\u2581servants": 604,
  "\u2581shiga": 605,
  "ku": 606,
  "\u2581Mene": 607,
  "\u2581himself": 608,
  "\u2581apostle": 609,
  "\u2581laifi": 610,
  "\u2581page": 611,
  "\u2581sh\u0129": 612,
  "\u2581Wane": 613,
  "\u2581la": 614,
  "\u2581Bitrus": 615,
  "\u2581samun": 616,
  "\u2581faithful": 617,
  "\u2581put": 618,
  "\u2581\u0199i": 619,
  "\u2581d\u0101": 620,
  "\u2581power": 621,
  "\u2581kashe": 622,
  "\u2581much": 623,
  "\u2581kana": 624,
  "\u2581ina": 625,
  "\u2581today": 626,
  "\u2581t\u00e3re": 627,
  "!\"": 628,
  "\u2581follow": 629,
  "\u2581means": 630,
  "\u2581kusa": 631,
  "Y\u00e3": 632,
  "\u2581\u0199arya": 633,
  "sa": 634,
  "\u2581r\u00e3nar": 635,
  "\u2581rashin": 636,
  "\u2581One": 637,
  "\u2581news": 638,
  "\u2581aikat\u00e3wa": 639,
  "\u2581\u0199aunar": 640,
  "\u2581clear": 641,
  "\u2581certainly": 642,
  "\u2581fa\u0257a": 643,
  "\u2581deeds": 644,
  "\u2581John": 645,
  "\u2581bin": 646,
  "A": 647,
  "\u258118": 648,
  "\u2581Sab\u00f5da": 649,
  "\u2581alh\u1ebdri": 650,
  "\u2581ra": 651,
  "\u2581signs": 652,
  ",\"": 653,
  "\u2581new": 654,
  "\u2581koyi": 655,
  "\u2581kanku": 656,
  "\u2581why": 657,
  "\u2581faru": 658,
  "\u2581zunubi": 659,
  "\u2581yawan": 660,
  "\u2581Duk": 661,
  "\u2581word": 662,
  "\u2581very": 663,
  "\u2581ja": 664,
  "\u2581land": 665,
  "\u2581end": 666,
  "\u2581inda": 667,
  "\u2581found": 668,
  "\u2581aure": 669,
  "\u2581biyayya": 670,
  "\u2581prayer": 671,
  "\u2581Muna": 672,
  "\u2581thee": 673,
  "\u2581mankind": 674,
  "\u2581mutuwa": 675,
  "\u2581person": 676,
  "\u2581yarda": 677,
  "\u2581times": 678,
  "\u2581parents": 679,
  "\u2581ha\u0199uri": 680,
  "\u2581Masani": 681,
  "\u2581guda": 682,
  "\u2581mercy": 683,
  "\u2581Is": 684,
  "\u2581babu": 685,
  "lal": 686,
  "\u2581ruwa": 687,
  "\u2581Suka": 688,
  "to": 689,
  "\u2581women": 690,
  "\u2581maza": 691,
  "\u2581g\u00e3fara": 692,
  "\u258122": 693,
  "\u2581sake": 694,
  "\u2581righteous": 695,
  "\u2581forth": 696,
  "\u2581M": 697,
  "\u2581ikilisiya": 698,
  "\u2581Musa": 699,
  "\u2581brought": 700,
  "\u2581matsayin": 701,
  "\u2581better": 702,
  "\u2581Bayan": 703,
  "\u2581rahama": 704,
  "\u2581wato": 705,
  "\u2581kuna": 706,
  "\u2581There": 707,
  "\u2581knows": 708,
  "\u2581Messenger": 709,
  "\u2581\u0199arfi": 710,
  "t": 711,
  "\u2581best": 712,
  "\u2581human": 713,
  "\u2581until": 714,
  "\u2581zan": 715,
  "\u2581kafin": 716,
  "\u2581ta\u0253a": 717,
  "\u2581\u0257aukaka": 718,
  "\u2581ana": 719,
  "\u2581cause": 720,
  "\u2581hana": 721,
  "\u2581aika": 722,
  "\u2581peace": 723,
  "\u2581study": 724,
  "\u2581tafiya": 725,
  "\u2581On": 726,
  "\u2581told": 727,
  "\u2581wrong": 728,
  "\u2581z\u00e3lunci": 729,
  "\u2581Mulkin": 730,
  "ka": 731,
  "\u2581feel": 732,
  "\u2581holy": 733,
  "\u2581taimake": 734,
  "\u2581Peter": 735,
  "\u2581without": 736,
  "\u2581learn": 737,
  "\u2581shaida": 738,
  "\u2581heaven": 739,
  "\u2581order": 740,
  "\u2581use": 741,
  "\u2581daraja": 742,
  "\u2581night": 743,
  "\u2581\u0257auki": 744,
  "\u2581By": 745,
  "\u2581reward": 746,
  "\u2581No": 747,
  "\u2581Ubangijinku": 748,
  "\u2581ever": 749,
  "\u258112": 750,
  "Ya": 751,
  "\u2581Wa\u0257annan": 752,
  "\u2581Manzo": 753,
  "\u2581Wa\u0257an": 754,
  "\u2581serve": 755,
  "\u2581ministry": 756,
  "\u2581long": 757,
  "\u258119": 758,
  "\u2581littafin": 759,
  "\u2581tattauna": 760,
  "\u2581wife": 761,
  "\u2581hope": 762,
  "\u2581Manzanni": 763,
  "\u2581sin": 764,
  "\u2581halaka": 765,
  "\u2581m\u0169minai": 766,
  "\u2581b\u00e3yan": 767,
  "\u2581tunani": 768,
  "\u258121": 769,
  "\u2581wancan": 770,
  "\u2581too": 771,
  "\u2581became": 772,
  "\u2581kawo": 773,
  "\u2581\u0253ata": 774,
  "\u2581Kalmar": 775,
  "\u2581same": 776,
  "\u2581However": 777,
  "\u2581Abraham": 778,
  "\u2581baya": 779,
  "\u2581wuya": 780,
  "\u25812.": 781,
  "\u2581both": 782,
  "\u2581fitar": 783,
  "\u2581Zabura": 784,
  "\u2581consider": 785,
  "\u2581Yaya": 786,
  "\u2581kasancewa": 787,
  "\u2581uku": 788,
  "\u2581course": 789,
  "\u2581kowane": 790,
  "\u2581Wani": 791,
  "\u2581days": 792,
  "\u2581doing": 793,
  "of": 794,
  "\u2581want": 795,
  "\u2581brother": 796,
  "\u2581return": 797,
  "\u2581ways": 798,
  "\u2581mutu": 799,
  "\u2581young": 800,
  "\u2581kafa": 801,
  "\u2581mind": 802,
  "\u2581revealed": 803,
  "\u25813:": 804,
  "\u2581dare": 805,
  "\u2581R\u00e3nar": 806,
  "\u2581kake": 807,
  "\u2581together": 808,
  "\u2581Babu": 809,
  "\u2581cikinsa": 810,
  "\u2581guidance": 811,
  "\u2581wrote": 812,
  "\u2581mayar": 813,
  "\u2581Most": 814,
  "\u2581ruhu": 815,
  "\u2581hath": 816,
  "\u2581full": 817,
  "\u258124:": 818,
  "\u2581Don": 819,
  "\u2581musamman": 820,
  "\u2581angels": 821,
  "\u2581shiryar": 822,
  "\u2581Domin": 823,
  "\u2581\u0199arshe": 824,
  "\u2581Wasu": 825,
  "We": 826,
  "\u2581hand": 827,
  "\u2581able": 828,
  "\u2581disciples": 829,
  "y": 830,
  "\u2581\u0199aryata": 831,
  "\u2581Kada": 832,
  "\u2581adalci": 833,
  "\u2581nazarin": 834,
  "\u2581call": 835,
  "\u2581abada": 836,
  "\u2581fita": 837,
  "\u2581j\u1ebd": 838,
  "\u2581L\u00e3hira": 839,
  "\u2581d\u0169niya": 840,
  "\u2581Father": 841,
  "\u2581important": 842,
  "\u2581m\u0169": 843,
  "\u2581think": 844,
  "\u2581Wanda": 845,
  "\u2581under": 846,
  "\u2581saboda": 847,
  "\u2581mut\u00e3nen": 848,
  "ce": 849,
  "\u25812:": 850,
  "\u2581k\u00e3firai": 851,
  "\u2581live": 852,
  "\u2581Mulki": 853,
  "\u2581father": 854,
  "\u2581nasara": 855,
  "\u2581daidai": 856,
  "\u2581preaching": 857,
  "\u2581tunanin": 858,
  "\u2581Daga": 859,
  "\u258110.": 860,
  "\u2581witness": 861,
  "\u2581Your": 862,
  "iku": 863,
  "\u2581zauna": 864,
  "\u2581\u0199ara": 865,
  "\u2581read": 866,
  "\u2581kanmu": 867,
  "\u2581\u0199ai": 868,
  "\u2581ayyukan": 869,
  "\u2581duka": 870,
  "\u2581taron": 871,
  "\u2581rana": 872,
  "\u2581called": 873,
  "\u2581(2": 874,
  "\u2581Surely": 875,
  "The": 876,
  "\u2581done": 877,
  "\u2581ka\u0257an": 878,
  "\u2581babban": 879,
  "\u2581service": 880,
  "o": 881,
  "\u2581M\u0169": 882,
  "\u2581eyes": 883,
  "\u2581zuciya": 884,
  "\u2581nothing": 885,
  "Shin": 886,
  "\u2581shekaru": 887,
  "\u2581Us": 888,
  "\u2581lura": 889,
  "\u2581water": 890,
  "\u2581gida": 891,
  "\u2581yet": 892,
  "\u2581tsanani": 893,
  "\u2581Hakan": 894,
  "\u2581verily": 895,
  "\u2581albarka": 896,
  "\u2581therein": 897,
  "\u2581understand": 898,
  "\u2581alkawari": 899,
  "\u2581juna": 900,
  "E": 901,
  "ilawa": 902,
  "mu": 903,
  "\u2581Wa\u0257anne": 904,
  "\u2581saying": 905,
  "\u2581gaske": 906,
  "\u25814.": 907,
  "\u2581Some": 908,
  "\u25814:": 909,
  "\u2581speak": 910,
  "\u2581Litt\u00e3fi": 911,
  "\u2581sau\u0199i": 912,
  "\u2581book": 913,
  "\u2581Thus": 914,
  "\u2581Yet": 915,
  "\u2581wahala": 916,
  "\u2581leave": 917,
  "\u2581bangaskiya": 918,
  "\u2581view": 919,
  "\u2581desire": 920,
  "\u2581ambata": 921,
  "\u2581share": 922,
  "\u2581Ubangijinsu": 923,
  "\u2581during": 924,
  "\u2581M\u0169s\u00e3": 925,
  "\u25813,": 926,
  "\u25819,": 927,
  "\u2581gama": 928,
  "\u2581took": 929,
  "\u25818.": 930,
  "\u2581b\u00e3yar": 931,
  "\u2581old": 932,
  "\u2581cannot": 933,
  "\u2581whose": 934,
  "\u258113.": 935,
  "\u2581promise": 936,
  "\u2581anointed": 937,
  "in\u00e3": 938,
  "\u2581making": 939,
  "\u2581yini": 940,
  "\u2581home": 941,
  "\u2581Sun": 942,
  "\u2581face": 943,
  "\u2581bukata": 944,
  "\u2581religion": 945,
  "fiye": 946,
  "\u2581daina": 947,
  "\u2581tawali": 948,
  "\u258125": 949,
  "\u2581matter": 950,
  "akari": 951,
  "\u2581get": 952,
  "\u2581\u0199as\u00e3": 953,
  "\u2581living": 954,
  "\u2581Verily": 955,
  "\u2581thy": 956,
  "\u2581With": 957,
  "\u2581fa\u0257i": 958,
  "ke": 959,
  "\u258115.": 960,
  "\u2581amince": 961,
  "\u2581At": 962,
  "\u2581whatever": 963,
  "\u2581After": 964,
  "\u258112.": 965,
  "\u2581abinci": 966,
  "\u2581soul": 967,
  "\u2581matattu": 968,
  "\u2581ts\u00f5ron": 969,
  "\u2581baftisma": 970,
  "\u258116.": 971,
  "\u2581Aljanna": 972,
  "\u2581hukunci": 973,
  "\u2581n\u0129": 974,
  "\u2581Picture": 975,
  "\u2581send": 976,
  "\u2581Psalm": 977,
  "\u00e3ni": 978,
  "\u2581light": 979,
  "\u2581taimakon": 980,
  "\u2581toward": 981,
  "\u2581shawara": 982,
  "\u2581seek": 983,
  "\u2581tun": 984,
  "\u2581Let": 985,
  "al": 986,
  "\u2581fact": 987,
  "\u2581fellow": 988,
  "\u2581benefit": 989,
  "\u2581King": 990,
  "\u2581\u0198ari": 991,
  "\u2581tell": 992,
  "\u2581nake": 993,
  "\u258111.": 994,
  "\u2581These": 995,
  "\u25819.": 996,
  "\u258114.": 997,
  "\u25815.": 998,
  "\u25817.": 999,
  "\u2581asked": 1000,
  "\u2581loving": 1001,
  "\u2581Ibrahim": 1002,
  "\u2581Scriptures": 1003,
  "\u2581ri\u0199i": 1004,
  "\u2581ranar": 1005,
  "\u2581left": 1006,
  "\u2581appointed": 1007,
  "\u2581comes": 1008,
  "\u2581bincika": 1009,
  "\u2581hands": 1010,
  "\u2581taro": 1011,
  "\u258115,": 1012,
  "\u2581near": 1013,
  "\u2581marriage": 1014,
  "\u2581reason": 1015,
  "\u2581m\u00e3t\u00e3": 1016,
  "\u2581nation": 1017,
  "\u258117.": 1018,
  "\u2581command": 1019,
  "\u2581jama": 1020,
  "\u2581Son": 1021,
  "\u2581something": 1022,
  "\u2581sunan": 1023,
  "\u25815,": 1024,
  "\u2581Fir": 1025,
  "\u2581hidimar": 1026,
  "\u2581n\u1ebdman": 1027,
  "\u2581manzo": 1028,
  "\u2581having": 1029,
  "\u2581saka": 1030,
  "\u2581dogara": 1031,
  "\u25816.": 1032,
  "\u2581neither": 1033,
  "\u2581tafi": 1034,
  "\u2581ka\u0257ai": 1035,
  "\u2581still": 1036,
  "\u2581taimako": 1037,
  "\u2581kama": 1038,
  "\u2581receive": 1039,
  "\u2581B\u00e3": 1040,
  "\u2581yourselves": 1041,
  "\u2581Mun\u00e3": 1042,
  "\u2581duba": 1043,
  "\u2581zamanin": 1044,
  "\u2581account": 1045,
  "\u2581later": 1046,
  "\u2581remember": 1047,
  "\u2581sanar": 1048,
  "\u258123": 1049,
  "\u2581umurnin": 1050,
  "\u2581cin": 1051,
  "\u2581tsakanin": 1052,
  "\u2581three": 1053,
  "\u2581wane": 1054,
  "\u2581Ubangijinmu": 1055,
  "\u2581koyar": 1056,
  "\u2581wisdom": 1057,
  "\u2581look": 1058,
  "\u2581Suna": 1059,
  "\u2581mugunta": 1060,
  "\u258128": 1061,
  "\u2581ayyuka": 1062,
  "\u2581wuta": 1063,
  "\u2581year": 1064,
  "Read": 1065,
  "\u2581trust": 1066,
  "\u2581Al": 1067,
  "\u25816:": 1068,
  "\u2581ikon": 1069,
  "\u2581ri\u0199e": 1070,
  "\u2581Or": 1071,
  "\u2581house": 1072,
  "\u2581sakamako": 1073,
  "\u25816,": 1074,
  "\u2581t\u00e3": 1075,
  "\u2581halin": 1076,
  "\u2581therefore": 1077,
  "\u2581yanayin": 1078,
  "\u2581turned": 1079,
  "\u2581dead": 1080,
  "azin": 1081,
  "\u2581Fire": 1082,
  "st": 1083,
  "\u2581Have": 1084,
  "\u2581began": 1085,
  "\u2581She": 1086,
  "\u2581Yes": 1087,
  "\u2581girman": 1088,
  "\u2581off": 1089,
  "\u2581wicked": 1090,
  "\u2581Yin": 1091,
  "\u2581iko": 1092,
  "\u2581ourselves": 1093,
  "\u2581tabbatar": 1094,
  "\u2581motsa": 1095,
  "\u2581j\u0169ya": 1096,
  "\u2581\u0199o\u0199ari": 1097,
  "\u2581article": 1098,
  "\u2581sons": 1099,
  "\u2581counsel": 1100,
  "\u2581purpose": 1101,
  "\u2581again": 1102,
  "\u2581az\u00e3bar": 1103,
  "\u2581joy": 1104,
  "\u2581k\u00f5wane": 1105,
  "\u258114,": 1106,
  "\u2581Ni": 1107,
  "\u2581kan\u00e3": 1108,
  "\u2581Israelites": 1109,
  "\u2581\u00c3": 1110,
  "\u2581far": 1111,
  "\u2581Merciful": 1112,
  "\u2581disbelieve": 1113,
  "\u2581obey": 1114,
  "\u2581amsa": 1115,
  "\u2581gives": 1116,
  "\u2581Muhammad": 1117,
  "\u2581doubt": 1118,
  "\u2581kwatanta": 1119,
  "\u2581ilmi": 1120,
  "\u2581often": 1121,
  "\u2581remain": 1122,
  "\u2581daidaita": 1123,
  "\u2581Even": 1124,
  "\u2581message": 1125,
  "\u2581azz\u00e3lumai": 1126,
  "\u2581\u0199a": 1127,
  "\u2581yar": 1128,
  "],": 1129,
  "\u2581Mafi": 1130,
  "\u2581nufi": 1131,
  "\u2581humans": 1132,
  "\u2581helped": 1133,
  "\u2581bishara": 1134,
  "\u2581kiran": 1135,
  "\u2581godiya": 1136,
  "\u2581torment": 1137,
  "\u2581elders": 1138,
  "\u2581works": 1139,
  "\u2581personal": 1140,
  "\u2581s\u00e3mi": 1141,
  "\u2581tambayar": 1142,
  "\u2581always": 1143,
  "\u2581Matthew": 1144,
  "\u2581kar\u0253i": 1145,
  "\u2581mutumin": 1146,
  "auna": 1147,
  "\u2581an\u00e3": 1148,
  "\u2581result": 1149,
  "\u2581sign": 1150,
  "\u2581Yoh": 1151,
  "ga": 1152,
  "mi": 1153,
  "\u2581little": 1154,
  "\u2581Prophet": 1155,
  "\u2581k\u00e3": 1156,
  "th": 1157,
  "\u2581Yahudawa": 1158,
  "\u2581everything": 1159,
  "\u2581sau": 1160,
  "\u2581birnin": 1161,
  "\u2581sins": 1162,
  "\u2581tabbaci": 1163,
  "\u25813.": 1164,
  "\u2581close": 1165,
  "\u2581mother": 1166,
  "\u2581nations": 1167,
  "\u2581hear": 1168,
  "\u2581misalin": 1169,
  "\u2581thing": 1170,
  "\u2581j\u0169na": 1171,
  "\u2581support": 1172,
  "\u2581deny": 1173,
  "\u2581food": 1174,
  "\u2581questions": 1175,
  "\u2581astray": 1176,
  "eth": 1177,
  "\u2581Kai": 1178,
  "\u2581isa": 1179,
  "Karanta": 1180,
  "\u2581present": 1181,
  "\u2581addini": 1182,
  "\u2581Ina": 1183,
  "\u2581fire": 1184,
  "\u2581believed": 1185,
  "\u2581ha\u0257a": 1186,
  "\u2581anything": 1187,
  "\u2581Yi": 1188,
  "\u2581none": 1189,
  "\u2581tsak\u00e3ninsu": 1190,
  "\u2581knew": 1191,
  "\u2581Lo": 1192,
  "\u2581baut\u00e3wa": 1193,
  "\u2581disbelievers": 1194,
  "\u2581fara": 1195,
  "\u2581_": 1196,
  "\u2581thus": 1197,
  "\u2581kindness": 1198,
  "\u2581canja": 1199,
  "dda": 1200,
  "nsu": 1201,
  "\u25814,": 1202,
  "S": 1203,
  "\u2581apostles": 1204,
  "\u2581blessings": 1205,
  "\u2581save": 1206,
  "\u2581taken": 1207,
  "):": 1208,
  "\u2581yanayi": 1209,
  "\u2581lead": 1210,
  "\u2581woman": 1211,
  "\u2581gaskata": 1212,
  "\u2581child": 1213,
  "\u2581saw": 1214,
  "\u2581Ubangijin": 1215,
  "\u2581behind": 1216,
  "\u2581seen": 1217,
  "\u2581guided": 1218,
  "\u2581whoever": 1219,
  "\u2581answer": 1220,
  "\u25817,": 1221,
  "\u25818,": 1222,
  "\u2581Such": 1223,
  "\u2581Jerusalem": 1224,
  "\u2581sakamakon": 1225,
  "\u2581city": 1226,
  "\u2581da\u0257ewa": 1227,
  "\u2581promised": 1228,
  "\u2581\u00a1": 1229,
  "\u2581C": 1230,
  "\u2581respect": 1231,
  "\u2581\u0257auke": 1232,
  "\u2581few": 1233,
  "\u2581guide": 1234,
  "\u2581maganar": 1235,
  "\u2581yara": 1236,
  "\u2581hali": 1237,
  "Sa": 1238,
  "\u2581conduct": 1239,
  "\u2581forgiveness": 1240,
  "\u2581\u018aan": 1241,
  "\u2581d\u00e3\u0257i": 1242,
  "\u2581provided": 1243,
  "\u2581above": 1244,
  "\u2581unbelievers": 1245,
  "\u2581Urushalima": 1246,
  "\u2581alheri": 1247,
  "\u2581however": 1248,
  "\u2581%": 1249,
  "\u2581gidan": 1250,
  "\u2581\u0199arni": 1251,
  "\u2581hard": 1252,
  "\u258126": 1253,
  "\u2581Ishaya": 1254,
  "\u2581whether": 1255,
  "\u2581\u0199yale": 1256,
  "\u2581husband": 1257,
  "\u2581kind": 1258,
  "\u2581marar": 1259,
  "\u2581Matta": 1260,
  "\u258112,": 1261,
  "\u25812,": 1262,
  "\u2581known": 1263,
  "\u2581neman": 1264,
  "\u2581\u0257\u00e3": 1265,
  "\u2581dattawa": 1266,
  "\u2581pray": 1267,
  "\u2581bayin": 1268,
  "\u2581century": 1269,
  "Mat": 1270,
  "\u2581k\u0101re": 1271,
  "\u2581batun": 1272,
  "\u2581act": 1273,
  "\u258118.": 1274,
  "\u2581F": 1275,
  "\u2581ManzonSa": 1276,
  "\u258133": 1277,
  "\u2581lafiya": 1278,
  "\u2581prophet": 1279,
  "\u2581anyone": 1280,
  "\u2581future": 1281,
  "\u2581meetings": 1282,
  "\u2581mugun": 1283,
  "Na": 1284,
  "\u2581Job": 1285,
  "na": 1286,
  "This": 1287,
  "\u2581Bari": 1288,
  "\u2581certain": 1289,
  "\u2581makes": 1290,
  "\u2581ruwan": 1291,
  "\u2581n\u00e3": 1292,
  "\u2581s\u00e3m": 1293,
  "\u2581number": 1294,
  "\u2581free": 1295,
  "\u2581relationship": 1296,
  "\u2581salla": 1297,
  "\u2581slave": 1298,
  "ummai": 1299,
  "\u2581Hoto": 1300,
  "\u2581went": 1301,
  "\u2581alkawarin": 1302,
  "\u2581zaton": 1303,
  "\u2581Har": 1304,
  "\u2581From": 1305,
  "\u2581People": 1306,
  "\u2581bear": 1307,
  "\u2581covenant": 1308,
  "You": 1309,
  "\u2581continue": 1310,
  "\u2581bari": 1311,
  "\u2581mala": 1312,
  "\u2581\u0199arshen": 1313,
  "\u258111,": 1314,
  "\u2581experience": 1315,
  "\u2581heavenly": 1316,
  "\u2581Will": 1317,
  "\u2581Noah": 1318,
  "\u258130": 1319,
  "\u2581Jews": 1320,
  "\u2581eat": 1321,
  "\u258131": 1322,
  "\u2581tsai": 1323,
  "\u2581Hereafter": 1324,
  "\u2581Isaiah": 1325,
  "\u2581followers": 1326,
  "\u2581authority": 1327,
  "\u2581really": 1328,
  "\u258119.": 1329,
  "\u2581Kor": 1330,
  "\u2581shawarar": 1331,
  "\u2581creation": 1332,
  "\u2581bad": 1333,
  "\u2581already": 1334,
  "\u2581someone": 1335,
  "\u2581righteousness": 1336,
  "umma": 1337,
  "\u2581Jahannama": 1338,
  "\u2581forgive": 1339,
  "\u2581path": 1340,
  "\u2581truly": 1341,
  "\u2581sure": 1342,
  "\u2581wata\u0199ila": 1343,
  "adi": 1344,
  "ne": 1345,
  "Matta": 1346,
  "\u2581Wata\u0199ila": 1347,
  "\u2581da\u0257in": 1348,
  "\u2581greater": 1349,
  "\u2581teaching": 1350,
  "\u2581ciyar": 1351,
  "\u2581gaban": 1352,
  "\u2581die": 1353,
  "\u2581enter": 1354,
  "\u2581yanke": 1355,
  "\u2581dalilin": 1356,
  "\u2581raised": 1357,
  "\u258124": 1358,
  "\u258127": 1359,
  "\u2581\u00e3y\u00f5yinMu": 1360,
  "\u2581Mabuw\u00e3yi": 1361,
  "\u2581Sarki": 1362,
  "\u2581barin": 1363,
  "\u2581concerning": 1364,
  "\u2581Daniel": 1365,
  "\u2581menene": 1366,
  "\u258110)": 1367,
  "\u2581Sun\u00e3": 1368,
  "\u2581enjoy": 1369,
  "\u2581gina": 1370,
  "\u2581iyaye": 1371,
  "To": 1372,
  "\u258110,": 1373,
  "\u2581New": 1374,
  "\u2581Mutane": 1375,
  "\u2581avoid": 1376,
  "\u2581fushi": 1377,
  "\u2581yayin": 1378,
  "\u2581Ayuba": 1379,
  "\u258116,": 1380,
  "\u2581lives": 1381,
  "\u2581giving": 1382,
  "\u2581tsare": 1383,
  "\u2581Read": 1384,
  "\u2581Wancan": 1385,
  "\u2581Wata": 1386,
  "\u2581rantsuwa": 1387,
  "\u2581false": 1388,
  "\u2581mal\u00e3": 1389,
  "\u2581ikilisiyar": 1390,
  "\u2581bayani": 1391,
  "\u2581Their": 1392,
  "\u2581ki": 1393,
  "\u2581needed": 1394,
  "\u2581riga": 1395,
  "\u2581Of": 1396,
  "\u2581tsoron": 1397,
  "\u2581haske": 1398,
  "\u2581Pharaoh": 1399,
  "\u2581following": 1400,
  "\u2581t\u0169ba": 1401,
  "\u2581Ubangijina": 1402,
  "\u2581provide": 1403,
  "\u2581received": 1404,
  "\u2581kanka": 1405,
  "\u2581\u0199aryat\u00e3wa": 1406,
  "\u2581salama": 1407,
  "\u2581fine": 1408,
  "\u2581king": 1409,
  "\u2581soon": 1410,
  "\u2581case": 1411,
  "Wannan": 1412,
  "\u2581ts\u00f5ro": 1413,
  "\u2581--": 1414,
  "\u2581\u0257aukan": 1415,
  "\u2581alone": 1416,
  "\u2581gab\u00e3nin": 1417,
  "\u2581koyarwa": 1418,
  "\u2581tsarkake": 1419,
  "\u2581last": 1420,
  "\u2581Wa": 1421,
  "\u2581praise": 1422,
  "\u2581kirki": 1423,
  "\u2581thought": 1424,
  "\u2581baicin": 1425,
  "\u25814)": 1426,
  "\u2581Maimako": 1427,
  "\u2581kingdom": 1428,
  "\u2581taught": 1429,
  "\u2581Many": 1430,
  "\u2581yourself": 1431,
  "\u2581prayers": 1432,
  "\u2581wise": 1433,
  "\u2581attitude": 1434,
  "\u2581\u00e3y\u00f5yi": 1435,
  "\u2581forever": 1436,
  "\u2581n\u1ebdmi": 1437,
  "ayin": 1438,
  "\u2581dole": 1439,
  "\u25818)": 1440,
  "\u2581gora": 1441,
  "Zabura": 1442,
  "\u2581hanyoyi": 1443,
  "\u2581shiriya": 1444,
  "\u2581heard": 1445,
  "\u2581serving": 1446,
  "\u2581stand": 1447,
  "\u258113,": 1448,
  "\u2581amfana": 1449,
  "\u2581Law": 1450,
  "\u2581care": 1451,
  "\u2581sheep": 1452,
  "\u2581sarauta": 1453,
  "\u2581possible": 1454,
  "\u2581happy": 1455,
  "\u2581mutanensa": 1456,
  "\u2581friends": 1457,
  "\u2581going": 1458,
  "\u2581sense": 1459,
  "\u2581marasa": 1460,
  "\u258129": 1461,
  "\u2581language": 1462,
  "\u2581wahayi": 1463,
  "\u2581learned": 1464,
  "\u2581strong": 1465,
  "\u2581along": 1466,
  "\u2581fuskanta": 1467,
  "\u2581mamaki": 1468,
  "\u2581self": 1469,
  "\u2581Ga": 1470,
  "\u2581desires": 1471,
  "\u2581wuri": 1472,
  "\u258119,": 1473,
  "\u2581shafaffu": 1474,
  "\u2581manifest": 1475,
  "\u2581Timothy": 1476,
  "\u2581accept": 1477,
  "\u2581majagaba": 1478,
  "\u2581da\u0257a": 1479,
  "\u258132": 1480,
  "\u2581Ashe": 1481,
  "\u2581Resurrection": 1482,
  "\u2581Zai": 1483,
  "\u2581change": 1484,
  "\u2581destroyed": 1485,
  "\u2581ku\u0257i": 1486,
  "\u2581sacrifice": 1487,
  "\u2581wealth": 1488,
  "\u2581Consider": 1489,
  "\u2581jimre": 1490,
  "\u2581\u00e3y\u00f5yin": 1491,
  "\u2581Su": 1492,
  "\u2581hannu": 1493,
  "\u2581labarin": 1494,
  "\u2581Tim": 1495,
  "\u2581Ubangijinsa": 1496,
  "\u2581fito": 1497,
  "\u2581felt": 1498,
  "\u2581shigar": 1499,
  "\u2581system": 1500,
  "\u2581jawo": 1501,
  "\u2581Ban": 1502,
  "\u2581Saul": 1503,
  "\u2581law": 1504,
  "\u2581Joseph": 1505,
  "\u2581gab\u00e3": 1506,
  "\u2581shirya": 1507,
  "\u2581wives": 1508,
  "\u2581B": 1509,
  "\u2581kowa": 1510,
  "\u2581\u0253atar": 1511,
  "awa": 1512,
  "\u2581Luke": 1513,
  "\u2581\u00e3y\u00e3": 1514,
  "\u2581shirki": 1515,
  "\u2581zuk\u00e3tansu": 1516,
  "\u2581\u0199arin": 1517,
  "\u2581iyali": 1518,
  "\u2581kalmar": 1519,
  "\u2581manta": 1520,
  "\u2581different": 1521,
  "\u2581strength": 1522,
  "\u2581understanding": 1523,
  "ima": 1524,
  "\u2581shin": 1525,
  "\u2581tan\u00e3": 1526,
  "\u2581matters": 1527,
  "\u2581jiki": 1528,
  "_": 1529,
  "\u2581Can": 1530,
  "\u2581c\u0169ta": 1531,
  "\u2581kyautata": 1532,
  "\u2581mean": 1533,
  "\u2581j\u1ebdfa": 1534,
  "Kada": 1535,
  "\u2581attention": 1536,
  "B\u00e3bu": 1537,
  "\u2581kar\u0253a": 1538,
  "\u2581question": 1539,
  "\u2581Are": 1540,
  "\u2581dangantaka": 1541,
  "\u2581S": 1542,
  "\u2581rage": 1543,
  "\u2581age": 1544,
  "\u2581arziki": 1545,
  "\u2581belongs": 1546,
  "\u2581bush\u00e3ra": 1547,
  "Ba": 1548,
  "If": 1549,
  "\u2581Masu": 1550,
  "\u2581fanel": 1551,
  "ci": 1552,
  "\u2581Because": 1553,
  "\u2581NA": 1554,
  "iy\u00e3ma": 1555,
  "\u2581coming": 1556,
  "\u2581Bethel": 1557,
  "\u2581resurrection": 1558,
  "\u2581besides": 1559,
  "\u2581Solomon": 1560,
  "R": 1561,
  "\u258114)": 1562,
  "\u2581kullum": 1563,
  "\u2581listen": 1564,
  "\u2581mut\u00e3nensa": 1565,
  "\u2581Karanta": 1566,
  "\u2581ab\u0169buwan": 1567,
  "\u2581kowace": 1568,
  "\u2581Mary": 1569,
  "\u258120.": 1570,
  "\u25813)": 1571,
  "\u2581sisters": 1572,
  "\u2581painful": 1573,
  "Z": 1574,
  "\u2581according": 1575,
  "ki": 1576,
  "\u2581\u0257auka": 1577,
  "\u2581around": 1578,
  "er": 1579,
  "uwan": 1580,
  "\u2581teach": 1581,
  "\u2581Did": 1582,
  "\u2581baptized": 1583,
  "\u2581biyar": 1584,
  "\u2581hold": 1585,
  "\u258112)": 1586,
  "\u2581fight": 1587,
  "My": 1588,
  "\u258117,": 1589,
  "\u2581members": 1590,
  "\u2581Korinthiyawa": 1591,
  "\u2581god": 1592,
  "\u2581Kana": 1593,
  "\u2581verses": 1594,
  "\u2581Hell": 1595,
  "\u2581Therefore": 1596,
  "\u2581Tun": 1597,
  "\u25819)": 1598,
  "\u2581shige": 1599,
  "\u258111)": 1600,
  "\u2581evidence": 1601,
  "\u2581towards": 1602,
  "\u2581draw": 1603,
  "\u2581suffering": 1604,
  "\u258117)": 1605,
  "\u2581ha\u0257in": 1606,
  "\u2581whole": 1607,
  "\u2581Paradise": 1608,
  "\u2581ya\u0199i": 1609,
  "\u2581ga\u0257i": 1610,
  "\u2581cikinku": 1611,
  "\u2581gud\u00e3na": 1612,
  "\u258113)": 1613,
  "\u2581situation": 1614,
  "].": 1615,
  "\u2581Acts": 1616,
  "\u2581inspired": 1617,
  "\u2581koma": 1618,
  "\u2581nazari": 1619,
  "uwansa": 1620,
  "buwar": 1621,
  "\u2581fuskantar": 1622,
  "ana": 1623,
  "\u2581almajiransa": 1624,
  "\u2581matasa": 1625,
  "\u2581revelations": 1626,
  "God": 1627,
  "\u2581group": 1628,
  "\u2581shari": 1629,
  "uwanmu": 1630,
  "\u2581bakwai": 1631,
  "\u2581n\u0169na": 1632,
  "\u2581Luka": 1633,
  "\u2581Ma": 1634,
  "\u25817)": 1635,
  "\u2581Romawa": 1636,
  "\u2581s\u00e3ka": 1637,
  "\u25815)": 1638,
  "\u2581allow": 1639,
  "\u2581everlasting": 1640,
  "\u2581within": 1641,
  "\u258116)": 1642,
  "\u2581tsananin": 1643,
  "\u2581shan": 1644,
  "\u2581gari": 1645,
  "\u2581moved": 1646,
  "\u2581y\u00e3\u0199i": 1647,
  "\u2581hu\u0257u": 1648,
  "\u2581cikakken": 1649,
  "\u2581mun\u00e3": 1650,
  "\u2581umurni": 1651,
  "\u2581Does": 1652,
  "\u2581kome": 1653,
  "\u2581sh\u00e3fe": 1654,
  "\u2581spend": 1655,
  "\u2581zaman": 1656,
  "\u2581kasa": 1657,
  "\u2581lie": 1658,
  "\u2581sauran": 1659,
  "\u2581glory": 1660,
  "\u2581Ana": 1661,
  "\u2581imitate": 1662,
  "\u2581blood": 1663,
  "\u2581kawar": 1664,
  "\u2581next": 1665,
  "\u2581ra\u0257a\u0257i": 1666,
  "\u2581begen": 1667,
  "\u2581k\u00f5wa": 1668,
  "\u2581tsarin": 1669,
  "\u258115)": 1670,
  "\u2581Quran": 1671,
  "\u2581reach": 1672,
  "\u2581mulki": 1673,
  "\u2581gift": 1674,
  "\u2581Ibraniyawa": 1675,
  "\u2581panel": 1676,
  "\u2581r\u00e3yuwar": 1677,
  "\u2581shows": 1678,
  "\u2581key": 1679,
  "\u2581K\u00f5": 1680,
  "Do": 1681,
  "\u2581gid\u00e3jen": 1682,
  "\u2581regard": 1683,
  "\u2581taking": 1684,
  "\u2581temple": 1685,
  "\u00e3wa": 1686,
  "\u2581Messengers": 1687,
  "\u2581regarding": 1688,
  "\u2581similar": 1689,
  "\u2581lost": 1690,
  "\u258121.": 1691,
  "\u2581kalmomin": 1692,
  "\u2581needs": 1693,
  "\u2581high": 1694,
  "\u2581K": 1695,
  "\u2581mulkin": 1696,
  "\u2581chastisement": 1697,
  "\u2581gyara": 1698,
  "\u2581tambayoyi": 1699,
  "\u2581\u0199arfin": 1700,
  "\u2581Would": 1701,
  "\u2581difficult": 1702,
  "\u2581spiritually": 1703,
  "\u2581ainihin": 1704,
  "\u2581religious": 1705,
  "yi": 1706,
  "\u2581war": 1707,
  "\u25812)": 1708,
  "\u2581Wise": 1709,
  "\u2581early": 1710,
  "\u2581b\u00e3ya": 1711,
  "\u2581point": 1712,
  "\u2581tuba": 1713,
  "\u2581reading": 1714,
  "\u2581Revelation": 1715,
  "\u2581Adamu": 1716,
  "\u2581kept": 1717,
  "\u2581D\u00f5min": 1718,
  "\u2581ke\u0253e": 1719,
  "\u2581sujada": 1720,
  "It": 1721,
  "\u2581gaskiyar": 1722,
  "\u2581thinking": 1723,
  "\u2581blessing": 1724,
  "\u2581cim": 1725,
  "\u2581na\u0257a": 1726,
  "\u2581try": 1727,
  "\u2581\u0199ar\u0199ashin": 1728,
  "\u2581Be": 1729,
  "\u2581fully": 1730,
  "\u2581perfect": 1731,
  "\u2581\u0199o\u0199arin": 1732,
  "\u2581please": 1733,
  "\u2581tambayi": 1734,
  "\u2581Rather": 1735,
  "\u2581\u0199unshi": 1736,
  "\u258118,": 1737,
  "\u2581mace": 1738,
  "\u2581examples": 1739,
  "\u2581likely": 1740,
  "\u25816)": 1741,
  "\u2581open": 1742,
  "\u2581unjust": 1743,
  "\u2581wills": 1744,
  "\u2581individuals": 1745,
  "\u2581tambaye": 1746,
  "\u2581k\u00f5ma": 1747,
  "\u2581littattafai": 1748,
  "\u2581ancient": 1749,
  "\u2581since": 1750,
  "\u2581za\u0253i": 1751,
  "Akwai": 1752,
  "\u2581followed": 1753,
  "for": 1754,
  "\u2581zamani": 1755,
  "\u2581Not": 1756,
  "\u2581easy": 1757,
  "\u2581koyarwar": 1758,
  "\u2581kyauta": 1759,
  "What": 1760,
  "\u2581error": 1761,
  "\u2581judgment": 1762,
  "\u2581problems": 1763,
  "\u2581term": 1764,
  "Mun": 1765,
  "\u2581Al\u0199ur": 1766,
  "\u2581comfort": 1767,
  "\u2581faranta": 1768,
  "He": 1769,
  "\u2581Corinthians": 1770,
  "\u2581accepted": 1771,
  "\u2581Annabi": 1772,
  "\u2581body": 1773,
  "\u2581g\u00e3": 1774,
  "\u2581mentioned": 1775,
  "\u2581Thou": 1776,
  "\u2581Truth": 1777,
  "\u2581drink": 1778,
  "\u2581jinkiri": 1779,
  "\u2581past": 1780,
  "\u2581bimbini": 1781,
  "\u2581Timothawus": 1782,
  "\u2581yiwu": 1783,
  "\u2581talifin": 1784,
  "\u2581duniyar": 1785,
  "\u2581rufe": 1786,
  "\u2581yawancin": 1787,
  "\u2581qualities": 1788,
  "\u2581wanted": 1789,
  "\u2581Although": 1790,
  "\u2581divine": 1791,
  "\u2581returned": 1792,
  "\u2581Ubangij\u0129na": 1793,
  "\u2581buga": 1794,
  "\u2581especially": 1795,
  "ba": 1796,
  "\u2581Now": 1797,
  "\u2581guje": 1798,
  "\u2581sister": 1799,
  "\u2581tsak\u00e3nin": 1800,
  "\u2581sea": 1801,
  "\u2581small": 1802,
  "\u2581Joshua": 1803,
  "\u2581ransom": 1804,
  "\u2581bayyananne": 1805,
  "\u2581Ru": 1806,
  "\u2581matsaloli": 1807,
  "\u2581Devil": 1808,
  "\u2581k\u00e3firci": 1809,
  "\u2581rabo": 1810,
  "\u2581provision": 1811,
  "\u2581real": 1812,
  "Zab": 1813,
  "\u2581prophecy": 1814,
  "\u2581ambaci": 1815,
  "\u2581seven": 1816,
  "\u2581\u0199wazo": 1817,
  "\u2581harm": 1818,
  "\u2581s\u00e3shen": 1819,
  "\u2581tambaya": 1820,
  "\u2581has\u00e3ra": 1821,
  "\u2581taimaki": 1822,
  "\u2581wut\u00e3": 1823,
  "\u2581Yayin": 1824,
  "\u2581deal": 1825,
  "\u2581died": 1826,
  "\u2581kyautat\u00e3wa": 1827,
  "\u2581loyal": 1828,
  ").\"": 1829,
  "amari": 1830,
  "\u2581World": 1831,
  "\u2581meet": 1832,
  "\u2581maimakon": 1833,
  "\u2581maintain": 1834,
  "awar": 1835,
  "\u2581blessed": 1836,
  "\u2581married": 1837,
  "\u2581pay": 1838,
  "\u2581Romans": 1839,
  "\u2581k\u00e3ma": 1840,
  "\u258134": 1841,
  "\u2581feelings": 1842,
  "\u2581prove": 1843,
  "\u2581Scriptural": 1844,
  "\u2581gudu": 1845,
  "\u2581poor": 1846,
  "\u2581James": 1847,
  "\u2581M\u00e3s": 1848,
  "\u2581R": 1849,
  "\u2581s\u00e3she": 1850,
  "\u2581Like": 1851,
  "\u2581meeting": 1852,
  "\u2581gafarta": 1853,
  "\u2581rayuwar": 1854,
  "\u2581justice": 1855,
  "\u2581control": 1856,
  "\u2581judge": 1857,
  "\u2581showed": 1858,
  "\u2581sight": 1859,
  "all": 1860,
  "\u2581SAW": 1861,
  "\u2581caused": 1862,
  "\u2581gan": 1863,
  "\u2581here": 1864,
  "\u2581wa\u0257anne": 1865,
  "\u2581seeking": 1866,
  "\u2581warning": 1867,
  "on": 1868,
  "\u2581friend": 1869,
  "\u2581talk": 1870,
  "\u2581halittar": 1871,
  "\u2581wish": 1872,
  "\u2581fathers": 1873,
  "\u2581perhaps": 1874,
  "\u2581single": 1875,
  "\u2581wants": 1876,
  "\u2581\u0199ungiyar": 1877,
  "\u2581Almasihu": 1878,
  "\u2581Yan": 1879,
  "\u2581fuskanci": 1880,
  "\u2581lokatai": 1881,
  "\u2581offer": 1882,
  "\u2581four": 1883,
  "\u2581samaniya": 1884,
  "\u2581kwanaki": 1885,
  "\u2581yiwuwa": 1886,
  "\u2581Nassosi": 1887,
  "\u2581firm": 1888,
  "\u2581tsoro": 1889,
  "and": 1890,
  "\u2581mi\u0199a": 1891,
  "\u2581tun\u00e3ni": 1892,
  "Muhammad": 1893,
  "\u2581commanded": 1894,
  "\u2581principles": 1895,
  "N": 1896,
  "\u2581brings": 1897,
  "\u2581circumstances": 1898,
  "\u2581manyan": 1899,
  "\u2581lies": 1900,
  "\u258123.": 1901,
  "\u2581enemies": 1902,
  "C": 1903,
  "\u2581etc": 1904,
  "\u2581walk": 1905,
  "\u2581gain": 1906,
  "\u2581kusan": 1907,
  "\u2581t\u00e3ra": 1908,
  "\u25811)": 1909,
  "\u2581DA": 1910,
  "\u2581flesh": 1911,
  "\u2581loved": 1912,
  "\u2581madawwama": 1913,
  "as": 1914,
  "\u2581Unto": 1915,
  "\u2581written": 1916,
  "\u2581\u0199asashe": 1917,
  "\u2581powerful": 1918,
  "\u2581Creator": 1919,
  "\u2581messengers": 1920,
  "\u2581rather": 1921,
  "\u2581D": 1922,
  "\u2581morning": 1923,
  "\u2581guji": 1924,
  "\u2581adam": 1925,
  "\u2581\u0253ace": 1926,
  "\u2581b\u0129": 1927,
  "\u2581gwada": 1928,
  "\u2581Wace": 1929,
  "\u2581considered": 1930,
  "\u2581tsayar": 1931,
  "\u2581Proverbs": 1932,
  "\u2581mountains": 1933,
  "\u2581once": 1934,
  "\u2581preach": 1935,
  "Al\u0199ur": 1936,
  "\u2581halaye": 1937,
  "\u2581honor": 1938,
  "\u2581value": 1939,
  "\u2581rest": 1940,
  "\u2581speech": 1941,
  "est": 1942,
  "\u2581Irin": 1943,
  "\u2581abokan": 1944,
  "\u2581dukkan": 1945,
  "\u2581izgili": 1946,
  "\u2581sabon": 1947,
  "\u2581\u0257in": 1948,
  "\u2581\u0253arna": 1949,
  "\u2581da\u0257i": 1950,
  "\u2581litt\u00e3fi": 1951,
  "\u2581Since": 1952,
  "\u2581direction": 1953,
  "\u2581enemy": 1954,
  "\u2581waje": 1955,
  "\u25817:": 1956,
  "\u2581sky": 1957,
  "mai": 1958,
  "\u2581privilege": 1959,
  "\u2581ruhun": 1960,
  "\u2581r\u00e3yar": 1961,
  "\u2581Iblis": 1962,
  "\u2581Watchtower": 1963,
  "\u2581fulfilled": 1964,
  "\u2581prepared": 1965,
  "\u2581tashi": 1966,
  "\u2581Today": 1967,
  "\u2581grow": 1968,
  "\u2581complete": 1969,
  "\u2581led": 1970,
  "\u2581shirye": 1971,
  "Our": 1972,
  "\u2581Tsaro": 1973,
  "\u2581effect": 1974,
  "\u2581l\u00e3b\u00e3ri": 1975,
  "\u2581matarsa": 1976,
  "\u2581bayinsa": 1977,
  "\u2581destroy": 1978,
  "\u2581kiyaye": 1979,
  "Jehovah": 1980,
  "\u2581lalata": 1981,
  "\u2581Misalai": 1982,
  "\u2581bayar": 1983,
  "\u2581bayyanannu": 1984,
  "\u2581move": 1985,
  "\u2581tsaye": 1986,
  "halarci": 1987,
  "\u2581Dukan": 1988,
  "\u2581gods": 1989,
  "\u2581happiness": 1990,
  "\u2581patient": 1991,
  "\u2581w\u00e3ne": 1992,
  "While": 1993,
  "aurata": 1994,
  "\u2581gab\u00e3ninsu": 1995,
  "\u2581reflect": 1996,
  "\u2581rejected": 1997,
  "\u2581fall": 1998,
  "\u2581Forgiving": 1999,
  "\u2581nagarta": 2000,
  "\u2581fahimta": 2001,
  "\u2581organization": 2002,
  "\u2581fansa": 2003,
  "\u2581involved": 2004,
  "And": 2005,
  "espite": 2006,
  "\u258122.": 2007,
  "\u2581aware": 2008,
  "\u2581d": 2009,
  "\u2581rule": 2010,
  "\u2581sa\u0199on": 2011,
  "\u2581\u0199ungiya": 2012,
  "\u2581determined": 2013,
  "\u2581guard": 2014,
  "\u2581Nuhu": 2015,
  "\u2581associate": 2016,
  "doers": 2017,
  "\u2581Children": 2018,
  "\u2581refuge": 2019,
  "\u258140": 2020,
  "\u2581matar": 2021,
  "\u2581duw\u00e3tsu": 2022,
  "\u2581taste": 2023,
  "\u2581Sulemanu": 2024,
  "\u2581bambanta": 2025,
  "\u2581gane": 2026,
  "\u2581garga\u0257in": 2027,
  "\u258120,": 2028,
  "\u2581E": 2029,
  "\u2581faruwa": 2030,
  "\u2581kanta": 2031,
  "\u2581kud": 2032,
  "\u2581confidence": 2033,
  "\u2581fa\u0257in": 2034,
  "\u2581souls": 2035,
  "\u2581tsira": 2036,
  "\u2581second": 2037,
  "\u2581W": 2038,
  "\u2581promises": 2039,
  "idodin": 2040,
  "\u2581respond": 2041,
  "\u2581special": 2042,
  "\u2581Scripture": 2043,
  "\u2581Hasumiya": 2044,
  "\u2581Littafin": 2045,
  "\u2581clearly": 2046,
  "\u2581display": 2047,
  "\u2581s": 2048,
  "\u2581g\u00e3farta": 2049,
  "\u2581mene": 2050,
  "\u2581nauyi": 2051,
  "\u2581reject": 2052,
  "\u2581servant": 2053,
  "\u2581believing": 2054,
  "\u2581recorded": 2055,
  "\u2581spoke": 2056,
  "\u2581halakar": 2057,
  "\u2581tamani": 2058,
  "\u2581umurc": 2059,
  "c": 2060,
  "\u2581decision": 2061,
  "\u2581ibada": 2062,
  "\u2581material": 2063,
  "\u2581sarki": 2064,
  "\u2581shiryuwa": 2065,
  "\u2581s\u00e3\u0253\u00e3": 2066,
  "Idan": 2067,
  "\u2581cast": 2068,
  "\u2581states": 2069,
  "\u258120)": 2070,
  "\u2581bege": 2071,
  "\u2581faces": 2072,
  "\u2581stay": 2073,
  "\u2581tidings": 2074,
  "\u2581hukunta": 2075,
  "\u2581deep": 2076,
  "\u2581hell": 2077,
  "\u2581integrity": 2078,
  "\u2581lived": 2079,
  "\u2581patience": 2080,
  "\u2581rayuwarmu": 2081,
  "\u2581hannun": 2082,
  "\u2581whosoever": 2083,
  "\u2581including": 2084,
  "\u258118)": 2085,
  "\u2581effort": 2086,
  "\u2581interest": 2087,
  "\u2581money": 2088,
  "\u2581bu\u0257e": 2089,
  "\u2581decisions": 2090,
  "\u2581girmama": 2091,
  "Ashe": 2092,
  "\u2581apply": 2093,
  "\u2581fassara": 2094,
  "\u2581shirin": 2095,
  "\u2581zuciyarmu": 2096,
  "me": 2097,
  "\u2581Bit": 2098,
  "\u2581passed": 2099,
  "\u2581tumaki": 2100,
  "\u2581information": 2101,
  "\u2581measure": 2102,
  "\u2581suffer": 2103,
  "\u2581karkata": 2104,
  "\u2581large": 2105,
  "\u2581PAGE": 2106,
  "\u2581severe": 2107,
  "\u2581wonderful": 2108,
  "\u2581Irmiya": 2109,
  "\u2581aiko": 2110,
  "\u2581Bai": 2111,
  "\u2581Hebrews": 2112,
  "\u2581jira": 2113,
  "\u2581ayyukansu": 2114,
  "\u2581disbelieved": 2115,
  "\u2581protect": 2116,
  "\u2581tafiyar": 2117,
  "\u2581willing": 2118,
  "\u2581yaren": 2119,
  "\u00e3ce": 2120,
  "\u2581goma": 2121,
  "\u2581damu": 2122,
  "\u2581imani": 2123,
  "\u2581truthful": 2124,
  "\u2581tsaro": 2125,
  "\u2581bayyane": 2126,
  "\u2581meaning": 2127,
  "\u2581pass": 2128,
  "\u2581rivers": 2129,
  "Yohanna": 2130,
  "\u258137": 2131,
  "\u2581banza": 2132,
  "\u2581yaransu": 2133,
  "\u258124.": 2134,
  "\u2581annabta": 2135,
  "\u2581position": 2136,
  "she": 2137,
  "uwansu": 2138,
  "\u2581Cikin": 2139,
  "\u2581dama": 2140,
  "See": 2141,
  "\u2581THE": 2142,
  "\u2581Yahaya": 2143,
  "\u2581speaking": 2144,
  "\u2581\u0129kon": 2145,
  "or": 2146,
  "\u2581chosen": 2147,
  "\u2581destruction": 2148,
  "\u2581humble": 2149,
  "\u2581N\u0169hu": 2150,
  "\u2581else": 2151,
  "anar": 2152,
  "\u2581Dokar": 2153,
  "\u2581halittu": 2154,
  "\u2581tara": 2155,
  "\u2581using": 2156,
  "\u2581Jeremiah": 2157,
  "\u2581denied": 2158,
  "\u2581favor": 2159,
  "\u2581opportunity": 2160,
  "\u2581courage": 2161,
  "\u2581mallakar": 2162,
  "\u2581endure": 2163,
  "\u2581test": 2164,
  "\u2581bincike": 2165,
  "\u2581strengthen": 2166,
  "\u2581tsamm\u00e3ninku": 2167,
  "\u2581damuwa": 2168,
  "\u2581iri": 2169,
  "\u2581Maryamu": 2170,
  "\u2581fruit": 2171,
  "\u2581bawan": 2172,
  "\u2581helps": 2173,
  "\u2581Wa\u0257ancan": 2174,
  "\u2581efforts": 2175,
  "\u2581gardens": 2176,
  "\u2581thereof": 2177,
  "\u2581azurta": 2178,
  "\u2581kaina": 2179,
  "\u2581presence": 2180,
  "nku": 2181,
  "\u2581ila": 2182,
  "\u2581tsara": 2183,
  "\u2581yawansu": 2184,
  "\u2581messenger": 2185,
  "\u2581pure": 2186,
  "\u0257abi": 2187,
  "\u2581T": 2188,
  "\u2581further": 2189,
  "\u2581jini": 2190,
  "\u2581nufinsa": 2191,
  "\u2581hadaya": 2192,
  "\u2581r\u00e3yukansu": 2193,
  "\u2581Knowing": 2194,
  "\u2581jirgin": 2195,
  "\u2581tree": 2196,
  "\u2581advice": 2197,
  "\u2581chapter": 2198,
  "\u2581due": 2199,
  "\u2581gone": 2200,
  "\u2581grateful": 2201,
  "\u2581m\u1ebd": 2202,
  "\u2581Hotuna": 2203,
  "\u2581dukansu": 2204,
  "\u2581gwaji": 2205,
  "\u2581addinin": 2206,
  "\u258122,": 2207,
  "\u2581Masar": 2208,
  "\u2581carry": 2209,
  "\u2581canje": 2210,
  "\u2581tarayya": 2211,
  "\u2581congregations": 2212,
  "\u2581strive": 2213,
  "\u2581Still": 2214,
  "\u2581action": 2215,
  "\u2581ab\u00f5kan": 2216,
  "\u2581head": 2217,
  "\u2581mighty": 2218,
  "\u2581Instead": 2219,
  "\u2581May": 2220,
  "\u2581ransa": 2221,
  "urari": 2222,
  "\u2581saved": 2223,
  "\u2581serious": 2224,
  "\u2581clean": 2225,
  "\u2581G": 2226,
  "\u2581bakin": 2227,
  "\u2581blind": 2228,
  "\u2581flow": 2229,
  "\u2581godly": 2230,
  "\u2581tsari": 2231,
  "\u2581\u018aansa": 2232,
  "\u2581homes": 2233,
  "\u25818:": 2234,
  "\u2581earthly": 2235,
  "\u2581placed": 2236,
  "Luka": 2237,
  "\u2581fahimtar": 2238,
  ",...": 2239,
  "\u2581based": 2240,
  "\u2581\u0129mani": 2241,
  "\u2581Jacob": 2242,
  "\u2581Nay": 2243,
  "\u2581angel": 2244,
  "\u2581sarautar": 2245,
  "\u2581takes": 2246,
  "\u2581vital": 2247,
  "\u2581Yusufu": 2248,
  "\u2581field": 2249,
  "\u2581psalmist": 2250,
  "\u2581reveal": 2251,
  "from": 2252,
  "\u2581recompense": 2253,
  "\u2581Ibr\u00e3h\u0129m": 2254,
  "\u2581appreciate": 2255,
  "\u258119)": 2256,
  "\u2581ceto": 2257,
  "\u2581forbidden": 2258,
  "\u2581proper": 2259,
  "\u2581shown": 2260,
  "un": 2261,
  "\u2581form": 2262,
  "\u2581mabiyansa": 2263,
  "\u2581tashin": 2264,
  "....": 2265,
  "\u2581iyalin": 2266,
  "\u2581lest": 2267,
  "\u2581sacred": 2268,
  "\u2581standards": 2269,
  "\u2581Yanzu": 2270,
  "\u2581choose": 2271,
  "\u2581bautar": 2272,
  "\u2581Ya\u0199ub": 2273,
  "\u2581annabcin": 2274,
  "\u2581greatest": 2275,
  "Mai": 2276,
  "\u2581hakki": 2277,
  "\u2581thoughts": 2278,
  "\u2581wronged": 2279,
  "\u258115:": 2280,
  "\u2581Mark": 2281,
  "amura": 2282,
  "\u2581wace": 2283,
  "\u0129la": 2284,
  "\u2581months": 2285,
  "\u2581m\u00e3tan": 2286,
  "\u2581rukunin": 2287,
  "\u2581school": 2288,
  "\u2581shida": 2289,
  "Mu": 2290,
  "\u2581equal": 2291,
  "\u2581halayen": 2292,
  "\u2581increase": 2293,
  "\u2581served": 2294,
  "it": 2295,
  "\u2581Amirka": 2296,
  "\u2581Had": 2297,
  "\u2581affect": 2298,
  "\u2581biya": 2299,
  "\u2581responsibility": 2300,
  "\u2581wa\u0257ancan": 2301,
  "\u2581yaushe": 2302,
  "\u2581See": 2303,
  "\u2581annabci": 2304,
  "\u2581Ha": 2305,
  "\u2581namiji": 2306,
  "\u2581older": 2307,
  "\u2581public": 2308,
  "\u2581voice": 2309,
  "en": 2310,
  "\u258123)": 2311,
  "\u2581art": 2312,
  "\u2581happened": 2313,
  "\u2581beyond": 2314,
  "\u2581prayed": 2315,
  "\u2581tsananta": 2316,
  "\u2581SHAFI": 2317,
  "\u2581Yahuda": 2318,
  "\u2581appreciation": 2319,
  "\u2581darkness": 2320,
  "\u2581\u0257an\u0257ana": 2321,
  "ani": 2322,
  "\u2581baptism": 2323,
  "\u2581fari": 2324,
  "\u2581foretold": 2325,
  "\u258136": 2326,
  "\u2581Messiah": 2327,
  "\u2581garin": 2328,
  "\u2581state": 2329,
  "l": 2330,
  "\u2581119": 2331,
  "\u2581bada": 2332,
  "\u2581Ha\u0199\u0129\u0199a": 2333,
  "\u2581haramta": 2334,
  "\u2581'?": 2335,
  "\u2581Greek": 2336,
  "\u2581Mat": 2337,
  "\u2581Watch": 2338,
  "\u2581musanya": 2339,
  "\u2581sanyin": 2340,
  "\u2581stated": 2341,
  "Yoh": 2342,
  "\u2581Remember": 2343,
  "\u2581events": 2344,
  "\u2581Hebrew": 2345,
  "\u2581L": 2346,
  "\u2581proved": 2347,
  "\u2581salvation": 2348,
  "\u2581wait": 2349,
  "\u2581Dur": 2350,
  "\u2581Farawa": 2351,
  "\u2581Hence": 2352,
  "\u2581Tuna": 2353,
  "\u2581karkatar": 2354,
  "\u2581tried": 2355,
  "\u258121)": 2356,
  "\u25814;": 2357,
  "\u2581Sama": 2358,
  "ever": 2359,
  "\u2581True": 2360,
  "\u2581heed": 2361,
  "\u2581humility": 2362,
  "\u2581zaune": 2363,
  "\u2581\u0199ir\u0199ira": 2364,
  "\u2581hamayya": 2365,
  "\u2581period": 2366,
  "\u2581pioneer": 2367,
  "\u2581Great": 2368,
  "\u2581benefits": 2369,
  "\u2581granted": 2370,
  "\u2581health": 2371,
  "\u2581issue": 2372,
  "\u2581\u0199unci": 2373,
  "\u2581\u0199\u00e3ra": 2374,
  "Farawa": 2375,
  "Hasiya": 2376,
  "\u2581explained": 2377,
  "\u2581matsala": 2378,
  "\u2581myself": 2379,
  "\u2581pleased": 2380,
  "\u2581shafe": 2381,
  "\u2581trials": 2382,
  "\u2581warn": 2383,
  "\u2581approach": 2384,
  "\u2581kar\u0253ar": 2385,
  "\u2581kill": 2386,
  "\u2581lesson": 2387,
  "\u2581tausayi": 2388,
  "im\u00f5min": 2389,
  "\u2581annabi": 2390,
  "\u2581build": 2391,
  "\u2581Rom": 2392,
  "\u2581actions": 2393,
  "\u2581Qur": 2394,
  "\u2581everyone": 2395,
  "\u2581witnesses": 2396,
  "\u2581Egypt": 2397,
  "\u2581Holy": 2398,
  "\u2581Roma": 2399,
  "\u2581r\u00e3n\u00e3": 2400,
  "\u258125.": 2401,
  "\u2581born": 2402,
  "\u2581dalili": 2403,
  "\u2581provides": 2404,
  "\u2581ts\u0129rar": 2405,
  "\u2581zuciyar": 2406,
  "\u2581observe": 2407,
  "\u2581tanadin": 2408,
  "\u2581till": 2409,
  "\u2581tsawon": 2410,
  "\u258110;": 2411,
  "\u2581U": 2412,
  "\u2581gorar": 2413,
  "\u2581m\u0169nana": 2414,
  "\u2581shelar": 2415,
  "\u2581Judah": 2416,
  "\u2581mallaka": 2417,
  "\u2581role": 2418,
  "\u2581Lot": 2419,
  "\u2581knowing": 2420,
  "\u2581town": 2421,
  "\u2581forward": 2422,
  "\u2581established": 2423,
  "\u2581glad": 2424,
  "\u2581letter": 2425,
  "\u2581zarafin": 2426,
  "\u2581\u0199ari": 2427,
  "\u2581Duniya": 2428,
  "\u2581Game": 2429,
  "yar": 2430,
  "\u2581Haka": 2431,
  "\u2581regular": 2432,
  "\u2581makaranta": 2433,
  "\u2581side": 2434,
  "\u2581worshippers": 2435,
  "\u2581activities": 2436,
  "\u2581delivered": 2437,
  "\u2581experienced": 2438,
  "\u2581showing": 2439,
  "daga": 2440,
  "\u2581Shari": 2441,
  "\u2581changed": 2442,
  "\u2581dalla": 2443,
  "\u2581forget": 2444,
  "\u2581illustration": 2445,
  "\u2581rejoice": 2446,
  "\u2581rich": 2447,
  "\u2581straight": 2448,
  "Ina": 2449,
  "\u2581Tower": 2450,
  "\u2581instance": 2451,
  "\u2581partners": 2452,
  "\u2581start": 2453,
  "\u2581un": 2454,
  "\u2581month": 2455,
  "am": 2456,
  "\u2581kammala": 2457,
  "\u2581precious": 2458,
  "\u2581talifi": 2459,
  "\u2581warned": 2460,
  "\u2581wurare": 2461,
  "\u2581\u0199\u00e3ga": 2462,
  "war": 2463,
  "\u2581Hakazalika": 2464,
  "\u2581acts": 2465,
  "\u2581warner": 2466,
  "\u2581Babila": 2467,
  "\u2581cike": 2468,
  "\u2581either": 2469,
  "Romawa": 2470,
  "re": 2471,
  "\u2581N\u0129": 2472,
  "\u2581gwiwa": 2473,
  "\u2581killed": 2474,
  "\u2581record": 2475,
  "\u2581earlier": 2476,
  "\u2581physical": 2477,
  "\u2581sihiri": 2478,
  "with": 2479,
  "\u2581b\u00e3yansu": 2480,
  "\u2581imperfect": 2481,
  "\u2581\u0253oye": 2482,
  "ab\u0169ta": 2483,
  "B\u00e3": 2484,
  "\u2581Markus": 2485,
  "\u2581continued": 2486,
  "\u2581unless": 2487,
  "\u2581various": 2488,
  "\u2581daughters": 2489,
  "\u2581falala": 2490,
  "\u2581fulfillment": 2491,
  "\u2581ku\u0257in": 2492,
  "\u2581standing": 2493,
  ");": 2494,
  "\u2581Nassi": 2495,
  "\u2581ability": 2496,
  "\u2581available": 2497,
  "\u2581littattafan": 2498,
  "\u2581reasons": 2499,
  "\u2581Zab": 2500,
  "\u2581repentance": 2501,
  "\u2581tsabta": 2502,
  "\u2581working": 2503,
  "\u2581concern": 2504,
  "\u2581dokar": 2505,
  "\u2581obedient": 2506,
  "\u2581\u0199ulla": 2507,
  "\u0303": 2508,
  "\u2581Footnote": 2509,
  "\u2581d\u00f5gara": 2510,
  "\u2581halicci": 2511,
  "\u2581wanne": 2512,
  "\u2581d\u0169ba": 2513,
  "\u2581ha\u0257u": 2514,
  "\u2581started": 2515,
  "In": 2516,
  "\u2581dawwama": 2517,
  "\u2581farkon": 2518,
  "\u2581offered": 2519,
  "\u2581seem": 2520,
  "\u2581Gardens": 2521,
  "\u2581force": 2522,
  "\u2581got": 2523,
  "\u2581k\u00e3wo": 2524,
  "\u2581longer": 2525,
  "\u2581tattaunawa": 2526,
  "\u2581zahiri": 2527,
  "\u2581Eve": 2528,
  "\u2581\u00e3dalci": 2529,
  "mo": 2530,
  "\u2581evening": 2531,
  "\u2581helping": 2532,
  "\u2581resurrected": 2533,
  "aha": 2534,
  "\u2581offspring": 2535,
  "\u2581tsaya": 2536,
  "\u2581Majami": 2537,
  "\u2581companions": 2538,
  "\u2581expect": 2539,
  "\u2581feet": 2540,
  "\u2581sunansa": 2541,
  "\u2581Aka": 2542,
  "\u2581Ayyukan": 2543,
  "\u2581commit": 2544,
  "\u2581Hour": 2545,
  "\u2581Matt": 2546,
  "\u2581cut": 2547,
  "\u2581duty": 2548,
  "\u2581ready": 2549,
  "\u2581sura": 2550,
  "\u2581thanks": 2551,
  "\u2581elder": 2552,
  "\u2581enough": 2553,
  "\u2581express": 2554,
  "\u2581loves": 2555,
  "M": 2556,
  "\u2581Life": 2557,
  "\u2581hankalta": 2558,
  "\u2581manner": 2559,
  "\u258124,": 2560,
  "\u2581Ubansa": 2561,
  "\u2581dear": 2562,
  "\u2581g\u00f5diya": 2563,
  "\u2581met": 2564,
  "\u2581ahead": 2565,
  "\u2581couple": 2566,
  "\u2581expression": 2567,
  "\u2581kayan": 2568,
  "\u2581sauka": 2569,
  "\u2581ten": 2570,
  "\u2581\u0199ar\u0199ashinsu": 2571,
  "Abin": 2572,
  "\u2581guides": 2573,
  "\u2581least": 2574,
  "\u2581named": 2575,
  "\u2581shiri": 2576,
  "soever": 2577,
  "\u2581Pictures": 2578,
  "\u2581behalf": 2579,
  "\u2581hidden": 2580,
  "\u2581kange": 2581,
  "\u2581s\u00e3\u0253a": 2582,
  "\u2581tribulation": 2583,
  "\u2581hujj\u00f5ji": 2584,
  "\u2581First": 2585,
  "\u2581Jewish": 2586,
  "\u2581guilty": 2587,
  "\u2581harmony": 2588,
  "\u2581itself": 2589,
  "\u2581l\u00f5kaci": 2590,
  "\u2581simply": 2591,
  "\u2581sovereignty": 2592,
  "\u2581vision": 2593,
  "\u2581Witness": 2594,
  "\u2581alive": 2595,
  "\u2581obedience": 2596,
  "\u2581wanin": 2597,
  "Rom": 2598,
  "ina": 2599,
  "ummar": 2600,
  "\u2581ajali": 2601,
  "\u2581dattijo": 2602,
  "\u2581kwanciyar": 2603,
  "\u2581mate": 2604,
  "\u2581s\u00e3mun": 2605,
  "\u2581tsofaffi": 2606,
  "\u2581Timotawus": 2607,
  "\u2581alama": 2608,
  "\u2581furta": 2609,
  "\u2581k\u00f5wace": 2610,
  "\u2581leaders": 2611,
  "\u2581raise": 2612,
  "\u2581sarai": 2613,
  "less": 2614,
  "\u2581admonition": 2615,
  "\u2581creatures": 2616,
  "\u2581crowd": 2617,
  "\u2581deliver": 2618,
  "\u2581tattalin": 2619,
  "nsa": 2620,
  "\u2581bestowed": 2621,
  "\u2581houses": 2622,
  "\u2581Ne": 2623,
  "\u2581country": 2624,
  "Far": 2625,
  "\u2581Isr\u00e3": 2626,
  "\u2581SONGS": 2627,
  "\u2581haifi": 2628,
  "\u258145": 2629,
  "\u2581devotion": 2630,
  "\u2581former": 2631,
  "\u2581gabatar": 2632,
  "\u2581slaves": 2633,
  "\u2581spread": 2634,
  "\u2581barci": 2635,
  "\u2581birth": 2636,
  "\u2581practice": 2637,
  "\u2581prophets": 2638,
  "\u2581visit": 2639,
  "anta": 2640,
  "\u2581Just": 2641,
  "\u2581Moreover": 2642,
  "\u2581loss": 2643,
  "\u2581madawwami": 2644,
  "\u2581moon": 2645,
  "\u2581Masa": 2646,
  "\u2581focus": 2647,
  "\u2581hide": 2648,
  "\u2581rain": 2649,
  "\u2581sincere": 2650,
  "\u2581tafarkin": 2651,
  "\u2581zuba": 2652,
  "Ishaya": 2653,
  "\u2581replied": 2654,
  "\u2581seed": 2655,
  "\u2581Ps": 2656,
  "\u2581Shaidu": 2657,
  "\u2581kusantar": 2658,
  "\u2581teachings": 2659,
  "O\u0198I": 2660,
  "\u2581WA\u0198": 2661,
  "\u2581anger": 2662,
  "\u2581held": 2663,
  "\u2581jitu": 2664,
  "\u2581mak\u00f5ma": 2665,
  "\u2581mutuwar": 2666,
  "\u2581hearing": 2667,
  "\u2581hour": 2668,
  "\u2581pages": 2669,
  "\u2581t\u00e3yar": 2670,
  "Mis": 2671,
  "\u2581answered": 2672,
  "\u2581instead": 2673,
  "\u2581sarkin": 2674,
  "\u2581manzanni": 2675,
  "\u2581protection": 2676,
  "\u2581punish": 2677,
  "\u2581sauri": 2678,
  "\u2581treat": 2679,
  "\u2581\u0199aunaci": 2680,
  "\u258135": 2681,
  "\u2581Faith": 2682,
  "\u2581Genesis": 2683,
  "\u2581dawo": 2684,
  "\u2581pleasure": 2685,
  "\u2581realize": 2686,
  "\u2581t\u1ebdku": 2687,
  "ika": 2688,
  "\u2581create": 2689,
  "\u2581influence": 2690,
  "\u2581persecution": 2691,
  "\u2581produce": 2692,
  "\u2581recognize": 2693,
  "\u2581secure": 2694,
  "\u2581worldwide": 2695,
  "\u2581ceci": 2696,
  "\u2581secret": 2697,
  "\u2581trial": 2698,
  "\u2581behold": 2699,
  "\u2581\u0199asashen": 2700,
  "\u2581d\u00e3ma": 2701,
  "\u2581hukuncin": 2702,
  "\u2581tsak\u00e3ninku": 2703,
  "\u25819:": 2704,
  "\u2581Last": 2705,
  "\u2581rauni": 2706,
  "\u2581regularly": 2707,
  "\u2581wrongdoers": 2708,
  "\u2581Kafin": 2709,
  "\u2581decided": 2710,
  "y\u00e3": 2711,
  "\u2581allowed": 2712,
  "\u2581c\u0169tar": 2713,
  "\u2581grant": 2714,
  "\u2581kalaman": 2715,
  "\u2581wat\u00e3": 2716,
  "amarin": 2717,
  "\u258138": 2718,
  "\u2581Afisawa": 2719,
  "\u2581Ruhu": 2720,
  "\u2581repent": 2721,
  "\u2581yaro": 2722,
  "\u2581conscience": 2723,
  "\u2581fail": 2724,
  "\u2581mafiya": 2725,
  "\u2581\u0253\u00f5ye": 2726,
  "rsu": 2727,
  "\u2581turns": 2728,
  "\u2581\u0199aura": 2729,
  "\u2581image": 2730,
  "\u2581laws": 2731,
  "\u2581zato": 2732,
  "\u2581Elisha": 2733,
  "\u2581dust": 2734,
  "\u2581magance": 2735,
  "\u2581mummuna": 2736,
  "\u2581offering": 2737,
  "\u2581swear": 2738,
  "\u2581common": 2739,
  "\u2581ha": 2740,
  "\u2581happen": 2741,
  "\u258123,": 2742,
  "\u2581changes": 2743,
  "\u2581cry": 2744,
  "\u2581grieve": 2745,
  "\u2581yakan": 2746,
  "\u25811914": 2747,
  "\u2581Believers": 2748,
  "\u2581Isaac": 2749,
  "\u2581Love": 2750,
  "\u2581aikinsa": 2751,
  "\u2581jima": 2752,
  "\u2581reached": 2753,
  "ayi": 2754,
  "\u2581Nuna": 2755,
  "\u2581jiran": 2756,
  "\u2581mis\u00e3lin": 2757,
  "\u2581ill": 2758,
  "\u2581kuskure": 2759,
  "\u2581seized": 2760,
  "\u2581walking": 2761,
  "When": 2762,
  "\u2581Alh\u00e3li": 2763,
  "\u2581Gaskiya": 2764,
  "\u2581Samuel": 2765,
  "\u2581class": 2766,
  "m": 2767,
  "\u2581Judgment": 2768,
  "\u2581exercise": 2769,
  "\u2581iska": 2770,
  "Ibraniyawa": 2771,
  "Luk": 2772,
  "\u2581local": 2773,
  "\u2581Mighty": 2774,
  "\u2581bayyan\u00e3wa": 2775,
  "\u2581kyautar": 2776,
  "\u2581occasion": 2777,
  "\u2581permission": 2778,
  "\u2581tun\u00e3wa": 2779,
  "\u2581zabura": 2780,
  "\u2581\u0257aukar": 2781,
  "\u2581Ruth": 2782,
  "\u2581ajizai": 2783,
  "\u2581bounty": 2784,
  "\u2581entire": 2785,
  "\u2581cultivate": 2786,
  "\u2581remained": 2787,
  "\u2581stop": 2788,
  "\u2581ilimi": 2789,
  "\u2581matashi": 2790,
  "\u2581seeing": 2791,
  "\u2581whomever": 2792,
  "adin": 2793,
  "\u2581asking": 2794,
  "\u2581b\u00e3yinSa": 2795,
  "\u2581sinners": 2796,
  "\u2581\u0199in": 2797,
  "\u2581hadayar": 2798,
  "\u2581misalai": 2799,
  "\u2581shimfi\u0257a": 2800,
  "\u2581\u0199aramin": 2801,
  "\u2581apart": 2802,
  "\u2581short": 2803,
  "\u2581training": 2804,
  "\u2581zakka": 2805,
  "\u2581hujja": 2806,
  "\u2581mijinta": 2807,
  "\u2581willed": 2808,
  "\u2581Ezekiel": 2809,
  "\u2581attend": 2810,
  "\u2581falsehood": 2811,
  "\u2581sacrifices": 2812,
  "\u2581sound": 2813,
  "ab\u0169cin": 2814,
  "\u2581afraid": 2815,
  "\u2581daily": 2816,
  "\u2581gathered": 2817,
  "\u2581party": 2818,
  "\u2581places": 2819,
  "\u2581Ban\u0129": 2820,
  "\u2581Elijah": 2821,
  "\u2581subject": 2822,
  "\u258129.": 2823,
  "\u2581answers": 2824,
  "\u2581karatu": 2825,
  "\u2581Iliya": 2826,
  "\u2581calls": 2827,
  "\u2581dubu": 2828,
  "\u2581garden": 2829,
  "\u2581ha\u0257uwa": 2830,
  "\u2581sinful": 2831,
  "\u2581wuce": 2832,
  "\u25813;": 2833,
  "\u2581ha\u0257ari": 2834,
  "\u2581interests": 2835,
  "\u2581looking": 2836,
  "\u2581overcome": 2837,
  "\u2581wajibi": 2838,
  "\u2581watch": 2839,
  "\u2581write": 2840,
  "\u2581wurinsa": 2841,
  "\u2581bayyananna": 2842,
  "\u2581encourage": 2843,
  "\u2581lo": 2844,
  "\u2581murna": 2845,
  "\u2581\u00a6": 2846,
  "\u2581J": 2847,
  "\u2581Whoever": 2848,
  "\u2581challenge": 2849,
  "\u2581sane": 2850,
  "\u2581\u00e3\u0199ibar": 2851,
  "\u258128.": 2852,
  "\u2581freedom": 2853,
  "\u2581mut\u00e3nena": 2854,
  "\u2581success": 2855,
  "\u2581waiting": 2856,
  ")?": 2857,
  "\u2581Babylon": 2858,
  "\u2581Manzon": 2859,
  "\u2581history": 2860,
  "\u2581zuciyarsa": 2861,
  "\u258122)": 2862,
  "\u2581al\u0199arya": 2863,
  "\u2581fast": 2864,
  "\u2581favour": 2865,
  "\u2581fruits": 2866,
  "cancanci": 2867,
  "\u2581Which": 2868,
  "\u2581assignment": 2869,
  "\u2581gab\u00e3ni": 2870,
  "\u2581hakkin": 2871,
  "\u2581earned": 2872,
  "\u2581haikali": 2873,
  "\u2581kalmomi": 2874,
  "\u2581matsalar": 2875,
  "\u2581Bugu": 2876,
  "\u2581KA": 2877,
  "\u2581Yakubu": 2878,
  "\u2581develop": 2879,
  "\u2581nanata": 2880,
  "\u2581paradise": 2881,
  "\u2581rayuwarsu": 2882,
  "\u2581sexual": 2883,
  "\u2581Society": 2884,
  "\u2581belong": 2885,
  "\u2581fahimi": 2886,
  "\u2581individual": 2887,
  "\u2581d\u0169kiya": 2888,
  "\u2581explain": 2889,
  "\u2581gata": 2890,
  "\u2581grace": 2891,
  "\u2581karimci": 2892,
  "\u2581saba": 2893,
  "\u2581security": 2894,
  "\u2581sees": 2895,
  "\u2581Before": 2896,
  "\u2581Knower": 2897,
  "\u2581added": 2898,
  "\u2581kwana": 2899,
  "\u2581modern": 2900,
  "\u2581unity": 2901,
  "\u2581described": 2902,
  "\u2581doka": 2903,
  "\u2581practical": 2904,
  "\u2581relatives": 2905,
  "\u2581filled": 2906,
  "\u2581g\u00f5de": 2907,
  "\u2581abide": 2908,
  "\u2581actually": 2909,
  "\u2581addition": 2910,
  "\u2581dukanmu": 2911,
  "\u2581establish": 2912,
  "\u2581household": 2913,
  "\u2581kasanc\u1ebdwa": 2914,
  "\u2581wajaba": 2915,
  "\u2581source": 2916,
  "\u2581encouragement": 2917,
  "\u2581excellent": 2918,
  "\u2581government": 2919,
  "\u2581keeping": 2920,
  "\u2581matsayi": 2921,
  "\u2581mis\u00e3li": 2922,
  "\u2581tallafa": 2923,
  "\u2581w": 2924,
  "\u2581Ask": 2925,
  "\u2581bisharar": 2926,
  "\u2581i": 2927,
  "\u2581opened": 2928,
  "\u2581proud": 2929,
  "\u2581Signs": 2930,
  "\u2581wonder": 2931,
  "\u2581\u0253angare": 2932,
  "\u2581Perhaps": 2933,
  "\u2581although": 2934,
  "\u2581aside": 2935,
  "\u2581disbelief": 2936,
  "\u2581ears": 2937,
  "\u2581\u0199aunarsa": 2938,
  "!'": 2939,
  "Each": 2940,
  "\u2581hypocrites": 2941,
  "\u2581kir\u00e3yi": 2942,
  "\u2581lessons": 2943,
  "\u2581basis": 2944,
  "\u2581goal": 2945,
  "\u2581quality": 2946,
  "\u2581tabbas": 2947,
  "ajabi": 2948,
  "shi": 2949,
  "\u2581ba\u0199i": 2950,
  "\u2581explains": 2951,
  "\u2581final": 2952,
  "\u2581flock": 2953,
  "\u2581raba": 2954,
  "\u2581ran": 2955,
  "\u2581tattara": 2956,
  "\u2581yankin": 2957,
  "Who": 2958,
  "\u2581biyan": 2959,
  "\u2581spent": 2960,
  "\u258128,": 2961,
  "\u2581Sam": 2962,
  "\u2581condition": 2963,
  "\u2581lawful": 2964,
  "\u2581manzannin": 2965,
  "\u2581tongue": 2966,
  "Misalai": 2967,
  "\u258124)": 2968,
  "\u2581kowanne": 2969,
  "\u2581sau\u0199in": 2970,
  "\u2581yaba": 2971,
  "aziyya": 2972,
  "out": 2973,
  "\u2581Aaron": 2974,
  "\u2581Give": 2975,
  "\u2581almajiran": 2976,
  "\u2581closer": 2977,
  "\u2581losers": 2978,
  "\u2581ma\u0199iyi": 2979,
  "\u2581spoken": 2980,
  "\u2581Though": 2981,
  "\u2581dwell": 2982,
  "\u2581shepherd": 2983,
  "\u2581tsufa": 2984,
  "\u2581becoming": 2985,
  "\u2581iyakar": 2986,
  "\u2581shawarwari": 2987,
  "\u2581assigned": 2988,
  "\u2581becomes": 2989,
  "\u2581gab\u00e3ninka": 2990,
  "\u2581iyalinsa": 2991,
  "\u2581lose": 2992,
  "\u2581positive": 2993,
  "\u2581tabbacin": 2994,
  "\u2581Habakkuk": 2995,
  "\u2581Show": 2996,
  "\u2581results": 2997,
  "\u2581throughout": 2998,
  "\u2581weak": 2999,
  "\u2581wutar": 3000,
  "\u2581\u0257a": 3001,
  "nmu": 3002,
  "\u2581cattle": 3003,
  "\u2581k\u00e3m\u00e3": 3004,
  "\u2581pain": 3005,
  ":\"": 3006,
  "Da": 3007,
  "\u258131.": 3008,
  "\u258141": 3009,
  "\u2581Similarly": 3010,
  "\u2581burden": 3011,
  "\u2581fitina": 3012,
  "\u2581jimrewa": 3013,
  "\u2581mako": 3014,
  "\u2581sustenance": 3015,
  "\u2581distress": 3016,
  "\u2581faced": 3017,
  "\u2581ij\u00e3ra": 3018,
  "\u2581ro\u0199i": 3019,
  "\u2581tura": 3020,
  "es": 3021,
  "\u2581avail": 3022,
  "\u2581daughter": 3023,
  "\u2581examine": 3024,
  "\u2581failed": 3025,
  "\u2581gather": 3026,
  "\u2581priests": 3027,
  "\u2581Hall": 3028,
  "\u2581Kalmarsa": 3029,
  "\u2581Keep": 3030,
  "\u2581According": 3031,
  "\u2581Daniyel": 3032,
  "\u2581Later": 3033,
  "\u2581albarkar": 3034,
  "\u2581aurensu": 3035,
  "\u2581escape": 3036,
  "\u2581muhimmancin": 3037,
  "\u2581delight": 3038,
  "\u2581goodness": 3039,
  "\u2581six": 3040,
  "\u258127.": 3041,
  "\u2581cire": 3042,
  "\u2581da\u0257e": 3043,
  "\u2581ikilisiyoyi": 3044,
  "\u2581include": 3045,
  "\u2581less": 3046,
  "\u2581prostrate": 3047,
  "anda": 3048,
  "\u2581haikalin": 3049,
  "\u2581hurt": 3050,
  "\u2581kunya": 3051,
  "\u2581watan": 3052,
  "\u2581Aljannar": 3053,
  "\u2581P": 3054,
  "\u2581affection": 3055,
  "\u2581marry": 3056,
  "\u2581personality": 3057,
  "\u2581ts\u00e3wa": 3058,
  "\u2581wad\u00e3tar": 3059,
  "by": 3060,
  "\u2581darasi": 3061,
  "\u2581himma": 3062,
  "\u2581whatsoever": 3063,
  "Ta": 3064,
  "\u2581proof": 3065,
  "\u2581published": 3066,
  "\u2581terrible": 3067,
  "\u258133.": 3068,
  "\u2581Mut\u00e3nen": 3069,
  "\u2581abode": 3070,
  "\u2581activity": 3071,
  "\u2581haddi": 3072,
  "\u2581victory": 3073,
  "\u2581Only": 3074,
  "\u2581bala": 3075,
  "\u2581disciple": 3076,
  "\u2581genuine": 3077,
  "\u2581halartar": 3078,
  "\u2581jarraba": 3079,
  "\u2581littafi": 3080,
  "\u2581plain": 3081,
  "\u2581sort": 3082,
  "\u2581invited": 3083,
  "\u2581journey": 3084,
  "\u2581mataimaki": 3085,
  "\u2581moral": 3086,
  "\u2581wallafa": 3087,
  "\u2581Z\u00e3": 3088,
  "\u2581ago": 3089,
  "\u2581related": 3090,
  "\u2581tasb\u0129hi": 3091,
  "\u2581zamaninmu": 3092,
  "Sai": 3093,
  "\u2581Roman": 3094,
  "\u2581completely": 3095,
  "\u2581dedication": 3096,
  "\u2581families": 3097,
  "\u2581problem": 3098,
  "\u2581steps": 3099,
  "\u2581entered": 3100,
  "\u2581fulfill": 3101,
  "\u2581remembrance": 3102,
  "\u2581whereas": 3103,
  ")!": 3104,
  "\u258160": 3105,
  "\u2581Ayukan": 3106,
  "\u2581High": 3107,
  "\u2581Korintiyawa": 3108,
  "\u2581amfanin": 3109,
  "\u2581damar": 3110,
  "\u2581five": 3111,
  "\u2581matsalolin": 3112,
  "\u2581san\u00e3": 3113,
  "\u2581thereafter": 3114,
  "\u258125)": 3115,
  "\u2581encouraged": 3116,
  "\u2581list": 3117,
  "\u2581reminder": 3118,
  "\u2581worked": 3119,
  "\u2581yancin": 3120,
  "\u2581ciwo": 3121,
  "\u2581fill": 3122,
  "\u2581kings": 3123,
  "\u2581n\u0129sa": 3124,
  "\u2581successful": 3125,
  "Indeed": 3126,
  "Moses": 3127,
  "\u2581deeply": 3128,
  "\u2581opposition": 3129,
  "\u2581personally": 3130,
  "\u2581shagala": 3131,
  "\u2581worldly": 3132,
  "\u2581\u0199addara": 3133,
  "\u2581\u0257ari": 3134,
  "\u2581dedicated": 3135,
  "\u2581lands": 3136,
  "\u2581play": 3137,
  "\u2581zargi": 3138,
  "They": 3139,
  "Why": 3140,
  "\u258119:": 3141,
  "\u2581kwatancin": 3142,
  "\u2581prevent": 3143,
  "\u2581\u0199\u1ebdtare": 3144,
  "\u2581annabce": 3145,
  "\u2581arrangement": 3146,
  "\u2581dangantakarmu": 3147,
  "\u2581eye": 3148,
  "\u2581halatta": 3149,
  "\u2581lot": 3150,
  "\u2581several": 3151,
  "\u2581za\u0253a": 3152,
  "\u2581Muslims": 3153,
  "\u2581Noble": 3154,
  "\u2581azaba": 3155,
  "\u2581raunana": 3156,
  "\u2581abokin": 3157,
  "\u2581dalilai": 3158,
  "\u2581dwelling": 3159,
  "\u2581\u25aa": 3160,
  "Ubangiji": 3161,
  "\u2581Lokacin": 3162,
  "\u2581bukaci": 3163,
  "\u2581demonstrate": 3164,
  "\u2581discreet": 3165,
  "\u2581dokokin": 3166,
  "\u2581enjoyed": 3167,
  "\u2581injustice": 3168,
  "\u2581mataki": 3169,
  "\u2581n\u1ebdma": 3170,
  "\u2581saki": 3171,
  "\u2581dal\u0129li": 3172,
  "\u2581goyon": 3173,
  "\u2581j\u00e3yayya": 3174,
  "\u2581portion": 3175,
  "\u2581safe": 3176,
  "\u2581yamma": 3177,
  "ness": 3178,
  "that": 3179,
  "\u2581amintacce": 3180,
  "\u2581chose": 3181,
  "\u2581discuss": 3182,
  "\u2581rub\u0169ta": 3183,
  "\u258121:": 3184,
  "\u2581albarkace": 3185,
  "\u2581learning": 3186,
  "\u2581D\u00e3": 3187,
  "\u2581Sha": 3188,
  "\u2581admit": 3189,
  "\u2581building": 3190,
  "\u2581choice": 3191,
  "\u2581line": 3192,
  "\u2581prepare": 3193,
  "\u2581rasa": 3194,
  "\u2581shaidar": 3195,
  "\u2581\u00e3y\u00f5yinSa": 3196,
  "be": 3197,
  "\u2581Cor": 3198,
  "\u2581auku": 3199,
  "\u2581mention": 3200,
  "\u2581parts": 3201,
  "\u2581thousand": 3202,
  "\u2581wrath": 3203,
  "\u2581y\u00e3ya": 3204,
  "\";": 3205,
  "\u2581beautiful": 3206,
  "\u2581riches": 3207,
  "\u2581submit": 3208,
  "\u2581ya\u0199in": 3209,
  "\u2581\u0199unsa": 3210,
  "\u2581\u0257an\u0257an": 3211,
  "imar": 3212,
  "ma": 3213,
  "\u2581United": 3214,
  "\u2581aljannu": 3215,
  "\u2581babbar": 3216,
  "\u2581branch": 3217,
  "\u2581break": 3218,
  "\u2581causes": 3219,
  "\u2581corruption": 3220,
  "\u2581expressed": 3221,
  "\u2581harsuna": 3222,
  "\u2581kallon": 3223,
  "\u2581wai": 3224,
  "\u2581faithless": 3225,
  "\u2581languages": 3226,
  "\u2581possess": 3227,
  "\u2581shafuffuka": 3228,
  "\u2581sick": 3229,
  "Ibran": 3230,
  "\u2581Others": 3231,
  "\u2581contribute": 3232,
  "\u2581importance": 3233,
  "\u2581zarafi": 3234,
  "\u2581Ibrananci": 3235,
  "\u2581Memorial": 3236,
  "\u2581Way": 3237,
  "\u2581babba": 3238,
  "\u2581backs": 3239,
  "\u2581challenges": 3240,
  "\u2581female": 3241,
  "\u2581hidimarsa": 3242,
  "\u2581hijira": 3243,
  "\u2581imagine": 3244,
  "\u2581jinn": 3245,
  "\u2581urged": 3246,
  "\u2581Another": 3247,
  "\u2581Mount": 3248,
  "\u2581animals": 3249,
  "\u2581claim": 3250,
  "\u2581dispute": 3251,
  "\u2581it\u00e3ce": 3252,
  "\u2581jih\u00e3di": 3253,
  "\u2581ma\u0253allin": 3254,
  "\u2581tun\u00e3tarwa": 3255,
  "\u2581Ephesians": 3256,
  "\u2581appear": 3257,
  "\u2581conceal": 3258,
  "\u2581folk": 3259,
  "\u2581f\u00e3si\u0199ai": 3260,
  "\u2581goals": 3261,
  "\u2581remove": 3262,
  "\u2581Ubanmu": 3263,
  "\u2581carried": 3264,
  "\u2581gab\u00e3tar": 3265,
  "\u2581giya": 3266,
  "\u2581hanyoyin": 3267,
  "\u2581master": 3268,
  "\u2581perform": 3269,
  "\u2581quickly": 3270,
  "\u2581thereby": 3271,
  "their": 3272,
  "\u2581Amos": 3273,
  "\u2581affairs": 3274,
  "\u2581door": 3275,
  "\u2581recite": 3276,
  "Wanda": 3277,
  "\u1ebdwa": 3278,
  "\u258170": 3279,
  "\u2581Translation": 3280,
  "\u2581bi\u0257an": 3281,
  "\u2581kurkuku": 3282,
  "\u2581response": 3283,
  "\u2581truths": 3284,
  "bawar": 3285,
  "c\u1ebdwa": 3286,
  "like": 3287,
  "\u0199ar": 3288,
  "\u2581Armageddon": 3289,
  "\u2581appropriate": 3290,
  "\u2581area": 3291,
  "\u2581natsuwa": 3292,
  "\u2581rayu": 3293,
  "\u2581shugaban": 3294,
  "\u2581story": 3295,
  "\u2581takwas": 3296,
  "\u2581wahalar": 3297,
  "bi": 3298,
  "\u2581Where": 3299,
  "\u2581contrast": 3300,
  "\u2581names": 3301,
  "\u2581pressure": 3302,
  "\u2581studying": 3303,
  "\u2581wanzuwa": 3304,
  "\u2581wine": 3305,
  "\u2581Take": 3306,
  "\u2581kalma": 3307,
  "\u2581tafarki": 3308,
  "\u2581zina": 3309,
  "\u2581Ke": 3310,
  "\u2581Litt\u00e3fin": 3311,
  "\u2581Tana": 3312,
  "\u2581committed": 3313,
  "\u2581necessary": 3314,
  "\u2581run": 3315,
  "\u2581tambayoyin": 3316,
  "ai": 3317,
  "\u2581Apostle": 3318,
  "\u2581Certainly": 3319,
  "\u2581Sau": 3320,
  "\u2581accounts": 3321,
  "\u2581auri": 3322,
  "\u2581begin": 3323,
  "\u2581blame": 3324,
  "\u2581ground": 3325,
  "\u2581groups": 3326,
  "\u2581s\u00e3mu": 3327,
  "\u2581tawaye": 3328,
  "\u2581verse": 3329,
  "Let": 3330,
  "\u2581Helenanci": 3331,
  "\u2581Right": 3332,
  "\u2581addinai": 3333,
  "\u2581join": 3334,
  "\u2581merciful": 3335,
  "\u2581\u0198auna": 3336,
  "1": 3337,
  "tar": 3338,
  "\u2581Could": 3339,
  "\u2581declared": 3340,
  "\u2581duhu": 3341,
  "\u2581fama": 3342,
  "\u2581rayuwarsa": 3343,
  "\u2581sought": 3344,
  "\u2581zuriyar": 3345,
  "\u1ebd": 3346,
  "\u258128)": 3347,
  "\u258155": 3348,
  "\u2581Through": 3349,
  "\u2581generations": 3350,
  "\u2581tsamm\u00e3nin": 3351,
  "\u2581tsamm\u00e3ninsu": 3352,
  "\u2581wasiyya": 3353,
  "/": 3354,
  "\u258126.": 3355,
  "\u258142": 3356,
  "\u2581Among": 3357,
  "\u2581Sarkin": 3358,
  "\u2581bread": 3359,
  "\u2581helper": 3360,
  "\u2581koyaushe": 3361,
  "\u2581millions": 3362,
  "\u2581niyyar": 3363,
  "\u2581publications": 3364,
  "\u2581Sarakuna": 3365,
  "\u2581albarkaci": 3366,
  "\u2581rubuce": 3367,
  "\u2581sannu": 3368,
  "\u2581touch": 3369,
  "\u2581touched": 3370,
  "ver": 3371,
  "w\u00e3yi": 3372,
  "\u2581inhabitants": 3373,
  "\u2581prison": 3374,
  "\u2581shela": 3375,
  "\u2581wa\u0199a": 3376,
  "\u2581Soon": 3377,
  "\u2581battle": 3378,
  "\u2581cikinmu": 3379,
  "\u2581cried": 3380,
  "\u2581it\u00e3cen": 3381,
  "\u2581property": 3382,
  "ic": 3383,
  "\u2581fell": 3384,
  "\u2581hidimarmu": 3385,
  "\u2581matata": 3386,
  "\u2581pride": 3387,
  "Ayukan": 3388,
  "\u2581Brother": 3389,
  "\u2581Well": 3390,
  "\u2581friendship": 3391,
  "\u2581idols": 3392,
  "\u2581lay": 3393,
  "\u2581ma\u0199aryata": 3394,
  "\u2581revelation": 3395,
  "lmost": 3396,
  "\u2581books": 3397,
  "\u2581endurance": 3398,
  "\u2581gagg\u00e3wa": 3399,
  "\u2581Spirit": 3400,
  "\u2581accurate": 3401,
  "\u2581duwatsu": 3402,
  "\u2581juya": 3403,
  "\u2581parable": 3404,
  "\u2581tsayayya": 3405,
  "\u258150": 3406,
  "\u2581hasten": 3407,
  "\u2581madaidaiciya": 3408,
  "\u2581\u018aaya": 3409,
  "Ru": 3410,
  "\u2581Ibran": 3411,
  "\u2581beginning": 3412,
  "\u2581kau": 3413,
  "\u2581m\u00e3kirci": 3414,
  "\u2581naught": 3415,
  "\u2581r\u00e3yuwa": 3416,
  "\u2581wind": 3417,
  "\u2581ziyara": 3418,
  "Don": 3419,
  "able": 3420,
  "\u2581Mis": 3421,
  "\u2581evident": 3422,
  "\u2581ido": 3423,
  "\u2581neighbor": 3424,
  "\u2581progress": 3425,
  "\u2581pursue": 3426,
  "\u2581shiryarwa": 3427,
  "Za": 3428,
  "\u2581York": 3429,
  "\u2581cover": 3430,
  "\u2581karatun": 3431,
  "\u2581siyasa": 3432,
  "\u2581s\u00e3lihai": 3433,
  "\u2581Himself": 3434,
  "\u2581Zuwa": 3435,
  "\u2581third": 3436,
  "\u2581observed": 3437,
  "\u2581recited": 3438,
  "\u2581yanci": 3439,
  "nta": 3440,
  "\u2581Path": 3441,
  "\u2581cities": 3442,
  "\u2581compassion": 3443,
  "\u2581unseen": 3444,
  "\u2581zumunta": 3445,
  "\u2581aljanna": 3446,
  "\u2581discipline": 3447,
  "\u2581general": 3448,
  "\u2581hap": 3449,
  "\u2581interested": 3450,
  "org": 3451,
  "p": 3452,
  "\u258130.": 3453,
  "\u2581amsar": 3454,
  "\u2581applet": 3455,
  "\u2581bikin": 3456,
  "\u2581turning": 3457,
  "wo": 3458,
  "\u2581Mercy": 3459,
  "\u2581Y": 3460,
  "\u2581bearing": 3461,
  "\u2581elderly": 3462,
  "\u2581involves": 3463,
  "\u2581refused": 3464,
  "\u2581steadfast": 3465,
  "\u2581zuciyarka": 3466,
  "\u2581Clearly": 3467,
  "\u2581cancanta": 3468,
  "\u2581convention": 3469,
  "\u2581gano": 3470,
  "\u2581horo": 3471,
  "\u2581jiyar": 3472,
  "\u2581nature": 3473,
  "\u2581opening": 3474,
  "\u2581resist": 3475,
  "\u2581aught": 3476,
  "\u2581bangaskiyarmu": 3477,
  "\u2581trying": 3478,
  "\u2581week": 3479,
  "All": 3480,
  "\u2581N": 3481,
  "\u2581Truly": 3482,
  "\u2581karya": 3483,
  "\u2581minds": 3484,
  "\u2581z\u00e3lunc": 3485,
  "knowing": 3486,
  "\u2581Has": 3487,
  "\u2581L\u0169\u0257u": 3488,
  "\u2581TO": 3489,
  "\u2581declare": 3490,
  "\u2581falalarSa": 3491,
  "\u2581firistoci": 3492,
  "\u2581mizanan": 3493,
  "\u2581pleases": 3494,
  "\u2581sashen": 3495,
  "\u2581sau\u0199a\u0199a": 3496,
  "\u2581sayar": 3497,
  "\u2581s\u00e3": 3498,
  "D\u00e3": 3499,
  "wise": 3500,
  "\u2581\"%": 3501,
  "\u2581Nehemiah": 3502,
  "\u2581tarihi": 3503,
  "ko": 3504,
  "yansu": 3505,
  "\u2581Every": 3506,
  "\u2581Hukumar": 3507,
  "\u2581Should": 3508,
  "\u2581realized": 3509,
  "\u2581sh\u00e3": 3510,
  "\u2581GNOME": 3511,
  "\u2581association": 3512,
  "\u2581ciyarwa": 3513,
  "\u2581haife": 3514,
  "\u2581lack": 3515,
  "\u2581loyalty": 3516,
  "\u2581strengthened": 3517,
  "at": 3518,
  "\u2581Pennsylvania": 3519,
  "\u2581Ra": 3520,
  "\u2581glorify": 3521,
  "\u2581husbands": 3522,
  "\u2581violence": 3523,
  "\u2581\u0257iya": 3524,
  "\u2581Nan": 3525,
  "\u2581suffered": 3526,
  "\u2581thousands": 3527,
  "\u2581ubanninmu": 3528,
  "\u2581Bisa": 3529,
  "\u2581Gama": 3530,
  "\u2581careful": 3531,
  "\u2581consequences": 3532,
  "\u2581izni": 3533,
  "\u2581office": 3534,
  "\u2581t\u00e3likai": 3535,
  "\u2581umurci": 3536,
  "\u2581Almighty": 3537,
  "\u2581Ciki": 3538,
  "\u2581existence": 3539,
  "\u2581goes": 3540,
  "Isha": 3541,
  "\u2581Y\u0169sufu": 3542,
  "\u2581bayarwa": 3543,
  "\u2581fahariya": 3544,
  "\u2581gwamnati": 3545,
  "\u2581mere": 3546,
  "\u2581patiently": 3547,
  "\u2581priest": 3548,
  "\u2581rinjay": 3549,
  "\u2581Was": 3550,
  "\u2581sallama": 3551,
  "\u2581shafan": 3552,
  "\u2581\u00c3d\u00e3wa": 3553,
  "\u2581MAI": 3554,
  "\u2581Trac": 3555,
  "\u2581ajiye": 3556,
  "\u2581deaf": 3557,
  "\u2581fassarar": 3558,
  "\u2581students": 3559,
  "\u2581succeed": 3560,
  "\u2581Nor": 3561,
  "\u2581belief": 3562,
  "\u2581beneath": 3563,
  "\u2581effective": 3564,
  "\u2581mabiyan": 3565,
  "forgiving": 3566,
  "\u2581Good": 3567,
  "\u2581confident": 3568,
  "\u2581liars": 3569,
  "Be": 3570,
  "\u2581Amsa": 3571,
  "\u2581Exalted": 3572,
  "\u2581Gaba": 3573,
  "\u2581army": 3574,
  "\u2581bautawa": 3575,
  "\u2581bukatan": 3576,
  "\u2581descendants": 3577,
  "\u2581dukiya": 3578,
  "\u2581nuni": 3579,
  "\u2581specific": 3580,
  "\u2581yanka": 3581,
  "\u2581Zechariah": 3582,
  "\u2581convinced": 3583,
  "\u2581firmly": 3584,
  "\u2581nasa": 3585,
  "\u2581rahamar": 3586,
  "\u2581y\u00e3fe": 3587,
  "is": 3588,
  "\u258126,": 3589,
  "\u2581clay": 3590,
  "\u2581extent": 3591,
  "\u2581layi": 3592,
  "\u2581male": 3593,
  "\u2581nisha\u0257i": 3594,
  "\u2581respite": 3595,
  "\u2581understood": 3596,
  "\u2581zuciyarsu": 3597,
  "\u2581arrived": 3598,
  "\u2581bless": 3599,
  "\u2581getting": 3600,
  "\u2581gold": 3601,
  "\u2581labari": 3602,
  "\u2581sharing": 3603,
  "\u2581warkar": 3604,
  "\u2581yardar": 3605,
  "bar": 3606,
  "\u258148": 3607,
  "\u2581Nevertheless": 3608,
  "\u2581States": 3609,
  "\u2581curse": 3610,
  "\u2581drive": 3611,
  "\u2581eventually": 3612,
  "\u2581furcin": 3613,
  "\u2581harvest": 3614,
  "\u2581overseers": 3615,
  "\u2581situations": 3616,
  "abin": 3617,
  "ye": 3618,
  "\u2581Abram": 3619,
  "\u2581Gilead": 3620,
  "\u2581Panel": 3621,
  "\u2581built": 3622,
  "\u2581differ": 3623,
  "\u2581grief": 3624,
  "\u2581half": 3625,
  "\u2581presented": 3626,
  "\u2581yunwa": 3627,
  "\u2581\u0257ansa": 3628,
  "\u258129)": 3629,
  "\u2581Abubuwa": 3630,
  "\u2581Gospel": 3631,
  "\u2581Recall": 3632,
  "\u2581Uba": 3633,
  "\u2581alamar": 3634,
  "\u2581articles": 3635,
  "\u2581carefully": 3636,
  "\u2581hours": 3637,
  "\u2581jin\u0199ai": 3638,
  "\u2581stars": 3639,
  "Afis": 3640,
  "\u2581\"[": 3641,
  "\u2581Timoti": 3642,
  "\u2581Un": 3643,
  "\u2581bawa": 3644,
  "\u2581date": 3645,
  "\u2581kewaye": 3646,
  "\u2581maji\u0253inci": 3647,
  "\u2581marmari": 3648,
  "\u2581putt": 3649,
  "\u2581thankful": 3650,
  "\u2581wakiltar": 3651,
  "\u2581Aware": 3652,
  "\u2581Questions": 3653,
  "\u2581aike": 3654,
  "\u2581boy": 3655,
  "\u2581firist": 3656,
  "\u2581magic": 3657,
  "\u2581responsible": 3658,
  "h": 3659,
  "\u2581Asa": 3660,
  "\u2581event": 3661,
  "\u2581lasting": 3662,
  "\u2581ruhunsa": 3663,
  "\u2581sometimes": 3664,
  "\u2581traveling": 3665,
  "\u2581zeal": 3666,
  "\u2581Fanel": 3667,
  "\u2581aukuwa": 3668,
  "\u2581community": 3669,
  "\u2581conditions": 3670,
  "\u2581feeling": 3671,
  "\u2581heavy": 3672,
  "\u2581h\u00f5re": 3673,
  "\u2581nau": 3674,
  "\u2581react": 3675,
  "\u2581ridda": 3676,
  "\u2581sanyi": 3677,
  "\u2581Make": 3678,
  "\u2581ariric": 3679,
  "\u2581d\u0169kiy\u00f5yinsu": 3680,
  "\u2581iznin": 3681,
  "\u2581kashi": 3682,
  "\u2581abokai": 3683,
  "\u2581aid": 3684,
  "\u2581approval": 3685,
  "\u2581lying": 3686,
  "\u2581sararin": 3687,
  "\u2581associates": 3688,
  "\u2581baut\u00e3": 3689,
  "\u2581believer": 3690,
  "\u2581calling": 3691,
  "\u2581kallo": 3692,
  "\u2581rightly": 3693,
  "Afisawa": 3694,
  "\u2581Korantiyawa": 3695,
  "\u2581acceptable": 3696,
  "\u2581alf\u00e3sha": 3697,
  "\u2581companion": 3698,
  "\u2581c\u1ebdto": 3699,
  "\u2581decide": 3700,
  "\u2581enjoyment": 3701,
  "\u2581inherit": 3702,
  "\u2581throw": 3703,
  "\u25aa": 3704,
  "\u2581Look": 3705,
  "\u2581accomplish": 3706,
  "\u2581aikatawa": 3707,
  "\u2581auren": 3708,
  "\u2581bayi": 3709,
  "\u2581b\u00e3yansa": 3710,
  "\u2581fair": 3711,
  "\u2581required": 3712,
  "\u2581vain": 3713,
  "\u2581zunubin": 3714,
  "\u2581Body": 3715,
  "\u2581Explain": 3716,
  "\u2581centuries": 3717,
  "\u2581commandments": 3718,
  "\u2581gaskat\u00e3wa": 3719,
  "\u2581recall": 3720,
  "\u2581statement": 3721,
  "\u2581upright": 3722,
  "\u2581worthy": 3723,
  "\u2581Dol": 3724,
  "\u2581knoweth": 3725,
  "\u2581natural": 3726,
  "\u2581note": 3727,
  "\u2581oaths": 3728,
  "\u2581rarrabe": 3729,
  "\u2581setting": 3730,
  "\u2581\u0199ayyade": 3731,
  "hether": 3732,
  "us": 3733,
  "\u00f5wa": 3734,
  "\u2581About": 3735,
  "\u2581Govern": 3736,
  "\u2581Shiri": 3737,
  "\u2581aikinsu": 3738,
  "\u2581bayanin": 3739,
  "\u2581biyun": 3740,
  "\u2581decree": 3741,
  "\u2581k\u0101riya": 3742,
  "\u2581reasonable": 3743,
  "\u2581shafaffun": 3744,
  "Islamic": 3745,
  "Shi": 3746,
  "\u2581ambaton": 3747,
  "\u2581batutuwa": 3748,
  "\u2581fearing": 3749,
  "\u2581fruitage": 3750,
  "\u2581inheritance": 3751,
  "\u2581miji": 3752,
  "\u2581zealous": 3753,
  "\u2581attack": 3754,
  "\u2581fuskar": 3755,
  "\u2581meant": 3756,
  "\u2581member": 3757,
  "\u2581mountain": 3758,
  "\u2581produced": 3759,
  "\u2581provisions": 3760,
  "\u2581raina": 3761,
  "\u2581throne": 3762,
  "\u2581English": 3763,
  "\u2581Iya": 3764,
  "\u2581charity": 3765,
  "\u2581halartan": 3766,
  "\u2581iske": 3767,
  "\u2581jinin": 3768,
  "\u2581looked": 3769,
  "\u2581sharri": 3770,
  "Matiyu": 3771,
  "\u2581Also": 3772,
  "\u2581Young": 3773,
  "\u2581praying": 3774,
  "\u2581reminded": 3775,
  "\u2581simple": 3776,
  "\u2581workers": 3777,
  "\u2581Awake": 3778,
  "\u2581Being": 3779,
  "\u2581assist": 3780,
  "\u2581gaibi": 3781,
  "\u2581j\u0169yar": 3782,
  "\u2581labaran": 3783,
  "\u2581makarantar": 3784,
  "\u2581merely": 3785,
  "\u2581preached": 3786,
  "\u2581publishers": 3787,
  "\u2581requires": 3788,
  "\u2581saurara": 3789,
  "\u2581task": 3790,
  "\u2581uses": 3791,
  "\u258135.": 3792,
  "\u2581Mutanen": 3793,
  "\u2581Really": 3794,
  "\u2581daki": 3795,
  "\u2581direct": 3796,
  "\u2581drawn": 3797,
  "\u2581immediately": 3798,
  "\u2581rahamarSa": 3799,
  "ra": 3800,
  "\u00b7": 3801,
  "\u2581akwatin": 3802,
  "\u2581divorce": 3803,
  "\u2581fansar": 3804,
  "\u2581m\u00e3": 3805,
  "\u2581needy": 3806,
  "\u2581request": 3807,
  "\u2581seems": 3808,
  "\u2581tribe": 3809,
  "\u2581valuable": 3810,
  "\u2581wuraren": 3811,
  "wa\u0257anda": 3812,
  "\u2581Maryama": 3813,
  "\u2581Study": 3814,
  "\u2581fighting": 3815,
  "\u2581halicc": 3816,
  "\u2581ikonsa": 3817,
  "\u2581includes": 3818,
  "\u2581midst": 3819,
  "\u2581rarraba": 3820,
  "\u2581waye": 3821,
  "\u2581Mutum": 3822,
  "\u2581abundant": 3823,
  "\u2581foreign": 3824,
  "\u2581rera": 3825,
  "\u2581sakin": 3826,
  "\u2581saurare": 3827,
  "\u2581teku": 3828,
  "\u2581ya\u0257a": 3829,
  "cce": 3830,
  "responsibilities": 3831,
  "\u258121,": 3832,
  "\u2581experiences": 3833,
  "\u2581job": 3834,
  "\u2581listening": 3835,
  "\u2581manyanta": 3836,
  "\u2581persons": 3837,
  "\u2581sashe": 3838,
  "\u2581separate": 3839,
  "\u2581sufficient": 3840,
  "\u2581watau": 3841,
  "There": 3842,
  "ive": 3843,
  "\u2581Whom": 3844,
  "\u2581affair": 3845,
  "\u2581step": 3846,
  "\u2581worshipped": 3847,
  "\u2581Magana": 3848,
  "\u2581consideration": 3849,
  "\u2581fake": 3850,
  "\u2581gaggawa": 3851,
  "\u2581gifts": 3852,
  "\u2581girgiza": 3853,
  "\u2581joined": 3854,
  "\u2581rarrab\u1ebdwa": 3855,
  "\u2581scriptures": 3856,
  "\u2581student": 3857,
  "\u2581teachers": 3858,
  "\u258127)": 3859,
  "\u2581Prov": 3860,
  "\u2581Regard": 3861,
  "\u2581immorality": 3862,
  "\u2581juyayi": 3863,
  "\u2581natsu": 3864,
  "\u2581overseer": 3865,
  "\u2581ruin": 3866,
  "\u2581tu\u0199uru": 3867,
  "\u2581wasa": 3868,
  "\u2581whenever": 3869,
  "\u2581Babban": 3870,
  "\u2581Jah\u0129m": 3871,
  "\u2581Luk": 3872,
  "\u2581Name": 3873,
  "\u2581aspects": 3874,
  "\u2581concerned": 3875,
  "\u2581forgiving": 3876,
  "\u2581gab\u00e3ta": 3877,
  "\u2581rely": 3878,
  "\u2581undeserved": 3879,
  "\u2581watanni": 3880,
  "\u2581sauraron": 3881,
  "\u2581sh\u00e3yar": 3882,
  "\u2581\u0199iyayya": 3883,
  "\u258131)": 3884,
  "\u2581Garden": 3885,
  "\u2581Islam": 3886,
  "\u2581arrogant": 3887,
  "\u2581deed": 3888,
  "\u2581included": 3889,
  "\u2581inform": 3890,
  "\u2581outside": 3891,
  "\u2581parent": 3892,
  "\u2581temptation": 3893,
  "\u258129,": 3894,
  "\u258134,": 3895,
  "\u2581Ma\u0257aukaki": 3896,
  "\u2581Oft": 3897,
  "\u2581Peace": 3898,
  "\u2581beliefs": 3899,
  "\u2581birds": 3900,
  "\u2581bones": 3901,
  "\u2581fish": 3902,
  "\u2581gwargwadon": 3903,
  "\u2581hoton": 3904,
  "\u2581literature": 3905,
  "\u2581unable": 3906,
  "\u2581universe": 3907,
  "\u2581worshipers": 3908,
  "--": 3909,
  "Jesus": 3910,
  "\u2581alkawarinsa": 3911,
  "\u2581ease": 3912,
  "\u2581exalted": 3913,
  "\u2581kyaun": 3914,
  "\u2581matsi": 3915,
  "\u2581nauyin": 3916,
  "\u2581wage": 3917,
  "\u2581window": 3918,
  "\u2581z\u00e3fi": 3919,
  "\u2581\u0199alubale": 3920,
  "\u2581\u0253\u00e3ta": 3921,
  "\u258165": 3922,
  "\u2581abincin": 3923,
  "\u2581abundance": 3924,
  "\u2581falalar": 3925,
  "\u2581growth": 3926,
  "\u2581kar\u0253an": 3927,
  "\u2581referred": 3928,
  "\u2581\u0199o\u0199arinmu": 3929,
  "kan": 3930,
  "\u2581Go": 3931,
  "\u2581H": 3932,
  "\u2581bi\u0257i": 3933,
  "\u2581conclusion": 3934,
  "\u2581education": 3935,
  "\u2581maye": 3936,
  "\u2581plan": 3937,
  "\u2581prospect": 3938,
  "\u2581r\u00e3na": 3939,
  "\u2581sallam\u00e3wa": 3940,
  "\u2581talauci": 3941,
  "\u2581Except": 3942,
  "\u2581House": 3943,
  "\u2581Sam\u0169d\u00e3wa": 3944,
  "\u2581barinsu": 3945,
  "\u2581darussa": 3946,
  "\u2581leads": 3947,
  "\u2581picture": 3948,
  "\u2581rabu": 3949,
  "\u2581Wurin": 3950,
  "\u2581agree": 3951,
  "\u2581b": 3952,
  "\u2581cikar": 3953,
  "\u2581cope": 3954,
  "\u2581follows": 3955,
  "\u2581hari": 3956,
  "\u2581increased": 3957,
  "\u2581ku\u0253uta": 3958,
  "\u2581tsarkaka": 3959,
  "\u2581willingly": 3960,
  "\u2581yaran": 3961,
  "\u2581\u0199ware": 3962,
  "ni": 3963,
  "\u2581(1)": 3964,
  "\u2581Mutuwar": 3965,
  "\u2581d\u0169bi": 3966,
  "\u2581feed": 3967,
  "\u2581ofishin": 3968,
  "\u2581practices": 3969,
  "\u2581road": 3970,
  "\u2581seemed": 3971,
  "\u2581sit": 3972,
  "\u2581ubansa": 3973,
  "\u2581warware": 3974,
  "How": 3975,
  "\u2581adadin": 3976,
  "\u2581kinds": 3977,
  "\u2581reckoning": 3978,
  "\u2581sh\u0169\u0257e": 3979,
  "\u2581wishes": 3980,
  "\u258126)": 3981,
  "\u2581Never": 3982,
  "\u2581Worship": 3983,
  "\u2581Yawancin": 3984,
  "\u2581decreed": 3985,
  "\u2581directed": 3986,
  "\u2581hardship": 3987,
  "\u2581ladabi": 3988,
  "\u2581matalauta": 3989,
  "\u2581race": 3990,
  "\u2581s\u0169nan": 3991,
  "\u2581ungrateful": 3992,
  "\u2581beside": 3993,
  "\u2581danger": 3994,
  "\u2581gumaka": 3995,
  "\u2581insight": 3996,
  "\u2581missionary": 3997,
  "\u2581miyagun": 3998,
  "\u2581pious": 3999,
  "\u2581sababbin": 4000,
  "\u2581sarakuna": 4001,
  "\u2581shiryu": 4002,
  "\u2581stayed": 4003,
  "\u2581telling": 4004,
  "\u2581territory": 4005,
  "\u2581\u0199uduri": 4006,
  "W\u00e3n": 4007,
  "g": 4008,
  "gewar": 4009,
  "\u2581Kan": 4010,
  "\u2581Malachi": 4011,
  "\u2581N\u00e3": 4012,
  "\u2581guardian": 4013,
  "\u2581hast": 4014,
  "\u2581k\u00e3yan": 4015,
  "\u2581ma\u0253alli": 4016,
  "\u2581running": 4017,
  "\u2581struck": 4018,
  "\u2581\u0199aruwa": 4019,
  "\u2581\u0199aw\u00e3ta": 4020,
  "\u2581Heb": 4021,
  "\u2581Teach": 4022,
  "\u2581ab\u0169buwa": 4023,
  "\u2581bond": 4024,
  "\u2581greatly": 4025,
  "\u2581heartfelt": 4026,
  "\u2581legal": 4027,
  "\u2581likewise": 4028,
  "\u2581worlds": 4029,
  "\u2581youth": 4030,
  "arshi": 4031,
  "\u2581associated": 4032,
  "\u2581noted": 4033,
  "\u2581pioneers": 4034,
  "\u2581shekarun": 4035,
  "\u2581tilasta": 4036,
  "\u2581tir": 4037,
  "\u2581trees": 4038,
  "\u2581tunawa": 4039,
  "\u2581warnings": 4040,
  "\u2581\u0199arfe": 4041,
  "U": 4042,
  "amuran": 4043,
  "daki": 4044,
  "ujiza": 4045,
  "w\u00e3": 4046,
  "yansa": 4047,
  "\u2581appeared": 4048,
  "\u2581assured": 4049,
  "\u2581front": 4050,
  "\u2581ordained": 4051,
  "\u2581relative": 4052,
  "\u2581\u0199aunarmu": 4053,
  "\u2581\u0199\u00e3re": 4054,
  "\u0129na": 4055,
  "\u258144": 4056,
  "\u2581dangana": 4057,
  "\u2581gareshi": 4058,
  "\u2581girl": 4059,
  "\u2581nisa": 4060,
  "\u2581private": 4061,
  "\u2581prophetic": 4062,
  "\u2581ranka": 4063,
  "\u2581satisfaction": 4064,
  "\u2581z\u00e3\u0253e": 4065,
  "\u2581Turanci": 4066,
  "\u2581acted": 4067,
  "\u2581ayar": 4068,
  "\u2581company": 4069,
  "\u2581dabba": 4070,
  "\u2581encouraging": 4071,
  "\u2581gatan": 4072,
  "\u2581mugaye": 4073,
  "\u2581prophecies": 4074,
  "\u2581rebellion": 4075,
  "\u2581youths": 4076,
  "merciful": 4077,
  "\u2581(2)": 4078,
  "\u2581144,000": 4079,
  "\u2581Koyarwa": 4080,
  "\u2581amincewa": 4081,
  "\u2581discussed": 4082,
  "\u2581filin": 4083,
  "\u2581original": 4084,
  "\u2581speaks": 4085,
  "\u2581teaches": 4086,
  "\u2581\u0198asar": 4087,
  "\u2581\u0257ayan": 4088,
  "\u2581Alkawari": 4089,
  "\u2581Tell": 4090,
  "\u2581commands": 4091,
  "\u2581rasu": 4092,
  "\u2581sleep": 4093,
  "\u2581wrongdoing": 4094,
  "\u2581yabo": 4095,
  "\u2581ziyarci": 4096,
  "\u258127,": 4097,
  "\u2581Think": 4098,
  "\u2581Woe": 4099,
  "\u2581amfan": 4100,
  "\u2581k\u00f5mo": 4101,
  "\u2581maku": 4102,
  "\u2581negative": 4103,
  "\u2581responded": 4104,
  "\u2581wide": 4105,
  "\u2581zukatansu": 4106,
  "other": 4107,
  "\u258143": 4108,
  "\u2581Samu": 4109,
  "\u2581Thamud": 4110,
  "\u2581g\u00f5d\u1ebdwa": 4111,
  "\u2581kwanan": 4112,
  "\u2581labarai": 4113,
  "\u2581receiving": 4114,
  "\u2581suddenly": 4115,
  "\u2581tanadar": 4116,
  "@": 4117,
  "Peace": 4118,
  "Y": 4119,
  "\u2581Best": 4120,
  "\u2581Far": 4121,
  "\u2581Said": 4122,
  "\u2581Sarah": 4123,
  "\u2581basira": 4124,
  "\u2581beloved": 4125,
  "\u2581din": 4126,
  "\u2581hatred": 4127,
  "\u2581kin": 4128,
  "\u2581limits": 4129,
  "\u2581matu\u0199ar": 4130,
  "\u2581tsammani": 4131,
  "\u2581tushen": 4132,
  "\u2581weight": 4133,
  "\u2581ya\u0199\u0129ni": 4134,
  "\u2581n\u1ebdm": 4135,
  "\u2581relief": 4136,
  "masu": 4137,
  "suka": 4138,
  "this": 4139,
  "\u2581bow": 4140,
  "\u2581fears": 4141,
  "\u2581limited": 4142,
  "\u2581rukuni": 4143,
  "\u2581r\u00f5wa": 4144,
  "\u2581tarihin": 4145,
  "\u2581\u0199asarsu": 4146,
  "\u00a9": 4147,
  "\u258139": 4148,
  "\u2581Were": 4149,
  "\u2581alherin": 4150,
  "\u2581dabb\u00f5bi": 4151,
  "\u2581gode": 4152,
  "\u2581iyayensu": 4153,
  "\u2581mas\u0129fa": 4154,
  "\u2581miyagu": 4155,
  "\u2581treasure": 4156,
  "Ni": 4157,
  "\u2581LITTAFI": 4158,
  "\u2581Micah": 4159,
  "\u2581Throne": 4160,
  "\u2581belied": 4161,
  "\u2581caring": 4162,
  "\u2581laid": 4163,
  "\u2581opportunities": 4164,
  "\u2581polytheists": 4165,
  "\u2581tsanantawa": 4166,
  "\u2581watsi": 4167,
  "M\u1ebdne": 4168,
  "\u2581Jamus": 4169,
  "\u2581Jonathan": 4170,
  "\u2581Philippians": 4171,
  "\u2581bayyananniya": 4172,
  "\u2581believes": 4173,
  "\u2581contains": 4174,
  "\u2581faithfully": 4175,
  "\u2581jefa": 4176,
  "\u2581yaranku": 4177,
  "K": 4178,
  "annan": 4179,
  "jami": 4180,
  "\u258125,": 4181,
  "\u2581Sar": 4182,
  "\u2581bukatun": 4183,
  "\u2581coci": 4184,
  "\u2581jawabi": 4185,
  "\u2581mun\u00e3fukai": 4186,
  "\u2581points": 4187,
  "\u2581\u0199aunace": 4188,
  "he": 4189,
  "\u2581Attaura": 4190,
  "\u2581Monotheism": 4191,
  "\u2581dabbobi": 4192,
  "\u2581gab\u00e3ninku": 4193,
  "\u2581hus\u0169ma": 4194,
  "\u2581kame": 4195,
  "\u2581proclaim": 4196,
  "\u2581refuse": 4197,
  "\u2581rise": 4198,
  "\u2581sany\u00e3": 4199,
  "\u2581visited": 4200,
  "\u2581ya\u0199e": 4201,
  "As": 4202,
  "\u25811919": 4203,
  "\u2581Man": 4204,
  "\u2581ciwon": 4205,
  "\u2581grew": 4206,
  "\u2581object": 4207,
  "\u2581possessions": 4208,
  "\u2581purposes": 4209,
  "\u2581wanene": 4210,
  "\u2581wasi\u0199a": 4211,
  "\u2581white": 4212,
  "\u2581active": 4213,
  "\u2581destination": 4214,
  "\u2581doom": 4215,
  "\u2581girgije": 4216,
  "\u2581grasp": 4217,
  "\u2581heads": 4218,
  "\u2581inside": 4219,
  "\u2581itacen": 4220,
  "\u2581leading": 4221,
  "\u2581mental": 4222,
  "\u2581sananne": 4223,
  "\u2581united": 4224,
  "\u2581wahayin": 4225,
  "\u2581yaron": 4226,
  "F": 4227,
  "will": 4228,
  "your": 4229,
  "\u25812011": 4230,
  "\u258132.": 4231,
  "\u2581Answer": 4232,
  "\u2581Shu": 4233,
  "\u2581TSARKI": 4234,
  "\u2581attain": 4235,
  "\u2581goranci": 4236,
  "\u2581subjected": 4237,
  "\u2581\u0199\u00f5": 4238,
  "Lord": 4239,
  "anin": 4240,
  "\u2581Eden": 4241,
  "\u2581alh\u1ebdrin": 4242,
  "\u2581attending": 4243,
  "\u2581conversation": 4244,
  "\u2581refers": 4245,
  "\u2581sa\u0253a": 4246,
  "\u2581Hanya": 4247,
  "\u2581Jonah": 4248,
  "\u2581Likewise": 4249,
  "\u2581School": 4250,
  "\u2581gaji": 4251,
  "\u2581illustrate": 4252,
  "\u2581k\u00f5guna": 4253,
  "\u2581p": 4254,
  "\u2581subjects": 4255,
  "\u2581worse": 4256,
  "\u2581za\u0253e": 4257,
  "Turanci": 4258,
  "\u2581Ci": 4259,
  "\u2581areas": 4260,
  "\u2581assure": 4261,
  "\u2581hau": 4262,
  "\u2581manne": 4263,
  "\u2581Babba": 4264,
  "\u2581More": 4265,
  "\u2581affected": 4266,
  "\u2581breasts": 4267,
  "\u2581disobey": 4268,
  "\u2581hagu": 4269,
  "\u2581harshe": 4270,
  "\u2581hundred": 4271,
  "\u2581invoke": 4272,
  "\u2581koyon": 4273,
  "\u2581leaves": 4274,
  "\u2581mouth": 4275,
  "\u2581pattern": 4276,
  "\u2581text": 4277,
  "\u2581yare": 4278,
  "ira": 4279,
  "\u2581Bauta": 4280,
  "\u2581Rome": 4281,
  "\u2581countries": 4282,
  "\u2581rewarded": 4283,
  "\u2581ro\u0199on": 4284,
  "\u2581transgressors": 4285,
  "\u2581zubar": 4286,
  "m\u00e3su": 4287,
  "saying": 4288,
  "\u2581Nassosin": 4289,
  "\u2581Titus": 4290,
  "\u2581amf\u00e3ni": 4291,
  "\u2581ascribe": 4292,
  "\u2581removed": 4293,
  "\u2581woe": 4294,
  "\u2581\u0257iyan": 4295,
  "\u2581Allahnmu": 4296,
  "\u2581Isa": 4297,
  "\u2581Mohammed": 4298,
  "\u2581advance": 4299,
  "\u2581ambatacce": 4300,
  "\u2581assuredly": 4301,
  "\u2581attended": 4302,
  "\u2581burge": 4303,
  "\u2581business": 4304,
  "\u2581engage": 4305,
  "\u2581gab\u00e3ninsa": 4306,
  "\u2581gidansa": 4307,
  "\u2581grievous": 4308,
  "\u2581masani": 4309,
  "\u2581sana": 4310,
  "\u2581tender": 4311,
  "\u2581Mikah": 4312,
  "\u2581background": 4313,
  "\u2581baki": 4314,
  "\u2581church": 4315,
  "\u2581drowned": 4316,
  "\u2581immoral": 4317,
  "\u2581kowacce": 4318,
  "\u2581maraice": 4319,
  "\u2581outstanding": 4320,
  "\u2581type": 4321,
  "\u2581\u0199are": 4322,
  "An": 4323,
  "\u258133)": 4324,
  "\u2581Over": 4325,
  "\u2581Upon": 4326,
  "\u2581Wuta": 4327,
  "\u2581appoint": 4328,
  "\u2581bijir\u1ebdwa": 4329,
  "\u2581covered": 4330,
  "\u2581extreme": 4331,
  "\u2581f\u00e3\u0257i": 4332,
  "\u2581helpful": 4333,
  "\u2581invite": 4334,
  "\u2581issues": 4335,
  "\u2581main": 4336,
  "\u2581meal": 4337,
  "\u2581mujallar": 4338,
  "\u2581questioned": 4339,
  "\u2581room": 4340,
  "\u2581teacher": 4341,
  "4:": 4342,
  "w": 4343,
  "\u2581100": 4344,
  "\u2581Colossians": 4345,
  "\u2581Learn": 4346,
  "\u2581batu": 4347,
  "\u2581continues": 4348,
  "\u2581divided": 4349,
  "\u2581invitation": 4350,
  "\u2581listened": 4351,
  "\u2581wajabta": 4352,
  "\u2581warm": 4353,
  "\u2581z\u00e3luntar": 4354,
  "ramu": 4355,
  "wanda": 4356,
  "\u2581Land": 4357,
  "\u2581dealings": 4358,
  "\u2581g\u0169rin": 4359,
  "\u2581nasu": 4360,
  "\u2581perceive": 4361,
  "\u2581sadaka": 4362,
  "\u2581shine": 4363,
  "\u2581tsirar": 4364,
  "\u2581fili": 4365,
  "\u2581j\u0129": 4366,
  "\u2581miracles": 4367,
  "\u2581mothers": 4368,
  "\u2581moving": 4369,
  "\u2581muguwar": 4370,
  "\u2581nutsar": 4371,
  "\u2581rayuwata": 4372,
  "\u2581silver": 4373,
  "\u2581Ahab": 4374,
  "\u2581Imagine": 4375,
  "\u2581circuit": 4376,
  "\u2581displayed": 4377,
  "\u2581forefathers": 4378,
  "\u2581identify": 4379,
  "\u2581mafaka": 4380,
  "\u2581particular": 4381,
  "\u2581retribution": 4382,
  "\u2581\u0199ungiyarsa": 4383,
  "\u25812012": 4384,
  "\u258151": 4385,
  "\u2581Help": 4386,
  "\u2581advantage": 4387,
  "\u2581eight": 4388,
  "\u2581entertainment": 4389,
  "\u2581million": 4390,
  "\u2581reveals": 4391,
  "d\u00f5min": 4392,
  "\u02b9": 4393,
  "\u2581Iyaye": 4394,
  "\u2581contrary": 4395,
  "\u2581correct": 4396,
  "\u2581liar": 4397,
  "\u2581manzanninsa": 4398,
  "\u2581report": 4399,
  "\u258146": 4400,
  "\u2581Ki": 4401,
  "\u2581befall": 4402,
  "\u2581clouds": 4403,
  "\u2581convey": 4404,
  "\u2581determination": 4405,
  "\u2581grain": 4406,
  "\u2581humbly": 4407,
  "\u2581hure": 4408,
  "\u2581kindly": 4409,
  "\u2581laifin": 4410,
  "\u2581mak\u00f5mar": 4411,
  "\u2581ri\u0199on": 4412,
  "\u2581studies": 4413,
  "\u2581viewed": 4414,
  "\u2581witnessing": 4415,
  "\u2581Note": 4416,
  "\u2581Pet": 4417,
  "\u2581gunduma": 4418,
  "\u2581haihuwa": 4419,
  "\u2581kwanakin": 4420,
  "\u2581madaidaici": 4421,
  "\u2581misalan": 4422,
  "\u2581muminai": 4423,
  "\u2581political": 4424,
  "\u2581search": 4425,
  "\u2581secular": 4426,
  "\u2581tears": 4427,
  "\u2581values": 4428,
  "nka": 4429,
  "\u25812013": 4430,
  "\u2581Hidima": 4431,
  "\u2581accord": 4432,
  "\u2581jerin": 4433,
  "\u2581kar\u00e3tun": 4434,
  "\u2581mutuwarsa": 4435,
  "\u2581nagari": 4436,
  "\u2581oath": 4437,
  "\u2581ru": 4438,
  "\u2581strike": 4439,
  "Did": 4440,
  "For": 4441,
  "\u258130)": 4442,
  "\u2581annabin": 4443,
  "\u2581armies": 4444,
  "\u2581awaits": 4445,
  "\u2581basic": 4446,
  "\u2581birni": 4447,
  "\u2581gunaguni": 4448,
  "\u2581jikin": 4449,
  "\u2581kwatanci": 4450,
  "\u2581principle": 4451,
  "\u2581ro\u0199o": 4452,
  "\u2581superior": 4453,
  "\u2581t\u00e3shi": 4454,
  "Go": 4455,
  "No": 4456,
  "so": 4457,
  "\u2581Know": 4458,
  "\u2581alfarma": 4459,
  "\u2581commandment": 4460,
  "\u2581determine": 4461,
  "\u2581gafara": 4462,
  "\u2581l": 4463,
  "\u2581meditate": 4464,
  "\u2581treasures": 4465,
  "\u2581tsayuwa": 4466,
  "\u2581t\u00e3rayya": 4467,
  "Is": 4468,
  "ddu": 4469,
  "quite": 4470,
  "sun\u00e3": 4471,
  "\u00e3gu": 4472,
  "\u2581Galatiyawa": 4473,
  "\u2581IN": 4474,
  "\u2581Kula": 4475,
  "\u2581carrying": 4476,
  "\u2581eating": 4477,
  "\u2581encounter": 4478,
  "\u2581energy": 4479,
  "\u2581eternal": 4480,
  "\u2581evildoers": 4481,
  "\u2581g\u00f5naki": 4482,
  "\u2581manya": 4483,
  "\u2581poverty": 4484,
  "\u2581shekarar": 4485,
  "\u2581stones": 4486,
  "\u2581tabbatacce": 4487,
  "\u2581testimony": 4488,
  "\u2581train": 4489,
  "\u2581trained": 4490,
  "\u2581\u0257okin": 4491,
  "%": 4492,
  "\u258149": 4493,
  "\u2581Christendom": 4494,
  "\u2581Hezekiah": 4495,
  "\u2581constantly": 4496,
  "\u2581dabb\u00f5bin": 4497,
  "\u2581describe": 4498,
  "\u2581easily": 4499,
  "\u2581mushirikai": 4500,
  "\u2581occur": 4501,
  "\u2581resolve": 4502,
  "\u2581struggle": 4503,
  "\u2581ubanninsu": 4504,
  "\u2581wilt": 4505,
  "Ga": 4506,
  "\u258118]": 4507,
  "\u25812010": 4508,
  "\u2581Makaranta": 4509,
  "\u2581S\u00e3": 4510,
  "\u2581afflicted": 4511,
  "\u2581dab\u0129no": 4512,
  "\u2581forbid": 4513,
  "\u2581goy": 4514,
  "\u2581his\u00e3bi": 4515,
  "\u2581instruction": 4516,
  "\u2581miliyan": 4517,
  "\u2581testify": 4518,
  "Keep": 4519,
  "\u258130,": 4520,
  "\u2581BIBLE": 4521,
  "\u2581Wanene": 4522,
  "\u2581animal": 4523,
  "\u2581azurfa": 4524,
  "\u2581bambanci": 4525,
  "\u2581expressions": 4526,
  "\u2581forces": 4527,
  "\u2581generation": 4528,
  "\u2581jinkirta": 4529,
  "\u2581z\u00f5": 4530,
  "\u2581\u0253\u00f5y\u1ebdwa": 4531,
  "day": 4532,
  "usually": 4533,
  "\u2581Message": 4534,
  "\u2581Nisan": 4535,
  "\u2581Under": 4536,
  "\u2581amintattu": 4537,
  "\u2581begotten": 4538,
  "\u2581expected": 4539,
  "\u2581gid\u00e3je": 4540,
  "\u2581hosts": 4541,
  "\u2581kwamfyutan": 4542,
  "\u2581mildness": 4543,
  "\u2581tongues": 4544,
  "\u2581twain": 4545,
  "\u2581zancen": 4546,
  "za": 4547,
  "\u2581Her": 4548,
  "\u2581Sanin": 4549,
  "\u2581aikinmu": 4550,
  "\u2581calamity": 4551,
  "\u2581closely": 4552,
  "\u2581connection": 4553,
  "\u2581cuta": 4554,
  "\u2581disease": 4555,
  "\u2581evidently": 4556,
  "\u2581fa\u0257ake": 4557,
  "\u2581reply": 4558,
  "\u2581screen": 4559,
  "Have": 4560,
  "\u258135)": 4561,
  "\u2581ainihi": 4562,
  "\u2581formed": 4563,
  "\u2581kar\u0253": 4564,
  "\u2581wickedness": 4565,
  "\u2581writing": 4566,
  "ji": 4567,
  "\u2581Koya": 4568,
  "\u2581ayyukansa": 4569,
  "\u2581big": 4570,
  "\u2581dokoki": 4571,
  "\u2581iyaka": 4572,
  "\u2581l\u00e3b\u00e3rin": 4573,
  "\u2581proofs": 4574,
  "\u2581render": 4575,
  "\u2581unaware": 4576,
  "\u2581\"\"": 4577,
  "\u2581BE": 4578,
  "\u2581Behold": 4579,
  "\u2581Rai": 4580,
  "\u2581St": 4581,
  "\u2581Zan": 4582,
  "\u2581ayyukanku": 4583,
  "\u2581fitowa": 4584,
  "\u2581iyalinmu": 4585,
  "\u2581iyar": 4586,
  "\u2581low": 4587,
  "\u2581matsa": 4588,
  "\u2581obeyed": 4589,
  "\u2581paid": 4590,
  "\u2581partner": 4591,
  "\u2581tsawo": 4592,
  "\u2581wak\u0129li": 4593,
  "\u2581wurinsu": 4594,
  "one": 4595,
  "\u2581Kuwa": 4596,
  "\u2581Sovereign": 4597,
  "\u2581furucin": 4598,
  "\u2581idea": 4599,
  "\u2581lahani": 4600,
  "\u2581shuka": 4601,
  "\u2581Farin": 4602,
  "\u2581Gal": 4603,
  "\u2581Mal": 4604,
  "\u2581Saratu": 4605,
  "\u2581defend": 4606,
  "\u2581deliverance": 4607,
  "\u2581gushe": 4608,
  "\u2581miy": 4609,
  "\u2581notice": 4610,
  "\u2581price": 4611,
  "\u2581privileges": 4612,
  "\u2581t": 4613,
  "\u2581taur\u00e3ri": 4614,
  "\u2581trouble": 4615,
  "Fit": 4616,
  "Then": 4617,
  "\u2581Darussa": 4618,
  "\u2581K\u00e3": 4619,
  "\u2581Mini": 4620,
  "\u2581add": 4621,
  "\u2581adds": 4622,
  "\u2581bone": 4623,
  "\u2581disgrace": 4624,
  "\u2581f\u00e3tan": 4625,
  "\u2581indicate": 4626,
  "\u2581joyful": 4627,
  "\u2581miliyoyin": 4628,
  "\u2581minister": 4629,
  "\u2581munana": 4630,
  "\u2581m\u00e3m\u00e3ki": 4631,
  "\u2581reality": 4632,
  "\u2581ruler": 4633,
  "\u2581unique": 4634,
  "\u2581\u0199ananan": 4635,
  "\u2581Dattawa": 4636,
  "\u2581bestow": 4637,
  "\u2581bijire": 4638,
  "\u2581busy": 4639,
  "\u2581commission": 4640,
  "\u2581communication": 4641,
  "\u2581essential": 4642,
  "\u2581generous": 4643,
  "\u2581late": 4644,
  "\u2581marubucin": 4645,
  "\u2581re": 4646,
  "\u2581remains": 4647,
  "\u2581striving": 4648,
  "\u2581\u0199o\u0199arce": 4649,
  "D": 4650,
  "ting": 4651,
  "uwanka": 4652,
  "\u2581Abu": 4653,
  "\u2581Beneficent": 4654,
  "\u2581Bi": 4655,
  "\u2581Thy": 4656,
  "\u2581amount": 4657,
  "\u2581box": 4658,
  "\u2581fage": 4659,
  "\u2581kuranye": 4660,
  "\u2581mazauni": 4661,
  "\u2581occurred": 4662,
  "\u2581yanki": 4663,
  "his": 4664,
  "\u2581Fear": 4665,
  "\u2581adultery": 4666,
  "\u2581burning": 4667,
  "\u2581eager": 4668,
  "\u2581honest": 4669,
  "\u2581sulhu": 4670,
  "\u2581zinariya": 4671,
  "\u2581zuciyata": 4672,
  "Your": 4673,
  "\u2581Furthermore": 4674,
  "\u2581Isha\u0199u": 4675,
  "\u2581Shekaru": 4676,
  "\u2581alhini": 4677,
  "\u2581dindindin": 4678,
  "\u2581doth": 4679,
  "\u2581duffai": 4680,
  "\u2581indicated": 4681,
  "\u2581mut\u00e3n\u1ebdna": 4682,
  "\u2581refer": 4683,
  "\u2581relates": 4684,
  "\u2581r\u00e3yukanku": 4685,
  "\u2581Laba": 4686,
  "\u2581bondmen": 4687,
  "\u2581cikakkiya": 4688,
  "\u2581farat": 4689,
  "\u2581favors": 4690,
  "\u2581freely": 4691,
  "\u2581ignorant": 4692,
  "\u2581improve": 4693,
  "\u2581mischief": 4694,
  "\u2581risk": 4695,
  "\u2581stone": 4696,
  "\u2581taso": 4697,
  "\u2581vast": 4698,
  "\u2581violent": 4699,
  "\u2581ware": 4700,
  "\u2581zuci": 4701,
  "Mosaic": 4702,
  "ers": 4703,
  "mighty": 4704,
  "nci": 4705,
  "ww": 4706,
  "\u2581Hearing": 4707,
  "\u2581Here": 4708,
  "\u2581Nathan": 4709,
  "\u2581abandon": 4710,
  "\u2581address": 4711,
  "\u2581application": 4712,
  "\u2581earn": 4713,
  "\u2581evidences": 4714,
  "\u2581flee": 4715,
  "\u2581fought": 4716,
  "\u2581gayyatar": 4717,
  "\u2581makiyayi": 4718,
  "\u2581miles": 4719,
  "\u2581min": 4720,
  "\u2581settled": 4721,
  "\u2581travel": 4722,
  "\u2581widow": 4723,
  "great": 4724,
  "\u2581(3)": 4725,
  "\u258115]": 4726,
  "\u2581LMT": 4727,
  "\u2581OF": 4728,
  "\u2581Tas": 4729,
  "\u2581aspect": 4730,
  "\u2581balance": 4731,
  "\u2581dayawa": 4732,
  "\u2581discern": 4733,
  "\u2581furci": 4734,
  "\u2581ruling": 4735,
  "\u2581ships": 4736,
  "\u2581tribes": 4737,
  "\u2581tsamm\u00e3ni": 4738,
  "\u2581\u0129ko": 4739,
  "who": 4740,
  "\u2581Ce": 4741,
  "\u2581YA": 4742,
  "\u2581ceton": 4743,
  "\u2581dealing": 4744,
  "\u2581disobedient": 4745,
  "\u2581hannunsa": 4746,
  "\u2581program": 4747,
  "\u2581recent": 4748,
  "\u2581recognized": 4749,
  "\u2581saur\u00e3re": 4750,
  "\u2581sides": 4751,
  "\u2581taru": 4752,
  "\u2581\u0199azanta": 4753,
  "\u2581145": 4754,
  "\u2581Christianity": 4755,
  "\u2581Mar": 4756,
  "\u2581anxiety": 4757,
  "\u2581halinmu": 4758,
  "\u2581helpers": 4759,
  "\u2581leaving": 4760,
  "\u2581nufe": 4761,
  "\u2581orphans": 4762,
  "\u2581particularly": 4763,
  "\u2581pleasing": 4764,
  "\u2581rebellious": 4765,
  "\u2581repentant": 4766,
  "\u2581requirements": 4767,
  "\u2581sorrow": 4768,
  "\u2581treated": 4769,
  "\u2581Isha": 4770,
  "\u2581abokansa": 4771,
  "\u2581accomplished": 4772,
  "\u2581bangaskiyar": 4773,
  "\u2581dutse": 4774,
  "\u2581favours": 4775,
  "\u2581glorious": 4776,
  "\u2581quit": 4777,
  "\u2581rayuwarka": 4778,
  "\u2581sh\u1ebdkara": 4779,
  "\u2581za\u0253an": 4780,
  "Are": 4781,
  "B": 4782,
  "\u2581Baal": 4783,
  "\u2581War": 4784,
  "\u2581cares": 4785,
  "\u2581corrupt": 4786,
  "\u2581gid\u00e3jensu": 4787,
  "\u2581gratitude": 4788,
  "\u2581horar": 4789,
  "\u2581mani": 4790,
  "\u2581promote": 4791,
  "\u2581shirka": 4792,
  "\u2581utter": 4793,
  "Ayyukan": 4794,
  "\u2581describes": 4795,
  "\u2581disobedience": 4796,
  "\u2581dream": 4797,
  "\u2581judgement": 4798,
  "\u2581kowannenmu": 4799,
  "\u2581obtain": 4800,
  "\u2581powers": 4801,
  "\u2581relations": 4802,
  "\u2581riya": 4803,
  "\u2581s\u00e3shenku": 4804,
  "\u2581zartar": 4805,
  "ane": 4806,
  "sabili": 4807,
  "\u2581Again": 4808,
  "\u2581Evil": 4809,
  "\u2581Hav": 4810,
  "\u2581Israelite": 4811,
  "\u2581Kasance": 4812,
  "\u2581Lallai": 4813,
  "\u2581Messianic": 4814,
  "\u2581Prophets": 4815,
  "\u2581applying": 4816,
  "\u2581cursed": 4817,
  "\u2581feared": 4818,
  "\u2581hani": 4819,
  "\u2581mature": 4820,
  "\u2581performed": 4821,
  "\u2581restore": 4822,
  "\u2581salon": 4823,
  "\u2581supported": 4824,
  "\u2581wasan": 4825,
  "\u2581worth": 4826,
  "\u2581zalunci": 4827,
  "\u2581\u0199as\u0199antar": 4828,
  "gare": 4829,
  "nSa": 4830,
  "they": 4831,
  "\u2581Naomi": 4832,
  "\u2581azabta": 4833,
  "\u2581difference": 4834,
  "\u2581exchange": 4835,
  "\u2581exists": 4836,
  "\u2581fallen": 4837,
  "\u2581gabansa": 4838,
  "\u2581involve": 4839,
  "\u2581u\u0199\u0169ba": 4840,
  "By": 4841,
  "la": 4842,
  "\u258134.": 4843,
  "\u2581Fitowa": 4844,
  "\u2581La": 4845,
  "\u2581applied": 4846,
  "\u2581chief": 4847,
  "\u2581contact": 4848,
  "\u2581darajar": 4849,
  "\u2581finally": 4850,
  "\u2581gudanar": 4851,
  "\u2581m\u0169n\u00e3na": 4852,
  "\u2581numerous": 4853,
  "\u2581protector": 4854,
  "\u2581remind": 4855,
  "\u2581\u0257aure": 4856,
  "*": 4857,
  "men": 4858,
  "ought": 4859,
  "\u258128:": 4860,
  "\u2581Deuteronomy": 4861,
  "\u2581Family": 4862,
  "\u2581NAZARI": 4863,
  "\u2581Pentecost": 4864,
  "\u2581considering": 4865,
  "\u2581drinking": 4866,
  "\u2581menu": 4867,
  "\u2581relate": 4868,
  "\u2581r\u0169\u0257": 4869,
  "\u2581shepherds": 4870,
  "\u2581tun\u00e3tar": 4871,
  "\u2581tur\u0253\u00e3ya": 4872,
  "\u2581\u0198aunar": 4873,
  "cikin": 4874,
  "ion": 4875,
  "\u00c3": 4876,
  "\u2581Bon": 4877,
  "\u2581Labarbaru": 4878,
  "\u2581Rev": 4879,
  "\u2581assurance": 4880,
  "\u2581devoted": 4881,
  "\u2581g\u00e3d": 4882,
  "\u2581inclined": 4883,
  "\u2581jawabin": 4884,
  "\u2581rulership": 4885,
  "\u2581shaidu": 4886,
  "\u2581slay": 4887,
  "\u2581stronger": 4888,
  "\u2581wul\u00e3kanci": 4889,
  "\u2581zunubansu": 4890,
  "\u2581\u0199as\u0199antattu": 4891,
  "N\u0129": 4892,
  "Ya\u0199ub": 4893,
  "\u2581Labarin": 4894,
  "\u2581bound": 4895,
  "\u2581cases": 4896,
  "\u2581halarta": 4897,
  "\u2581ha\u0199i\u0199a": 4898,
  "\u2581outcome": 4899,
  "\u2581tukuna": 4900,
  "\u2581zuk\u00e3tan": 4901,
  "\u2581zurfi": 4902,
  "Sab\u00f5da": 4903,
  "yyace": 4904,
  "\u2581Akasi": 4905,
  "\u2581GA": 4906,
  "\u2581Hoton": 4907,
  "\u2581Martha": 4908,
  "\u2581beneficial": 4909,
  "\u2581communications": 4910,
  "\u2581de": 4911,
  "\u2581hanu": 4912,
  "\u2581kifi": 4913,
  "\u2581mak\u00e3ho": 4914,
  "\u2581nace": 4915,
  "\u2581nawa": 4916,
  "\u2581sassaukar": 4917,
  "\u2581t\u00e3yarwa": 4918,
  "\u2581wilderness": 4919,
  "kalli": 4920,
  "\u2581WHAT": 4921,
  "\u2581Yunana": 4922,
  "\u2581ark": 4923,
  "\u2581c": 4924,
  "\u2581comments": 4925,
  "\u2581dattawan": 4926,
  "\u2581discussion": 4927,
  "\u2581facing": 4928,
  "\u2581gatar": 4929,
  "\u2581gid\u00e3jenku": 4930,
  "\u2581instructions": 4931,
  "\u2581jituwa": 4932,
  "\u2581motivate": 4933,
  "\u2581tanadi": 4934,
  "\u2581wasi\u0199ar": 4935,
  "\u2581yabon": 4936,
  "\u2581yes": 4937,
  "\u2581zuwan": 4938,
  "\u2581\u0199arfafawa": 4939,
  "Fitowa": 4940,
  "\u2581Kuna": 4941,
  "\u2581Nehemiya": 4942,
  "\u2581Promised": 4943,
  "\u2581alike": 4944,
  "\u2581emotional": 4945,
  "\u2581letters": 4946,
  "\u2581matan": 4947,
  "\u2581persecuted": 4948,
  "\u2581providing": 4949,
  "\u2581remaining": 4950,
  "\u2581reshe": 4951,
  "\u2581stood": 4952,
  "\u2581twice": 4953,
  "\u00f5": 4954,
  "\u2581Nazari": 4955,
  "\u2581Ye": 4956,
  "\u2581affliction": 4957,
  "\u2581alkawuran": 4958,
  "\u2581awake": 4959,
  "\u2581batsa": 4960,
  "\u2581conclude": 4961,
  "\u2581gamsuwa": 4962,
  "\u2581g\u00f5ma": 4963,
  "\u2581hakika": 4964,
  "\u2581hasken": 4965,
  "\u2581jayayya": 4966,
  "\u2581jirgi": 4967,
  "\u2581kw\u00e3na": 4968,
  "\u2581likeness": 4969,
  "\u2581littattafanmu": 4970,
  "\u2581maimaita": 4971,
  "\u2581rendered": 4972,
  "\u2581\u0199aru": 4973,
  "KA": 4974,
  "Ko": 4975,
  "idar": 4976,
  "ve": 4977,
  "wani": 4978,
  "\u2581Shekara": 4979,
  "\u2581]": 4980,
  "\u2581arise": 4981,
  "\u2581demons": 4982,
  "\u2581f\u0129f\u0129ta": 4983,
  "\u2581hadayu": 4984,
  "\u2581s\u00e3\u0253\u00e3wa": 4985,
  "\u2581zumunci": 4986,
  "\u2581\u0253\u00e3ci": 4987,
  "\u258144.": 4988,
  "\u2581Josiah": 4989,
  "\u2581Prayer": 4990,
  "\u2581barranta": 4991,
  "\u2581courageous": 4992,
  "\u2581gwaje": 4993,
  "\u2581g\u1ebdfen": 4994,
  "\u2581major": 4995,
  "\u2581matsayinsa": 4996,
  "\u2581reminders": 4997,
  "\u2581sadaukarwa": 4998,
  "\u2581shafa": 4999,
  "\u2581uban": 5000,
  "\u258137:": 5001,
  "\u2581Exodus": 5002,
  "\u2581JEHOVAH": 5003,
  "\u2581Jephthah": 5004,
  "\u2581Shall": 5005,
  "\u2581compared": 5006,
  "\u2581content": 5007,
  "\u2581extend": 5008,
  "\u2581gamuwa": 5009,
  "\u2581kwance": 5010,
  "\u2581ordered": 5011,
  "\u2581sending": 5012,
  "\u2581terms": 5013,
  "\u2581zargin": 5014,
  "Kamar": 5015,
  "\u2581II": 5016,
  "\u2581Kiristocin": 5017,
  "\u2581Lutu": 5018,
  "\u2581Matasa": 5019,
  "\u2581Matiyu": 5020,
  "\u2581Mulkinsa": 5021,
  "\u2581assistance": 5022,
  "\u2581file": 5023,
  "\u2581mistakes": 5024,
  "\u2581openly": 5025,
  "\u2581represent": 5026,
  "\u2581shugabannin": 5027,
  "\u2581survive": 5028,
  "\u2581wherewith": 5029,
  "\u2581\u0199oram": 5030,
  "yana": 5031,
  "\u258153": 5032,
  "\u258190": 5033,
  "\u2581Both": 5034,
  "\u2581Kake": 5035,
  "\u2581ayuka": 5036,
  "\u2581marmarin": 5037,
  "\u2581matakin": 5038,
  "\u2581shared": 5039,
  "\u2581stick": 5040,
  "\u2581sword": 5041,
  "\u2581ubanninku": 5042,
  "\u2581ungodly": 5043,
  "\u2581views": 5044,
  "\u2581virtuous": 5045,
  "\u2581zuk\u00e3tanku": 5046,
  "\u2581zunubanmu": 5047,
  "These": 5048,
  "\u2581H\u00e3r\u0169na": 5049,
  "\u2581dawn": 5050,
  "\u2581developed": 5051,
  "\u2581hikimar": 5052,
  "\u2581mara": 5053,
  "\u2581mar\u1ebdmari": 5054,
  "\u2581taimakonmu": 5055,
  "\u2581wurinMu": 5056,
  "\u258117]": 5057,
  "\u2581Sacred": 5058,
  "\u2581Thee": 5059,
  "\u2581acting": 5060,
  "\u2581charge": 5061,
  "\u2581entrusted": 5062,
  "\u2581gracious": 5063,
  "\u2581haihuwar": 5064,
  "\u2581hakanan": 5065,
  "\u2581lallai": 5066,
  "\u2581murya": 5067,
  "\u2581release": 5068,
  "\u2581studied": 5069,
  "\u2581talking": 5070,
  "llafa": 5071,
  "\u2581Am": 5072,
  "\u2581Rahab": 5073,
  "\u2581Ya\u0199in": 5074,
  "\u2581Zama": 5075,
  "\u2581bangaskiyarsu": 5076,
  "\u2581d\u0169tse": 5077,
  "\u2581garments": 5078,
  "\u2581idolaters": 5079,
  "\u2581k\u00f5m\u00e3wa": 5080,
  "\u2581sickness": 5081,
  "\u2581s\u00f5yayya": 5082,
  "\u2581translated": 5083,
  "\u2581winds": 5084,
  "Galatiyawa": 5085,
  "His": 5086,
  "\u0129": 5087,
  "\u2581Ainihi": 5088,
  "\u2581Clear": 5089,
  "\u2581Robert": 5090,
  "\u2581Uban": 5091,
  "\u2581appeal": 5092,
  "\u2581approached": 5093,
  "\u2581detail": 5094,
  "\u2581endeavor": 5095,
  "\u2581f\u00e3ra": 5096,
  "\u2581iyalai": 5097,
  "\u2581karant\u00e3wa": 5098,
  "\u2581matu\u0199a": 5099,
  "\u2581missionaries": 5100,
  "\u2581submission": 5101,
  "\u2581waters": 5102,
  "\u2581worst": 5103,
  ")?\"": 5104,
  "Gal": 5105,
  "idodi": 5106,
  "shin": 5107,
  "\u2581Master": 5108,
  "\u2581V": 5109,
  "\u2581focused": 5110,
  "\u2581gine": 5111,
  "\u2581growing": 5112,
  "\u2581hankalinmu": 5113,
  "\u2581ha\u0257e": 5114,
  "\u2581km": 5115,
  "\u2581lafiyar": 5116,
  "\u2581moment": 5117,
  "\u2581perish": 5118,
  "\u2581righteously": 5119,
  "\u2581r\u00e3ya": 5120,
  "\u2581spirituality": 5121,
  "\u2581tsunts\u00e3ye": 5122,
  "\u2581welcome": 5123,
  "Ayuba": 5124,
  "\u2581Glory": 5125,
  "\u2581Hosea": 5126,
  "\u2581Joel": 5127,
  "\u2581Once": 5128,
  "\u2581Russell": 5129,
  "\u2581ayyukanmu": 5130,
  "\u2581belie": 5131,
  "\u2581concerns": 5132,
  "\u2581count": 5133,
  "\u2581gini": 5134,
  "\u2581magazine": 5135,
  "\u2581profit": 5136,
  "\u2581reference": 5137,
  "\u2581rinj\u00e3ya": 5138,
  "\u2581younger": 5139,
  "\u2581zafi": 5140,
  "\u2581\u0257anka": 5141,
  "dar": 5142,
  "either": 5143,
  "\u2581Absalom": 5144,
  "\u2581Galatians": 5145,
  "\u2581Kyau": 5146,
  "\u2581Nabal": 5147,
  "\u2581Oneness": 5148,
  "\u2581YI": 5149,
  "\u2581assembly": 5150,
  "\u2581broke": 5151,
  "\u2581delay": 5152,
  "\u2581mis\u00e3linsa": 5153,
  "\u2581nema": 5154,
  "\u2581penalty": 5155,
  "\u2581purify": 5156,
  "\u2581renon": 5157,
  "\u2581sassa": 5158,
  "\u2581selfish": 5159,
  "\u2581sex": 5160,
  "\u2581slain": 5161,
  "\u2581worshipping": 5162,
  "\u2581\u0257ayansu": 5163,
  "dukan": 5164,
  "ous": 5165,
  "\u2581Ranar": 5166,
  "\u2581Sad": 5167,
  "\u2581YOU": 5168,
  "\u2581akan": 5169,
  "\u2581bodies": 5170,
  "\u2581calf": 5171,
  "\u2581details": 5172,
  "\u2581dogo": 5173,
  "\u2581dwellers": 5174,
  "\u2581endured": 5175,
  "\u2581exposed": 5176,
  "\u2581faithfulness": 5177,
  "\u2581itace": 5178,
  "\u2581m\u00e3ta": 5179,
  "\u2581naka": 5180,
  "\u2581primary": 5181,
  "\u2581qualified": 5182,
  "\u2581sets": 5183,
  "\u2581therewith": 5184,
  "\u2581windows": 5185,
  "\u258123:": 5186,
  "\u258139.": 5187,
  "\u2581Able": 5188,
  "\u2581Ayuka": 5189,
  "\u2581Japan": 5190,
  "\u2581angry": 5191,
  "\u2581await": 5192,
  "\u2581boiling": 5193,
  "\u2581cloud": 5194,
  "\u2581conventions": 5195,
  "\u2581creature": 5196,
  "\u2581haifa": 5197,
  "\u2581halinsa": 5198,
  "\u2581illness": 5199,
  "\u2581kisan": 5200,
  "\u2581kyakkyawan": 5201,
  "\u2581k\u1ebdwaye": 5202,
  "\u2581piety": 5203,
  "\u2581scripture": 5204,
  "\u2581strengthening": 5205,
  "\u2581tsakiyar": 5206,
  "\u2581weakness": 5207,
  "\u2581wurinSa": 5208,
  "\u2581\u0199aunarsu": 5209,
  "K\u00f5": 5210,
  "se": 5211,
  "\u2581Arabic": 5212,
  "\u2581Mala": 5213,
  "\u2581appearance": 5214,
  "\u2581decades": 5215,
  "\u2581gareni": 5216,
  "\u2581kurame": 5217,
  "\u2581maz": 5218,
  "\u2581m\u0129\u0199a": 5219,
  "\u2581seize": 5220,
  "\u2581sh\u0169ka": 5221,
  "\u2581tufafi": 5222,
  "\u2581\u0199aho": 5223,
  "against": 5224,
  "kare": 5225,
  "\u258110]": 5226,
  "\u258166": 5227,
  "\u2581ABIN": 5228,
  "\u2581Aiki": 5229,
  "\u2581Everlasting": 5230,
  "\u2581None": 5231,
  "\u2581court": 5232,
  "\u2581enjoin": 5233,
  "\u2581feels": 5234,
  "\u2581judges": 5235,
  "\u2581mas\u00f5yi": 5236,
  "\u2581ro\u0199e": 5237,
  "\u2581tsammanin": 5238,
  "\u2581valley": 5239,
  "\u2581zance": 5240,
  "\u2581\u0199aulin": 5241,
  "Mar": 5242,
  "f": 5243,
  "\u2581Aminci": 5244,
  "\u2581Enoch": 5245,
  "\u2581Haruna": 5246,
  "\u2581Kings": 5247,
  "\u2581allows": 5248,
  "\u2581ayoyi": 5249,
  "\u2581fixed": 5250,
  "\u2581hannuwansu": 5251,
  "\u2581jinns": 5252,
  "\u2581juyin": 5253,
  "\u2581load": 5254,
  "\u2581muryar": 5255,
  "\u2581neighbors": 5256,
  "\u2581saur\u00e3r": 5257,
  "\u2581society": 5258,
  "\u2581sojojin": 5259,
  "\u2581tumakin": 5260,
  "Come": 5261,
  "H": 5262,
  "Markus": 5263,
  "Prophet": 5264,
  "Yahaya": 5265,
  "not": 5266,
  "\u2581Albarka": 5267,
  "\u2581Gracious": 5268,
  "\u2581Maganar": 5269,
  "\u2581Mahalicci": 5270,
  "\u2581Nas\u00e3ra": 5271,
  "\u2581Turai": 5272,
  "\u2581Two": 5273,
  "\u2581Waccan": 5274,
  "\u2581baiwa": 5275,
  "\u2581cinye": 5276,
  "\u2581dominion": 5277,
  "\u2581ear": 5278,
  "\u2581gathering": 5279,
  "\u2581gurasa": 5280,
  "\u2581l\u00e3dar": 5281,
  "\u2581rantse": 5282,
  "\u2581restored": 5283,
  "\u2581tested": 5284,
  "\u2581yankan": 5285,
  "good": 5286,
  "iya": 5287,
  "w\u00e3li": 5288,
  "\u25812009": 5289,
  "\u2581cease": 5290,
  "\u2581confront": 5291,
  "\u2581expand": 5292,
  "\u2581fitting": 5293,
  "\u2581hate": 5294,
  "\u2581ignored": 5295,
  "\u2581isashe": 5296,
  "\u2581length": 5297,
  "\u2581mar\u00e3yu": 5298,
  "\u2581pardon": 5299,
  "\u2581shed": 5300,
  "\u2581talifofin": 5301,
  "\u2581unjustly": 5302,
  "\u2581zunubai": 5303,
  "inmu": 5304,
  "people": 5305,
  "uwana": 5306,
  "\u258131,": 5307,
  "\u25815]": 5308,
  "\u2581Haggai": 5309,
  "\u2581Kasancewa": 5310,
  "\u2581Second": 5311,
  "\u2581alfahari": 5312,
  "\u2581chapters": 5313,
  "\u2581desired": 5314,
  "\u2581enduring": 5315,
  "\u2581fit": 5316,
  "\u2581forms": 5317,
  "\u2581hotunan": 5318,
  "\u2581kisa": 5319,
  "\u2581listeners": 5320,
  "\u2581non": 5321,
  "\u2581punished": 5322,
  "\u2581reaching": 5323,
  "\u2581reflected": 5324,
  "\u2581seriously": 5325,
  "\u2581tuntu\u0253e": 5326,
  "\u2581w\u00e3s\u00e3": 5327,
  "\u2581y\u00e3\u0199": 5328,
  "ance": 5329,
  "rku": 5330,
  "\u2581Musulmi": 5331,
  "\u2581Parents": 5332,
  "\u2581Sea": 5333,
  "\u2581appears": 5334,
  "\u2581authorities": 5335,
  "\u2581aza": 5336,
  "\u2581cometh": 5337,
  "\u2581deities": 5338,
  "\u2581enable": 5339,
  "\u2581garken": 5340,
  "\u2581ignore": 5341,
  "\u2581impressed": 5342,
  "\u2581masana": 5343,
  "\u2581maturity": 5344,
  "\u2581noble": 5345,
  "\u2581pursuing": 5346,
  "\u2581remnant": 5347,
  "\u2581rinjaya": 5348,
  "\u2581sinned": 5349,
  "\u2581thrown": 5350,
  "\u2581tsakaninsu": 5351,
  "\u2581ts\u00e3ge": 5352,
  "\u2581useful": 5353,
  "\u2581walked": 5354,
  "Amma": 5355,
  "ayinsa": 5356,
  "x": 5357,
  "\u25811914.": 5358,
  "\u258134)": 5359,
  "\u25817]": 5360,
  "\u2581Abigail": 5361,
  "\u2581Ever": 5362,
  "\u2581Gehenna": 5363,
  "\u2581NW": 5364,
  "\u2581amintattun": 5365,
  "\u2581differences": 5366,
  "\u2581h\u0169r": 5367,
  "\u2581inabi": 5368,
  "\u2581intended": 5369,
  "\u2581possessed": 5370,
  "\u2581rewards": 5371,
  "\u2581viewpoint": 5372,
  "\u2581\u00c3dam": 5373,
  "Zan": 5374,
  "but": 5375,
  "man": 5376,
  "\u2581Brooklyn": 5377,
  "\u2581Ezra": 5378,
  "\u2581Finally": 5379,
  "\u2581Other": 5380,
  "\u2581Students": 5381,
  "\u2581amf\u00e3n": 5382,
  "\u2581challenging": 5383,
  "\u2581conviction": 5384,
  "\u2581empty": 5385,
  "\u2581handle": 5386,
  "\u2581illustrations": 5387,
  "\u2581jaraba": 5388,
  "\u2581kangara": 5389,
  "\u2581ky\u00e3wo": 5390,
  "\u2581plans": 5391,
  "\u2581riba": 5392,
  "\u2581tagogi": 5393,
  "\u2581\u0199etare": 5394,
  "So": 5395,
  "T": 5396,
  "some": 5397,
  "\u2581Fentakos": 5398,
  "\u2581Mana": 5399,
  "\u2581M\u1ebdne": 5400,
  "\u2581Torah": 5401,
  "\u2581ancients": 5402,
  "\u2581daren": 5403,
  "\u2581discouraged": 5404,
  "\u2581exert": 5405,
  "\u2581forgives": 5406,
  "\u2581gum\u00e3ka": 5407,
  "\u2581id\u00e3nu": 5408,
  "\u2581iskar": 5409,
  "\u2581izinin": 5410,
  "\u2581jeji": 5411,
  "\u2581ma\u0199iya": 5412,
  "\u2581muhimman": 5413,
  "\u2581palm": 5414,
  "\u2581preced": 5415,
  "\u2581prescribed": 5416,
  "\u2581ts\u1ebdre": 5417,
  "\u2581t\u00e3r\u00e3wa": 5418,
  "\u2581waninSa": 5419,
  "ation": 5420,
  "ri": 5421,
  "\u258161": 5422,
  "\u2581Hakanan": 5423,
  "\u2581Its": 5424,
  "\u2581W\u00e3n": 5425,
  "\u2581attribute": 5426,
  "\u2581constant": 5427,
  "\u2581dangerous": 5428,
  "\u2581daraj\u00f5ji": 5429,
  "\u2581gates": 5430,
  "\u2581hannuwanku": 5431,
  "\u2581matarka": 5432,
  "\u2581mates": 5433,
  "\u2581mild": 5434,
  "\u2581muni": 5435,
  "\u2581ridicule": 5436,
  "\u2581sunayen": 5437,
  "\u2581trusted": 5438,
  "\u2581wadata": 5439,
  "\u2581workspace": 5440,
  "\u2581wur\u00e3ren": 5441,
  "\u2581zuk\u00e3ta": 5442,
  "\u2581\u0199y\u00e3ma": 5443,
  "amarinsu": 5444,
  "h\u00e3\u0199a": 5445,
  "li": 5446,
  "\u0199ila": 5447,
  "\u2581Shaitan": 5448,
  "\u2581afflict": 5449,
  "\u2581beast": 5450,
  "\u2581double": 5451,
  "\u2581fusk\u00f5kinsu": 5452,
  "\u2581ignorance": 5453,
  "\u2581indicates": 5454,
  "\u2581kir\u00e3y": 5455,
  "\u2581mine": 5456,
  "\u2581modest": 5457,
  "\u2581r\u00e3yarwa": 5458,
  "\u2581store": 5459,
  "\u2581\u0257auko": 5460,
  "\u2581Afis": 5461,
  "\u2581Brazil": 5462,
  "\u2581acknowledge": 5463,
  "\u2581almajirantarwa": 5464,
  "\u2581baicinSa": 5465,
  "\u2581bitter": 5466,
  "\u2581dangi": 5467,
  "\u2581demonstrated": 5468,
  "\u2581driven": 5469,
  "\u2581exactly": 5470,
  "\u2581fa\u0257a\u0257a": 5471,
  "\u2581females": 5472,
  "\u2581firgita": 5473,
  "\u2581grave": 5474,
  "\u2581hannayensu": 5475,
  "\u2581host": 5476,
  "\u2581l\u00e3bari": 5477,
  "\u2581m\u00e3tanku": 5478,
  "\u2581nasaba": 5479,
  "\u2581opposers": 5480,
  "\u2581regret": 5481,
  "\u2581rejoicing": 5482,
  "\u2581rulers": 5483,
  "\u2581threw": 5484,
  "\u2581tsak\u00e3ninmu": 5485,
  "\u2581tunku\u0257e": 5486,
  "\u2581wakilta": 5487,
  "Shall": 5488,
  "Ya\u0199": 5489,
  "il": 5490,
  "nu": 5491,
  "\u2581M\u0169sa": 5492,
  "\u2581Tassalunikawa": 5493,
  "\u2581abandoned": 5494,
  "\u2581abokiyar": 5495,
  "\u2581altar": 5496,
  "\u2581canji": 5497,
  "\u2581despair": 5498,
  "\u2581fitin": 5499,
  "\u2581hidimarsu": 5500,
  "\u2581invisible": 5501,
  "\u2581kusanci": 5502,
  "\u2581poured": 5503,
  "\u2581reasoning": 5504,
  "\u2581serves": 5505,
  "\u2581ship": 5506,
  "\u2581social": 5507,
  "\u2581towns": 5508,
  "\u2581y\u00e3ro": 5509,
  "Yes": 5510,
  "Yesu": 5511,
  "ikan": 5512,
  "\u258172": 5513,
  "\u2581Ayat": 5514,
  "\u2581Ecclesiastes": 5515,
  "\u2581Jehoshaphat": 5516,
  "\u2581Jin": 5517,
  "\u2581Li": 5518,
  "\u2581Mosque": 5519,
  "\u2581Time": 5520,
  "\u2581Until": 5521,
  "\u2581current": 5522,
  "\u2581debt": 5523,
  "\u2581exist": 5524,
  "\u2581fault": 5525,
  "\u2581forgotten": 5526,
  "\u2581fornication": 5527,
  "\u2581hutu": 5528,
  "\u2581item": 5529,
  "\u2581k": 5530,
  "\u2581location": 5531,
  "\u2581matansu": 5532,
  "\u2581mut\u00e3nensu": 5533,
  "\u2581oil": 5534,
  "\u2581organized": 5535,
  "\u2581plot": 5536,
  "\u2581pointed": 5537,
  "\u2581probabl": 5538,
  "\u2581sadu": 5539,
  "\u2581springs": 5540,
  "\u2581staff": 5541,
  "\u2581strayed": 5542,
  "\u2581unclean": 5543,
  "\u2581wall": 5544,
  "\u0129Na": 5545,
  "\u258137.": 5546,
  "\u2581Center": 5547,
  "\u2581D\u00e3w\u0169da": 5548,
  "\u2581Internet": 5549,
  "\u2581awe": 5550,
  "\u2581b\u00e3yiNa": 5551,
  "\u2581comforting": 5552,
  "\u2581gareku": 5553,
  "\u2581inherited": 5554,
  "\u2581iron": 5555,
  "\u2581m\u0169mini": 5556,
  "\u2581possession": 5557,
  "\u2581review": 5558,
  "\u2581sau\u0199a\u0199e": 5559,
  "\u2581taka": 5560,
  "\u2581Germany": 5561,
  "\u2581Hezekiya": 5562,
  "\u2581Pharisees": 5563,
  "\u2581Sinai": 5564,
  "\u2581begins": 5565,
  "\u2581causing": 5566,
  "\u2581deceive": 5567,
  "\u2581deceived": 5568,
  "\u2581fuskarsa": 5569,
  "\u2581kalamai": 5570,
  "\u2581lamiri": 5571,
  "\u2581lowly": 5572,
  "\u2581ministeri": 5573,
  "\u2581namu": 5574,
  "\u2581normal": 5575,
  "\u2581otherwise": 5576,
  "\u2581paragraph": 5577,
  "\u2581ranks": 5578,
  "\u2581sharrin": 5579,
  "\u2581tempted": 5580,
  "\u2581visible": 5581,
  "\u2581wished": 5582,
  "\u2581zane": 5583,
  "drew": 5584,
  "\u2581Girma": 5585,
  "\u2581Praise": 5586,
  "\u2581STUDY": 5587,
  "\u2581S\u0169": 5588,
  "\u2581Teku": 5589,
  "\u2581Work": 5590,
  "\u2581Yahuza": 5591,
  "\u2581ainun": 5592,
  "\u2581completed": 5593,
  "\u2581dignity": 5594,
  "\u2581disobeyed": 5595,
  "\u2581grown": 5596,
  "\u2581matakai": 5597,
  "\u2581moves": 5598,
  "\u2581mut\u00e3nenta": 5599,
  "\u2581obeying": 5600,
  "\u2581occasions": 5601,
  "\u2581scattered": 5602,
  "\u2581shame": 5603,
  "\u2581spring": 5604,
  "\u2581stake": 5605,
  "\u2581tattali": 5606,
  "k\u0169": 5607,
  "\u2581Mutumi": 5608,
  "\u2581Out": 5609,
  "\u2581Unseen": 5610,
  "\u2581Version": 5611,
  "\u2581Wahayi": 5612,
  "\u2581asali": 5613,
  "\u2581asks": 5614,
  "\u2581baby": 5615,
  "\u2581beauty": 5616,
  "\u2581easier": 5617,
  "\u2581factors": 5618,
  "\u2581indefinite": 5619,
  "\u2581mota": 5620,
  "\u2581nine": 5621,
  "\u2581prosper": 5622,
  "\u2581reports": 5623,
  "\u2581sad": 5624,
  "\u2581tax": 5625,
  "\u2581translation": 5626,
  "\u2581weeks": 5627,
  "$": 5628,
  "SED": 5629,
  "That": 5630,
  "ah": 5631,
  "keep": 5632,
  "wannan": 5633,
  "\u2581(*": 5634,
  "\u258132)": 5635,
  "\u2581607": 5636,
  "\u2581Iyali": 5637,
  "\u2581Mashaidin": 5638,
  "\u2581QS": 5639,
  "\u2581adversity": 5640,
  "\u2581dark": 5641,
  "\u2581hereafter": 5642,
  "\u2581hinder": 5643,
  "\u2581inner": 5644,
  "\u2581nesa": 5645,
  "\u2581season": 5646,
  "\u2581talakawa": 5647,
  "\u2581wasi\u0199arsa": 5648,
  "\u2581witnessed": 5649,
  "\u2581wont": 5650,
  "\u2581\u0199ire": 5651,
  "rsa": 5652,
  "\u2581Lokaci": 5653,
  "\u2581Might": 5654,
  "\u2581Thessalonians": 5655,
  "\u2581azanci": 5656,
  "\u2581benefited": 5657,
  "\u2581clothing": 5658,
  "\u2581confirming": 5659,
  "\u2581difficulties": 5660,
  "\u2581gidajen": 5661,
  "\u2581green": 5662,
  "\u2581gwamnatin": 5663,
  "\u2581innocent": 5664,
  "\u2581invent": 5665,
  "\u2581jihar": 5666,
  "\u2581relevant": 5667,
  "\u2581sarrafa": 5668,
  "\u2581urge": 5669,
  "\u2581waste": 5670,
  "\u2581yinin": 5671,
  "Look": 5672,
  "evil": 5673,
  "\u2581Anuhu": 5674,
  "\u2581Dakata": 5675,
  "\u2581Filibiyawa": 5676,
  "\u2581Gog": 5677,
  "\u2581Kolosiyawa": 5678,
  "\u2581abuse": 5679,
  "\u2581admonished": 5680,
  "\u2581azumi": 5681,
  "\u2581cu\u0257anya": 5682,
  "\u2581fasikanci": 5683,
  "\u2581happens": 5684,
  "\u2581herself": 5685,
  "\u2581isk\u00f5ki": 5686,
  "\u2581judged": 5687,
  "\u2581kaya": 5688,
  "\u2581lokuta": 5689,
  "\u2581messages": 5690,
  "\u2581religions": 5691,
  "\u2581shugabanci": 5692,
  "Daga": 5693,
  "\u2581City": 5694,
  "\u2581Moosa": 5695,
  "\u2581emotions": 5696,
  "\u2581facts": 5697,
  "\u2581figurative": 5698,
  "\u2581fleshly": 5699,
  "\u2581forgot": 5700,
  "\u2581goodly": 5701,
  "\u2581mahaukaci": 5702,
  "\u2581protected": 5703,
  "\u2581remarkable": 5704,
  "\u2581satisfying": 5705,
  "\u2581writer": 5706,
  "\u2581\u0199arfinsa": 5707,
  "\u2581\u0257iyanku": 5708,
  "Bring": 5709,
  "Will": 5710,
  "ted": 5711,
  "ty": 5712,
  "\u2581Allahnka": 5713,
  "\u2581Catholic": 5714,
  "\u2581Dan": 5715,
  "\u2581Leviticus": 5716,
  "\u2581Mahaliccinmu": 5717,
  "\u2581appointment": 5718,
  "\u2581brief": 5719,
  "\u2581critical": 5720,
  "\u2581drawing": 5721,
  "\u2581gradually": 5722,
  "\u2581habits": 5723,
  "\u2581inuwa": 5724,
  "\u2581janye": 5725,
  "\u2581kiwon": 5726,
  "\u2581lovingly": 5727,
  "\u2581lu": 5728,
  "\u2581nearer": 5729,
  "\u2581oppose": 5730,
  "\u2581rance": 5731,
  "\u2581require": 5732,
  "\u2581rock": 5733,
  "\u2581significant": 5734,
  "\u2581triumph": 5735,
  "\u2581\u0199ir\u0199ir\u00e3wa": 5736,
  "Forgiving": 5737,
  "Su": 5738,
  "jw": 5739,
  "rin": 5740,
  "uwanku": 5741,
  "\u2581Doing": 5742,
  "\u2581Ja": 5743,
  "\u2581Ministry": 5744,
  "\u2581almajirai": 5745,
  "\u2581bounties": 5746,
  "\u2581cup": 5747,
  "\u2581description": 5748,
  "\u2581dwellings": 5749,
  "\u2581foot": 5750,
  "\u2581footsteps": 5751,
  "\u2581gidansu": 5752,
  "\u2581girbi": 5753,
  "\u2581ideas": 5754,
  "\u2581kyakkyawa": 5755,
  "\u2581quoted": 5756,
  "\u2581reproach": 5757,
  "\u2581s\u00e3k\u00e3": 5758,
  "\u2581thank": 5759,
  "\u2581tsar\u1ebdwa": 5760,
  "\u2581wipe": 5761,
  "\u2581\u0199aw\u00e3": 5762,
  "\u2581\u0253ac\u1ebdwa": 5763,
  "uwar": 5764,
  "wa\u0257ansu": 5765,
  "\u2581Alif": 5766,
  "\u2581COVER": 5767,
  "\u2581Jehu": 5768,
  "\u2581Karatu": 5769,
  "\u2581b\u00e3wa": 5770,
  "\u2581c\u0169c": 5771,
  "\u2581dangantakarsu": 5772,
  "\u2581forgiven": 5773,
  "\u2581hallaka": 5774,
  "\u2581hasarar": 5775,
  "\u2581higher": 5776,
  "\u2581hospitality": 5777,
  "\u2581komi": 5778,
  "\u2581k\u00f5re": 5779,
  "\u2581maji\u0253inta": 5780,
  "\u2581obligation": 5781,
  "\u2581passing": 5782,
  "\u2581stopped": 5783,
  "\u2581takan": 5784,
  "\u2581therefrom": 5785,
  "\u2581threatened": 5786,
  "\u2581\u018aa": 5787,
  "Filib": 5788,
  "you": 5789,
  "\u2581Afirka": 5790,
  "\u2581Africa": 5791,
  "\u2581Zephaniah": 5792,
  "\u2581ambato": 5793,
  "\u2581amsoshin": 5794,
  "\u2581anab": 5795,
  "\u2581annabawa": 5796,
  "\u2581anxious": 5797,
  "\u2581attempt": 5798,
  "\u2581behavior": 5799,
  "\u2581g\u0101ji": 5800,
  "\u2581inhabited": 5801,
  "\u2581komo": 5802,
  "\u2581kunne": 5803,
  "\u2581mak\u00f5marsu": 5804,
  "\u2581mark": 5805,
  "\u2581mortal": 5806,
  "\u2581mutual": 5807,
  "\u2581peaceful": 5808,
  "\u2581safety": 5809,
  "\u2581sa\u0199o": 5810,
  "\u2581soldiers": 5811,
  "\u2581taimakawa": 5812,
  "\u2581waccan": 5813,
  "\u2581yantar": 5814,
  "\u2581\u0199ididdigewa": 5815,
  "\u2581\u0199udura": 5816,
  "ida": 5817,
  "\u2581Adnin": 5818,
  "\u2581Reminder": 5819,
  "\u2581Suke": 5820,
  "\u2581chaste": 5821,
  "\u2581choices": 5822,
  "\u2581couples": 5823,
  "\u2581dokokinsa": 5824,
  "\u2581environment": 5825,
  "\u2581fatan": 5826,
  "\u2581heirs": 5827,
  "\u2581kasuwanci": 5828,
  "\u2581mahaifa": 5829,
  "\u2581matalauci": 5830,
  "\u2581mazaunin": 5831,
  "\u2581miracle": 5832,
  "\u2581motivated": 5833,
  "\u2581offerings": 5834,
  "\u2581preserve": 5835,
  "\u2581rahoto": 5836,
  "\u2581reign": 5837,
  "\u2581runduna": 5838,
  "\u2581successfully": 5839,
  "\u2581theocratic": 5840,
  "\u2581umurninSa": 5841,
  "\u2581z\u00e3lunta": 5842,
  "\u2581\u0128s\u00e3": 5843,
  "\u2581\u0257ai": 5844,
  "\u258129;": 5845,
  "\u2581Faransa": 5846,
  "\u2581THIS": 5847,
  "\u2581addininsu": 5848,
  "\u2581ado": 5849,
  "\u2581ayoyin": 5850,
  "\u2581custom": 5851,
  "\u2581drop": 5852,
  "\u2581dry": 5853,
  "\u2581highly": 5854,
  "\u2581m": 5855,
  "\u2581maida": 5856,
  "\u2581military": 5857,
  "\u2581ministers": 5858,
  "\u2581referring": 5859,
  "\u2581satisfied": 5860,
  "\u2581sitting": 5861,
  "\u2581stories": 5862,
  "Abraham": 5863,
  "ful": 5864,
  "\u258121]": 5865,
  "\u258138.": 5866,
  "\u258183": 5867,
  "\u2581April": 5868,
  "\u2581Flood": 5869,
  "\u2581Nebuchadnezzar": 5870,
  "\u2581Worlds": 5871,
  "\u2581adopt": 5872,
  "\u2581bears": 5873,
  "\u2581covering": 5874,
  "\u2581directly": 5875,
  "\u2581ganinsu": 5876,
  "\u2581g\u0101ba": 5877,
  "\u2581limit": 5878,
  "\u2581muradin": 5879,
  "\u2581process": 5880,
  "\u2581properly": 5881,
  "\u2581river": 5882,
  "\u2581sakamakonsu": 5883,
  "\u2581seal": 5884,
  "\u2581submitted": 5885,
  "\u2581takardar": 5886,
  "\u2581temporary": 5887,
  "\u2581trustworthy": 5888,
  "\u2581virtue": 5889,
  "\u2581y": 5890,
  "\u2581\u0199arnuka": 5891,
  "Wa\u0257an": 5892,
  "lock": 5893,
  "\u2581Baruch": 5894,
  "\u2581Believe": 5895,
  "\u2581Halin": 5896,
  "\u2581Haw": 5897,
  "\u2581State": 5898,
  "\u2581ajalinsu": 5899,
  "\u2581babi": 5900,
  "\u2581disaster": 5901,
  "\u2581f\u00e3si\u0199anci": 5902,
  "\u2581gwajin": 5903,
  "\u2581l\u00e3da": 5904,
  "\u2581makoki": 5905,
  "\u2581model": 5906,
  "\u2581pairs": 5907,
  "\u2581pre": 5908,
  "\u2581reaction": 5909,
  "\u2581sang": 5910,
  "\u2581slow": 5911,
  "\u2581specified": 5912,
  "\u2581treatment": 5913,
  "\u2581unbelieving": 5914,
  "\u2581wild": 5915,
  "\u2581Hannatu": 5916,
  "\u2581Kiristanci": 5917,
  "\u2581Mexico": 5918,
  "\u2581dacewa": 5919,
  "\u2581degree": 5920,
  "\u2581distance": 5921,
  "\u2581hunger": 5922,
  "\u2581kamiltacce": 5923,
  "\u2581meaningful": 5924,
  "\u2581resolved": 5925,
  "\u2581rights": 5926,
  "\u2581rubutu": 5927,
  "\u2581vow": 5928,
  "Dukan": 5929,
  "\u258136.": 5930,
  "\u2581Creation": 5931,
  "\u2581Idin": 5932,
  "\u2581Judgement": 5933,
  "\u2581barrier": 5934,
  "\u2581brotherhood": 5935,
  "\u2581fatauci": 5936,
  "\u2581governments": 5937,
  "\u2581gy\u00e3ra": 5938,
  "\u2581hawaye": 5939,
  "\u2581informed": 5940,
  "\u2581offers": 5941,
  "\u2581reaches": 5942,
  "\u2581sam\u00e3": 5943,
  "\u2581visits": 5944,
  "\u2581yaudara": 5945,
  "\u2581\u0257aukakar": 5946,
  "Knowing": 5947,
  "aikata": 5948,
  "those": 5949,
  "\u258132,": 5950,
  "\u2581Come": 5951,
  "\u2581Doka": 5952,
  "\u2581Notice": 5953,
  "\u2581Passover": 5954,
  "\u2581Seeing": 5955,
  "\u2581Zakariya": 5956,
  "\u2581befalls": 5957,
  "\u2581hears": 5958,
  "\u2581heedless": 5959,
  "\u2581holding": 5960,
  "\u2581instructed": 5961,
  "\u2581kauri": 5962,
  "\u2581koyo": 5963,
  "\u2581mislead": 5964,
  "\u2581round": 5965,
  "\u2581secretly": 5966,
  "\u2581shakkar": 5967,
  "\u2581taga": 5968,
  "\u2581watching": 5969,
  "\u2581whoso": 5970,
  "Irmiya": 5971,
  "remember": 5972,
  "vouchsafed": 5973,
  "\u258116]": 5974,
  "\u2581Mawad\u00e3ci": 5975,
  "\u2581Whosoever": 5976,
  "\u2581beings": 5977,
  "\u2581creates": 5978,
  "\u2581exercis": 5979,
  "\u2581intense": 5980,
  "\u2581kashedi": 5981,
  "\u2581lofty": 5982,
  "\u2581maintaining": 5983,
  "\u2581music": 5984,
  "\u2581root": 5985,
  "\u2581sune": 5986,
  "\u2581tasiri": 5987,
  "\u2581uba": 5988,
  "\u2581village": 5989,
  "\u2581wanzu": 5990,
  "\u2581wurina": 5991,
  "\u2581x": 5992,
  "\u2581ziyarar": 5993,
  "\u2581\u018aaliban": 5994,
  "Ban": 5995,
  "fearing": 5996,
  "k": 5997,
  "kai": 5998,
  "\u258142.": 5999,
  "\u2581accepting": 6000,
  "\u2581appreciated": 6001,
  "\u2581dangantakar": 6002,
  "\u2581devil": 6003,
  "\u2581familiar": 6004,
  "\u2581humiliating": 6005,
  "\u2581kam": 6006,
  "\u2581mutuwarta": 6007,
  "\u2581nunawa": 6008,
  "\u2581pressures": 6009,
  "\u2581rundunar": 6010,
  "\u2581sacrificing": 6011,
  "\u2581tests": 6012,
  "\u2581union": 6013,
  "\u2581\u0199awa": 6014,
  "\u2581\u0199ofa": 6015,
  "\u2581\u0257aliban": 6016,
  "FFU": 6017,
  "adde": 6018,
  "only": 6019,
  "proofs": 6020,
  "\u2581'%": 6021,
  "\u258156": 6022,
  "\u2581G\u00f5d": 6023,
  "\u2581KChar": 6024,
  "\u2581October": 6025,
  "\u2581Straight": 6026,
  "\u2581abilities": 6027,
  "\u2581adana": 6028,
  "\u2581afterward": 6029,
  "\u2581aibi": 6030,
  "\u2581aniya": 6031,
  "\u2581career": 6032,
  "\u2581distant": 6033,
  "\u2581dutsen": 6034,
  "\u2581effects": 6035,
  "\u2581finds": 6036,
  "\u2581invented": 6037,
  "\u2581kingship": 6038,
  "\u2581kw\u00e3nuka": 6039,
  "\u2581k\u00e3ya": 6040,
  "\u2581k\u00f5ra": 6041,
  "\u2581lada": 6042,
  "\u2581paying": 6043,
  "\u2581permitted": 6044,
  "\u2581resources": 6045,
  "\u2581sauya": 6046,
  "\u2581serpent": 6047,
  "\u2581suggestions": 6048,
  "\u2581s\u00e3fe": 6049,
  "\u2581yanayinmu": 6050,
  "arsa": 6051,
  "dubi": 6052,
  "our": 6053,
  "\u258140.": 6054,
  "\u25819]": 6055,
  "\u2581Abel": 6056,
  "\u2581Compassionate": 6057,
  "\u2581Readers": 6058,
  "\u2581SHAF": 6059,
  "\u2581across": 6060,
  "\u2581assign": 6061,
  "\u2581attendance": 6062,
  "\u2581color": 6063,
  "\u2581deity": 6064,
  "\u2581d\u0169ka": 6065,
  "\u2581financial": 6066,
  "\u2581haskaka": 6067,
  "\u2581j\u00e3hilci": 6068,
  "\u2581lalace": 6069,
  "\u2581mance": 6070,
  "\u2581marvelous": 6071,
  "\u2581mazauna": 6072,
  "\u2581ma\u0199aryaci": 6073,
  "\u2581opinion": 6074,
  "\u2581parties": 6075,
  "\u2581pioneering": 6076,
  "\u2581pornography": 6077,
  "\u2581praises": 6078,
  "\u2581preferred": 6079,
  "\u2581raising": 6080,
  "\u2581sarautarsa": 6081,
  "\u2581supreme": 6082,
  "\u2581transgression": 6083,
  "\u2581\u0199udurta": 6084,
  "im": 6085,
  "nicode": 6086,
  "\u258173": 6087,
  "\u2581Farisawa": 6088,
  "\u2581Knorr": 6089,
  "\u2581Tambayoyin": 6090,
  "\u2581Whenever": 6091,
  "\u2581additional": 6092,
  "\u2581apparently": 6093,
  "\u2581bounds": 6094,
  "\u2581broken": 6095,
  "\u2581cocin": 6096,
  "\u2581crime": 6097,
  "\u2581designed": 6098,
  "\u2581forced": 6099,
  "\u2581gwauruwa": 6100,
  "\u2581international": 6101,
  "\u2581interpretation": 6102,
  "\u2581karantawa": 6103,
  "\u2581kimiyya": 6104,
  "\u2581lambun": 6105,
  "\u2581makiyaya": 6106,
  "\u2581repeatedly": 6107,
  "\u2581rescue": 6108,
  "\u2581research": 6109,
  "\u2581sadaukar": 6110,
  "\u2581shawarwarin": 6111,
  "\u2581shigo": 6112,
  "\u2581size": 6113,
  "\u2581\u0199o\u0199arinsu": 6114,
  "them": 6115,
  "\u2581Gen": 6116,
  "\u2581March": 6117,
  "\u2581Wajibi": 6118,
  "\u2581admitted": 6119,
  "\u2581asuba": 6120,
  "\u2581blown": 6121,
  "\u2581buy": 6122,
  "\u2581car": 6123,
  "\u2581dies": 6124,
  "\u2581dress": 6125,
  "\u2581gabata": 6126,
  "\u2581ganuwa": 6127,
  "\u2581gudun": 6128,
  "\u2581hannunka": 6129,
  "\u2581holds": 6130,
  "\u2581it\u00e3ciya": 6131,
  "\u2581kamewa": 6132,
  "\u2581kusanta": 6133,
  "\u2581nad\u00e3ma": 6134,
  "\u2581prevented": 6135,
  "\u2581pursued": 6136,
  "\u2581reported": 6137,
  "\u2581resulted": 6138,
  "\u2581settle": 6139,
  "\u2581sh\u00e3fa": 6140,
  "\u2581s\u0169ra": 6141,
  "\u2581unrighteous": 6142,
  "\u2581uwarsa": 6143,
  "\u2581\u0253atattu": 6144,
  "\u2581\u0257iyansu": 6145,
  "Pharaoh": 6146,
  "ada": 6147,
  "bawan": 6148,
  "hortcut": 6149,
  "\u2581103": 6150,
  "\u258147": 6151,
  "\u2581almarar": 6152,
  "\u2581arrangements": 6153,
  "\u2581cautious": 6154,
  "\u2581chiefs": 6155,
  "\u2581concluded": 6156,
  "\u2581discourse": 6157,
  "\u2581gate": 6158,
  "\u2581intercession": 6159,
  "\u2581iyarwa": 6160,
  "\u2581lissafa": 6161,
  "\u2581shade": 6162,
  "\u2581sheba": 6163,
  "\u2581sh\u1ebdkaru": 6164,
  "\u2581sincerely": 6165,
  "\u2581spouse": 6166,
  "\u2581stress": 6167,
  "\u2581\u0199wayoyi": 6168,
  "\u2581\u0253atarwa": 6169,
  "adu": 6170,
  "\u2581Eph": 6171,
  "\u2581Grace": 6172,
  "\u2581Manzannin": 6173,
  "\u2581Ruhun": 6174,
  "\u2581Sabbath": 6175,
  "\u2581Thereafter": 6176,
  "\u2581abroad": 6177,
  "\u2581approved": 6178,
  "\u2581compare": 6179,
  "\u2581differed": 6180,
  "\u2581fresh": 6181,
  "\u2581hanzari": 6182,
  "\u2581harshen": 6183,
  "\u2581honour": 6184,
  "\u2581mas\u00f5ya": 6185,
  "\u2581motsin": 6186,
  "\u2581nassosi": 6187,
  "\u2581royal": 6188,
  "\u2581satan": 6189,
  "\u2581swallow": 6190,
  "\u2581taurari": 6191,
  "\u2581wherefore": 6192,
  "\u2581writings": 6193,
  "\u2581wuyan": 6194,
  "\u2581zafin": 6195,
  "Muna": 6196,
  "Satan": 6197,
  "ayinsu": 6198,
  "there": 6199,
  "\u2581Answered": 6200,
  "\u2581Church": 6201,
  "\u2581Follow": 6202,
  "\u2581Guda": 6203,
  "\u2581Sign": 6204,
  "\u2581barren": 6205,
  "\u2581condemned": 6206,
  "\u2581enjoined": 6207,
  "\u2581extended": 6208,
  "\u2581failure": 6209,
  "\u2581format": 6210,
  "\u2581gagg\u00e3war": 6211,
  "\u2581ginin": 6212,
  "\u2581heat": 6213,
  "\u2581jigon": 6214,
  "\u2581ransu": 6215,
  "\u2581sauraro": 6216,
  "\u2581sik\u1ebdli": 6217,
  "\u2581surrounded": 6218,
  "\u2581wedding": 6219,
  "\u2581w\u00e3sa": 6220,
  "\u2581\u0257anta": 6221,
  "Ayu": 6222,
  "But": 6223,
  "Where": 6224,
  "cece": 6225,
  "fi": 6226,
  "gayyaci": 6227,
  "ikun": 6228,
  "nt": 6229,
  "\u258112]": 6230,
  "\u258144)": 6231,
  "\u2581Amfani": 6232,
  "\u2581Power": 6233,
  "\u2581contain": 6234,
  "\u2581d\u00e3ko": 6235,
  "\u2581fa\u0257ar": 6236,
  "\u2581jigo": 6237,
  "\u2581kabari": 6238,
  "\u2581mataimaka": 6239,
  "\u2581methods": 6240,
  "\u2581mil": 6241,
  "\u2581mouths": 6242,
  "\u2581represented": 6243,
  "\u2581returning": 6244,
  "\u2581threat": 6245,
  ":%": 6246,
  "uke": 6247,
  "ulu": 6248,
  "\u258125]": 6249,
  "\u258136)": 6250,
  "\u2581Drama": 6251,
  "\u2581France": 6252,
  "\u2581Illustrate": 6253,
  "\u2581Ita": 6254,
  "\u2581Rasha": 6255,
  "\u2581Y\u00e3ya": 6256,
  "\u2581addininku": 6257,
  "\u2581alkawarinsu": 6258,
  "\u2581aright": 6259,
  "\u2581black": 6260,
  "\u2581flowing": 6261,
  "\u2581fursuna": 6262,
  "\u2581limitations": 6263,
  "\u2581mahaifiyata": 6264,
  "\u2581motives": 6265,
  "\u2581pieces": 6266,
  "\u2581session": 6267,
  "\u2581\u0199anana": 6268,
  "Me": 6269,
  "aibu": 6270,
  "unto": 6271,
  "\u2581August": 6272,
  "\u2581Box": 6273,
  "\u2581Chronicles": 6274,
  "\u2581Daidai": 6275,
  "\u2581Kiristendam": 6276,
  "\u2581Unbelievers": 6277,
  "\u2581Ya\u0199": 6278,
  "\u2581agreed": 6279,
  "\u2581conscious": 6280,
  "\u2581desist": 6281,
  "\u2581finding": 6282,
  "\u2581replace": 6283,
  "\u2581resting": 6284,
  "\u2581tseren": 6285,
  "\u2581wa\u0199ar": 6286,
  "\u2581ziyarce": 6287,
  "\u2581\u0199as\u0199anci": 6288,
  "Now": 6289,
  "P": 6290,
  "Wise": 6291,
  "yanku": 6292,
  "\u2581Ephesus": 6293,
  "\u2581Intane": 6294,
  "\u2581Koran": 6295,
  "\u2581Kowane": 6296,
  "\u2581Nazi": 6297,
  "\u2581bore": 6298,
  "\u2581choosing": 6299,
  "\u2581compassionate": 6300,
  "\u2581descend": 6301,
  "\u2581explanation": 6302,
  "\u2581fizge": 6303,
  "\u2581foundation": 6304,
  "\u2581gidaje": 6305,
  "\u2581gidanmu": 6306,
  "\u2581guests": 6307,
  "\u2581haughty": 6308,
  "\u2581hypocrisy": 6309,
  "\u2581iyayen": 6310,
  "\u2581j\u00e3hilai": 6311,
  "\u2581koyarwarsa": 6312,
  "\u2581k\u00e3re": 6313,
  "\u2581leader": 6314,
  "\u2581mazansu": 6315,
  "\u2581meditation": 6316,
  "\u2581nigh": 6317,
  "\u2581ninki": 6318,
  "\u2581publication": 6319,
  "\u2581publicly": 6320,
  "\u2581troubled": 6321,
  "\u2581ts\u1ebdr": 6322,
  "Jehobah": 6323,
  "now": 6324,
  "\u2581Guardian": 6325,
  "\u2581Maryam": 6326,
  "\u2581Michael": 6327,
  "\u2581South": 6328,
  "\u2581Yaushe": 6329,
  "\u2581argue": 6330,
  "\u2581bambancin": 6331,
  "\u2581beware": 6332,
  "\u2581burdens": 6333,
  "\u2581canza": 6334,
  "\u2581ended": 6335,
  "\u2581kauce": 6336,
  "\u2581lord": 6337,
  "\u2581maka\u0257aici": 6338,
  "\u2581mistake": 6339,
  "\u2581physically": 6340,
  "\u2581rabin": 6341,
  "\u2581recreation": 6342,
  "\u2581sh\u00e3maki": 6343,
  "\u2581soja": 6344,
  "\u2581tudu": 6345,
  "\u2581undoubtedly": 6346,
  "\u2581wanke": 6347,
  "\u2581wretched": 6348,
  "\u2581\u0199asan": 6349,
  "also": 6350,
  "go": 6351,
  "le": 6352,
  "select": 6353,
  "\u2581Filib": 6354,
  "\u2581Oktoba": 6355,
  "\u2581Sulaiman": 6356,
  "\u2581Tambayoyi": 6357,
  "\u2581Yahudiya": 6358,
  "\u2581abota": 6359,
  "\u2581acquire": 6360,
  "\u2581bish\u00e3ra": 6361,
  "\u2581daidaitu": 6362,
  "\u2581devour": 6363,
  "\u2581gabas": 6364,
  "\u2581gained": 6365,
  "\u2581imperfection": 6366,
  "\u2581inspiration": 6367,
  "\u2581literal": 6368,
  "\u2581misalinsa": 6369,
  "\u2581quick": 6370,
  "\u2581tur\u0253aya": 6371,
  "\u2581yawaita": 6372,
  "Kol": 6373,
  "firta": 6374,
  "ishe": 6375,
  "rta": 6376,
  "\u258139)": 6377,
  "\u2581Esther": 6378,
  "\u2581Gideon": 6379,
  "\u2581Korah": 6380,
  "\u2581Masana": 6381,
  "\u2581Misalin": 6382,
  "\u2581Satumba": 6383,
  "\u2581Tarihi": 6384,
  "\u2581Tasalonikawa": 6385,
  "\u2581Wajen": 6386,
  "\u2581arms": 6387,
  "\u2581daji": 6388,
  "\u2581harsh": 6389,
  "\u2581hire": 6390,
  "\u2581influenced": 6391,
  "\u2581looks": 6392,
  "\u2581maganarsa": 6393,
  "\u2581malamai": 6394,
  "\u2581prefer": 6395,
  "\u2581rising": 6396,
  "\u2581sata": 6397,
  "\u2581sauraronsa": 6398,
  "\u2581swift": 6399,
  "\u2581terror": 6400,
  "\u2581wheat": 6401,
  "\u2581\u0257aura": 6402,
  "Verily": 6403,
  "volving": 6404,
  "\u25812008": 6405,
  "\u2581Biblical": 6406,
  "\u2581Bin": 6407,
  "\u2581Draw": 6408,
  "\u2581Samun": 6409,
  "\u2581arranged": 6410,
  "\u2581batutuwan": 6411,
  "\u2581criminals": 6412,
  "\u2581deserve": 6413,
  "\u2581d\u00e3riya": 6414,
  "\u2581f\u00e3ta": 6415,
  "\u2581gefen": 6416,
  "\u2581global": 6417,
  "\u2581grand": 6418,
  "\u2581gudummawa": 6419,
  "\u2581g\u00e3n\u00e3wa": 6420,
  "\u2581litt\u00e3fin": 6421,
  "\u2581meditating": 6422,
  "\u2581musun": 6423,
  "\u2581pagan": 6424,
  "\u2581spending": 6425,
  "\u2581waninsa": 6426,
  "\u2581w\u00e3": 6427,
  "\u2581zukata": 6428,
  "Ad": 6429,
  "Muhammadu": 6430,
  "axis": 6431,
  "do": 6432,
  "\u2581Ark": 6433,
  "\u2581Habila": 6434,
  "\u2581Hanyar": 6435,
  "\u2581Lis": 6436,
  "\u2581Lissafi": 6437,
  "\u2581Manzanninsu": 6438,
  "\u2581Source": 6439,
  "\u2581acquainted": 6440,
  "\u2581alert": 6441,
  "\u2581alms": 6442,
  "\u2581doers": 6443,
  "\u2581expelled": 6444,
  "\u2581falls": 6445,
  "\u2581identity": 6446,
  "\u2581impossible": 6447,
  "\u2581necks": 6448,
  "\u2581opposite": 6449,
  "\u2581proclaimed": 6450,
  "\u2581rinjayar": 6451,
  "\u2581sarakunan": 6452,
  "\u2581saukarwa": 6453,
  "\u2581sh\u00e3f": 6454,
  "\u2581soil": 6455,
  "\u2581soyayya": 6456,
  "\u2581standard": 6457,
  "\u2581tsohon": 6458,
  "\u2581warns": 6459,
  "Aminci": 6460,
  "Babu": 6461,
  "b\u00e3": 6462,
  "wali": 6463,
  "\u0129r": 6464,
  "\u25812001": 6465,
  "\u2581Close": 6466,
  "\u2581Koyar": 6467,
  "\u2581Lamb": 6468,
  "\u2581ManzanninMu": 6469,
  "\u2581Maria": 6470,
  "\u2581Rayuwa": 6471,
  "\u2581Wisdom": 6472,
  "\u2581ZA": 6473,
  "\u2581azabtar": 6474,
  "\u2581balanced": 6475,
  "\u2581brethren": 6476,
  "\u2581b\u00e3yinMu": 6477,
  "\u2581dubbai": 6478,
  "\u2581farinciki": 6479,
  "\u2581fid": 6480,
  "\u2581gitta": 6481,
  "\u2581graves": 6482,
  "\u2581hair": 6483,
  "\u2581healthy": 6484,
  "\u2581hujjar": 6485,
  "\u2581hushi": 6486,
  "\u2581ib\u00e3da": 6487,
  "\u2581idanun": 6488,
  "\u2581iyalinsu": 6489,
  "\u2581kwamfyuta": 6490,
  "\u2581nufa": 6491,
  "\u2581pleasant": 6492,
  "\u2581pour": 6493,
  "\u2581recompensed": 6494,
  "\u2581rules": 6495,
  "\u2581shagalta": 6496,
  "\u2581s\u00f5sai": 6497,
  "\u2581transgress": 6498,
  "\u2581uphold": 6499,
  "\u2581utmost": 6500,
  "\u2581variety": 6501,
  "\u2581z\u0169ciya": 6502,
  "D\u00f5min": 6503,
  "je": 6504,
  "\u2581Afrilu": 6505,
  "\u2581Kolossiyawa": 6506,
  "\u2581Z": 6507,
  "\u2581advancement": 6508,
  "\u2581enables": 6509,
  "\u2581encourages": 6510,
  "\u2581exalt": 6511,
  "\u2581fate": 6512,
  "\u2581hankalinsa": 6513,
  "\u2581hardships": 6514,
  "\u2581id\u00e3nun": 6515,
  "\u2581jikinsa": 6516,
  "\u2581lifestyle": 6517,
  "\u2581marked": 6518,
  "\u2581mut\u00e3nenka": 6519,
  "\u2581na\u0199asa": 6520,
  "\u2581sell": 6521,
  "\u2581tashe": 6522,
  "\u2581welfare": 6523,
  "\u2581wombs": 6524,
  "\u2581\u0199ungiy\u00f5yi": 6525,
  "imma": 6526,
  "\u258124]": 6527,
  "\u258126]": 6528,
  "\u258145.": 6529,
  "\u2581Annab\u00e3wa": 6530,
  "\u2581Grand": 6531,
  "\u2581Masallaci": 6532,
  "\u2581Nuh": 6533,
  "\u2581Rashin": 6534,
  "\u2581San": 6535,
  "\u2581September": 6536,
  "\u2581Sunan": 6537,
  "\u2581ab\u00f5kin": 6538,
  "\u2581al\u0199aryu": 6539,
  "\u2581assignments": 6540,
  "\u2581belongings": 6541,
  "\u2581bi\u0257a": 6542,
  "\u2581construction": 6543,
  "\u2581enabled": 6544,
  "\u2581excuses": 6545,
  "\u2581execute": 6546,
  "\u2581expend": 6547,
  "\u2581feeding": 6548,
  "\u2581hasara": 6549,
  "\u2581hundreds": 6550,
  "\u2581identified": 6551,
  "\u2581lamp": 6552,
  "\u2581misled": 6553,
  "\u2581pagans": 6554,
  "\u2581potential": 6555,
  "\u2581sunanka": 6556,
  "\u2581surprise": 6557,
  "\u2581trusting": 6558,
  "\u2581ts\u00f5ratar": 6559,
  "\u2581t\u0129lasta": 6560,
  "\u2581unlawful": 6561,
  "\u2581yaranmu": 6562,
  "2": 6563,
  "Muka": 6564,
  "ita": 6565,
  "\u2581Aikin": 6566,
  "\u2581Elihu": 6567,
  "\u2581Mashaidi": 6568,
  "\u2581Nazarin": 6569,
  "\u2581Protector": 6570,
  "\u2581amf\u00e3nin": 6571,
  "\u2581argument": 6572,
  "\u2581audience": 6573,
  "\u2581aurenmu": 6574,
  "\u2581bearer": 6575,
  "\u2581certainty": 6576,
  "\u2581doubts": 6577,
  "\u2581earnestly": 6578,
  "\u2581enmity": 6579,
  "\u2581gidanka": 6580,
  "\u2581ha\u0257arin": 6581,
  "\u2581j\u0129fa": 6582,
  "\u2581kafirai": 6583,
  "\u2581launin": 6584,
  "\u2581meek": 6585,
  "\u2581national": 6586,
  "\u2581sauna": 6587,
  "\u2581siffant": 6588,
  "\u2581s\u00e3fiya": 6589,
  "\u2581upbuilding": 6590,
  "\u2581writes": 6591,
  "\u2581\u00c3damu": 6592,
  "azaru": 6593,
  "even": 6594,
  "\u258123]": 6595,
  "\u2581Wa\u0257ansu": 6596,
  "\u2581auna": 6597,
  "\u2581bautarmu": 6598,
  "\u2581boldness": 6599,
  "\u2581burn": 6600,
  "\u2581chance": 6601,
  "\u2581cost": 6602,
  "\u2581foolish": 6603,
  "\u2581iyayena": 6604,
  "\u2581mafarki": 6605,
  "\u2581mara\u0199i": 6606,
  "\u2581nights": 6607,
  "\u2581released": 6608,
  "\u2581safeguard": 6609,
  "\u2581sinner": 6610,
  "\u2581split": 6611,
  "\u2581streams": 6612,
  "\u2581submissive": 6613,
  "\u2581supply": 6614,
  "\u2581taronmu": 6615,
  "\u2581tebur": 6616,
  "\u2581tsirfanta": 6617,
  "\u2581umurninMu": 6618,
  "\u2581underneath": 6619,
  "ment": 6620,
  "polytheists": 6621,
  "yya": 6622,
  "\u2581Duka": 6623,
  "\u2581adjust": 6624,
  "\u2581applies": 6625,
  "\u2581asunder": 6626,
  "\u2581desert": 6627,
  "\u2581discernment": 6628,
  "\u2581dubban": 6629,
  "\u2581edge": 6630,
  "\u2581healing": 6631,
  "\u2581infidels": 6632,
  "\u2581miraculous": 6633,
  "\u2581mis\u00e3lai": 6634,
  "\u2581nas\u0129ha": 6635,
  "\u2581noticed": 6636,
  "\u2581opposed": 6637,
  "\u2581rebel": 6638,
  "\u2581wholesome": 6639,
  "\u2581win": 6640,
  "\u2581zukatanku": 6641,
  "\u2581\u0253angaren": 6642,
  "ge": 6643,
  "rai": 6644,
  "tsakar": 6645,
  "\u25812000": 6646,
  "\u258133,": 6647,
  "\u2581Judge": 6648,
  "\u2581Lawiyawa": 6649,
  "\u2581Mata": 6650,
  "\u2581addinan": 6651,
  "\u2581button": 6652,
  "\u2581camp": 6653,
  "\u2581dandalin": 6654,
  "\u2581finished": 6655,
  "\u2581fled": 6656,
  "\u2581lower": 6657,
  "\u2581maganarsu": 6658,
  "\u2581magani": 6659,
  "\u2581mallaki": 6660,
  "\u2581modesty": 6661,
  "\u2581mulkinsa": 6662,
  "\u2581nama": 6663,
  "\u2581possibly": 6664,
  "\u2581recalls": 6665,
  "\u2581recently": 6666,
  "\u2581resort": 6667,
  "\u2581rufi": 6668,
  "\u2581r\u00e3muwa": 6669,
  "\u2581uwar": 6670,
  "\u2581\u0257azu": 6671,
  "Al": 6672,
  "hearing": 6673,
  "iye": 6674,
  "no": 6675,
  "rwa": 6676,
  "zai": 6677,
  "\u258145)": 6678,
  "\u2581Dutsen": 6679,
  "\u2581Ibr\u00e3h\u0129ma": 6680,
  "\u2581Lam": 6681,
  "\u2581News": 6682,
  "\u2581adjustments": 6683,
  "\u2581attacks": 6684,
  "\u2581conversations": 6685,
  "\u2581eagerly": 6686,
  "\u2581employment": 6687,
  "\u2581ends": 6688,
  "\u2581falling": 6689,
  "\u2581firstborn": 6690,
  "\u2581hankalin": 6691,
  "\u2581mamakin": 6692,
  "\u2581payment": 6693,
  "\u2581readily": 6694,
  "\u2581r\u1ebdshe": 6695,
  "\u2581sojoji": 6696,
  "\u2581sold": 6697,
  "\u2581songs": 6698,
  "\u2581weaknesses": 6699,
  "Take": 6700,
  "kamar": 6701,
  "ll": 6702,
  "\u25811950": 6703,
  "\u258180": 6704,
  "\u2581Anna": 6705,
  "\u2581Bayin": 6706,
  "\u2581Books": 6707,
  "\u2581Cause": 6708,
  "\u2581Concern": 6709,
  "\u2581Corinth": 6710,
  "\u2581Lazarus": 6711,
  "\u2581Sometimes": 6712,
  "\u2581Taron": 6713,
  "\u2581Yusuf": 6714,
  "\u2581aljanu": 6715,
  "\u2581bare": 6716,
  "\u2581bed": 6717,
  "\u2581celebrate": 6718,
  "\u2581devils": 6719,
  "\u2581forsake": 6720,
  "\u2581gonar": 6721,
  "\u2581guilt": 6722,
  "\u2581increases": 6723,
  "\u2581series": 6724,
  "\u2581silent": 6725,
  "\u2581surprised": 6726,
  "\u2581tsoronsa": 6727,
  "\u2581yield": 6728,
  "\u2581\u0199ir\u00e3za": 6729,
  "abuta": 6730,
  "\u2581Bangaskiya": 6731,
  "\u2581Eli": 6732,
  "\u2581Katolika": 6733,
  "\u2581Lessons": 6734,
  "\u2581Levites": 6735,
  "\u2581Musulunci": 6736,
  "\u2581Table": 6737,
  "\u2581Unlike": 6738,
  "\u2581agreement": 6739,
  "\u2581ala\u0199a": 6740,
  "\u2581attitudes": 6741,
  "\u2581balle": 6742,
  "\u2581caught": 6743,
  "\u2581co": 6744,
  "\u2581committing": 6745,
  "\u2581depth": 6746,
  "\u2581east": 6747,
  "\u2581engaged": 6748,
  "\u2581fayil": 6749,
  "\u2581gidajensu": 6750,
  "\u2581governing": 6751,
  "\u2581idolatry": 6752,
  "\u2581jimiri": 6753,
  "\u2581latter": 6754,
  "\u2581majority": 6755,
  "\u2581nearby": 6756,
  "\u2581ponder": 6757,
  "\u2581rabi": 6758,
  "\u2581sealed": 6759,
  "\u2581shugabanni": 6760,
  "\u2581solid": 6761,
  "\u2581subjection": 6762,
  "\u2581total": 6763,
  "\u2581uwa": 6764,
  "\u2581wear": 6765,
  "\u2581\u0257ora": 6766,
  ";-": 6767,
  "di": 6768,
  "una": 6769,
  "zuwa": 6770,
  "\u2581Ah": 6771,
  "\u2581Bayanin": 6772,
  "\u2581Hand": 6773,
  "\u2581July": 6774,
  "\u2581Karin": 6775,
  "\u2581Knowledge": 6776,
  "\u2581Words": 6777,
  "\u2581aforetime": 6778,
  "\u2581associating": 6779,
  "\u2581bellies": 6780,
  "\u2581canjawa": 6781,
  "\u2581capacity": 6782,
  "\u2581churches": 6783,
  "\u2581dariya": 6784,
  "\u2581excuse": 6785,
  "\u2581finish": 6786,
  "\u2581gafartawa": 6787,
  "\u2581hanci": 6788,
  "\u2581inganta": 6789,
  "\u2581isar": 6790,
  "\u2581iyalinka": 6791,
  "\u2581jariri": 6792,
  "\u2581masifa": 6793,
  "\u2581song": 6794,
  "\u2581surori": 6795,
  "\u2581tushe": 6796,
  "\u2581ward": 6797,
  "\u2581wondered": 6798,
  "\u2581yaranka": 6799,
  "gi": 6800,
  "\u2581Command": 6801,
  "\u2581Ex": 6802,
  "\u2581Granted": 6803,
  "\u2581Happy": 6804,
  "\u2581Jehoash": 6805,
  "\u2581Kowac": 6806,
  "\u2581amana": 6807,
  "\u2581beasts": 6808,
  "\u2581b\u00e3yin": 6809,
  "\u2581cold": 6810,
  "\u2581c\u1ebd": 6811,
  "\u2581fitila": 6812,
  "\u2581kwa\u0257ayin": 6813,
  "\u2581lovers": 6814,
  "\u2581malaman": 6815,
  "\u2581mawuyaci": 6816,
  "\u2581mutumi": 6817,
  "\u2581paths": 6818,
  "\u2581scene": 6819,
  "\u2581shelter": 6820,
  "\u2581similarly": 6821,
  "\u2581strangers": 6822,
  "\u2581taba": 6823,
  "\u2581wauta": 6824,
  "\u2581zamaninsa": 6825,
  "\u2581\u0199o\u0199arta": 6826,
  "dalla": 6827,
  "doing": 6828,
  "ura": 6829,
  "\u25811999": 6830,
  "\u258137)": 6831,
  "\u258137,": 6832,
  "\u2581American": 6833,
  "\u2581Contents": 6834,
  "\u2581Dukanmu": 6835,
  "\u2581Hearer": 6836,
  "\u2581SA": 6837,
  "\u2581amincewar": 6838,
  "\u2581awo": 6839,
  "\u2581binciken": 6840,
  "\u2581copy": 6841,
  "\u2581earnest": 6842,
  "\u2581halayensa": 6843,
  "\u2581idanunsu": 6844,
  "\u2581intimate": 6845,
  "\u2581kaidi": 6846,
  "\u2581kwa\u0257ayi": 6847,
  "\u2581k\u00e3sa": 6848,
  "\u2581madadin": 6849,
  "\u2581makanta": 6850,
  "\u2581marmaro": 6851,
  "\u2581pursuit": 6852,
  "\u2581rank": 6853,
  "\u2581relationships": 6854,
  "\u2581represents": 6855,
  "\u2581rushe": 6856,
  "\u2581r\u00e3yuka": 6857,
  "\u2581sorts": 6858,
  "\u2581utterly": 6859,
  "\u2581yalwata": 6860,
  "\u2581\u0257ayanku": 6861,
  "Surely": 6862,
  "de": 6863,
  "mutum": 6864,
  "ul": 6865,
  "yanta": 6866,
  "\u258152": 6867,
  "\u2581Application": 6868,
  "\u2581Asiya": 6869,
  "\u2581Galili": 6870,
  "\u2581Gidan": 6871,
  "\u2581IS": 6872,
  "\u2581Ibrah\u0129m": 6873,
  "\u2581Koyi": 6874,
  "\u2581Talifi": 6875,
  "\u2581Tare": 6876,
  "\u2581abokantaka": 6877,
  "\u2581access": 6878,
  "\u2581adopted": 6879,
  "\u2581approaching": 6880,
  "\u2581asleep": 6881,
  "\u2581averse": 6882,
  "\u2581chooses": 6883,
  "\u2581communicate": 6884,
  "\u2581conflict": 6885,
  "\u2581couches": 6886,
  "\u2581dangantakars": 6887,
  "\u2581declaring": 6888,
  "\u2581depend": 6889,
  "\u2581eternity": 6890,
  "\u2581expel": 6891,
  "\u2581fearful": 6892,
  "\u2581foremost": 6893,
  "\u2581fourth": 6894,
  "\u2581girbe": 6895,
  "\u2581harmful": 6896,
  "\u2581iyayensa": 6897,
  "\u2581jarrab": 6898,
  "\u2581jir\u00e3ge": 6899,
  "\u2581joyfully": 6900,
  "\u2581kalami": 6901,
  "\u2581maf\u0129f\u0129ci": 6902,
  "\u2581makonni": 6903,
  "\u2581manufar": 6904,
  "\u2581matacce": 6905,
  "\u2581observing": 6906,
  "\u2581praising": 6907,
  "\u2581routine": 6908,
  "\u2581sayings": 6909,
  "\u2581surrender": 6910,
  "\u2581traveled": 6911,
  "\u2581t\u1ebdkun": 6912,
  "\u2581weigh": 6913,
  "\u2581zealously": 6914,
  "\u2581zuriyarsa": 6915,
  "Aya": 6916,
  "Had": 6917,
  "mut\u00e3ne": 6918,
  "\u2581Europe": 6919,
  "\u2581Eventually": 6920,
  "\u2581Goliath": 6921,
  "\u2581Linjila": 6922,
  "\u2581Maris": 6923,
  "\u2581Nothing": 6924,
  "\u2581Phil": 6925,
  "\u2581Sodom": 6926,
  "\u2581TALIFOFI": 6927,
  "\u2581Yuli": 6928,
  "\u2581asirt": 6929,
  "\u2581bay\u00e3ni": 6930,
  "\u2581b\u00e3yinsa": 6931,
  "\u2581credit": 6932,
  "\u2581deniers": 6933,
  "\u2581desiring": 6934,
  "\u2581d\u00f5k": 6935,
  "\u2581existed": 6936,
  "\u2581godfearing": 6937,
  "\u2581gona": 6938,
  "\u2581gyare": 6939,
  "\u2581halarce": 6940,
  "\u2581hann\u00e3yensu": 6941,
  "\u2581hany\u00f5yi": 6942,
  "\u2581ilimin": 6943,
  "\u2581injury": 6944,
  "\u2581iy\u00e3kar": 6945,
  "\u2581iy\u00e3wa": 6946,
  "\u2581kalilan": 6947,
  "\u2581kash\u1ebdwa": 6948,
  "\u2581lean": 6949,
  "\u2581liss\u00e3fi": 6950,
  "\u2581magazines": 6951,
  "\u2581mahaifina": 6952,
  "\u2581mass": 6953,
  "\u2581medical": 6954,
  "\u2581murder": 6955,
  "\u2581n\u0129santar": 6956,
  "\u2581pledge": 6957,
  "\u2581prosperity": 6958,
  "\u2581senses": 6959,
  "\u2581shai\u0257an": 6960,
  "\u2581s\u00e3buwa": 6961,
  "\u2581tausayin": 6962,
  "\u2581top": 6963,
  "\u2581traits": 6964,
  "\u2581\u00e3y\u00f5yinsa": 6965,
  "\u2581\u0129m\u00e3nin": 6966,
  "\u2581\u0199afa": 6967,
  "\u2581\u0257alibin": 6968,
  "\u2581Agusta": 6969,
  "\u2581Boaz": 6970,
  "\u2581Cain": 6971,
  "\u2581Fara": 6972,
  "\u2581Hannah": 6973,
  "\u2581Jordan": 6974,
  "\u2581Penalty": 6975,
  "\u2581arba": 6976,
  "\u2581dark\u00e3ke": 6977,
  "\u2581element": 6978,
  "\u2581enjoying": 6979,
  "\u2581gajiya": 6980,
  "\u2581guardians": 6981,
  "\u2581hadari": 6982,
  "\u2581humbled": 6983,
  "\u2581images": 6984,
  "\u2581inmates": 6985,
  "\u2581lips": 6986,
  "\u2581maniyyi": 6987,
  "\u2581mocked": 6988,
  "\u2581nagargaru": 6989,
  "\u2581nassi": 6990,
  "\u2581oppression": 6991,
  "\u2581preserved": 6992,
  "\u2581raye": 6993,
  "\u2581region": 6994,
  "\u2581tendency": 6995,
  "\u2581umarni": 6996,
  "\u2581yoke": 6997,
  "\u2581\u0199an\u0199an": 6998,
  "\u2581\u0199arfinmu": 6999,
  "\u2581\u0199as\u0169suwa": 7000,
  "Irm": 7001,
  "N\u00e3": 7002,
  "Taste": 7003,
  "Tsarki": 7004,
  "haka": 7005,
  "usha": 7006,
  "\u00e3ta": 7007,
  "\u2581Bl": 7008,
  "\u2581Blessed": 7009,
  "\u2581Filibbiyawa": 7010,
  "\u2581Further": 7011,
  "\u2581Janairu": 7012,
  "\u2581January": 7013,
  "\u2581Nineveh": 7014,
  "\u2581abiding": 7015,
  "\u2581air": 7016,
  "\u2581az\u00e3barMu": 7017,
  "\u2581bukatunmu": 7018,
  "\u2581calm": 7019,
  "\u2581dam\u0199a": 7020,
  "\u2581declaration": 7021,
  "\u2581entitled": 7022,
  "\u2581exact": 7023,
  "\u2581fata": 7024,
  "\u2581magidanta": 7025,
  "\u2581manager": 7026,
  "\u2581neglect": 7027,
  "\u2581overtake": 7028,
  "\u2581perfection": 7029,
  "\u2581ranmu": 7030,
  "\u2581spreading": 7031,
  "\u2581surar": 7032,
  "\u2581surface": 7033,
  "\u2581tsarkak\u1ebdwa": 7034,
  "\u2581tunaninmu": 7035,
  "\u2581wisely": 7036,
  "\u2581yanayinsu": 7037,
  "\u2581\u0199arn\u00f5ni": 7038,
  "Mun\u00e3": 7039,
  "adar": 7040,
  "ha": 7041,
  "\u25811918": 7042,
  "\u25812003": 7043,
  "\u258138)": 7044,
  "\u2581Esau": 7045,
  "\u2581Jezebel": 7046,
  "\u2581Kol": 7047,
  "\u2581Light": 7048,
  "\u2581Michelle": 7049,
  "\u2581Verses": 7050,
  "\u2581ashirin": 7051,
  "\u2581b\u00e3kunansu": 7052,
  "\u2581b\u00e3y\u0129Na": 7053,
  "\u2581disbelieving": 7054,
  "\u2581disputed": 7055,
  "\u2581economic": 7056,
  "\u2581faults": 7057,
  "\u2581features": 7058,
  "\u2581forgave": 7059,
  "\u2581gaggauta": 7060,
  "\u2581gareka": 7061,
  "\u2581garke": 7062,
  "\u2581grows": 7063,
  "\u2581halinsu": 7064,
  "\u2581horon": 7065,
  "\u2581huge": 7066,
  "\u2581jan": 7067,
  "\u2581kang\u1ebdwa": 7068,
  "\u2581kir\u00e3": 7069,
  "\u2581l\u00e3ka": 7070,
  "\u2581maigida": 7071,
  "\u2581mash\u00e3warta": 7072,
  "\u2581misfortune": 7073,
  "\u2581pursuits": 7074,
  "\u2581residents": 7075,
  "\u2581shadow": 7076,
  "\u2581tabbatacciya": 7077,
  "\u2581takobi": 7078,
  "\u2581task\u00f5kin": 7079,
  "\u2581universal": 7080,
  "\u2581worker": 7081,
  "\u2581z\u00e3\u0253i": 7082,
  "Yah\u0169du": 7083,
  "fa": 7084,
  "rar": 7085,
  "right": 7086,
  "\u2581Canada": 7087,
  "\u2581Credit": 7088,
  "\u2581December": 7089,
  "\u2581Following": 7090,
  "\u2581Galilee": 7091,
  "\u2581Ism\u00e3": 7092,
  "\u2581Judea": 7093,
  "\u2581Kalmomin": 7094,
  "\u2581Kwamiti": 7095,
  "\u2581Madyana": 7096,
  "\u2581Manasseh": 7097,
  "\u2581Stephen": 7098,
  "\u2581Wherefore": 7099,
  "\u2581acknowledged": 7100,
  "\u2581annab\u00e3wa": 7101,
  "\u2581arrival": 7102,
  "\u2581aura": 7103,
  "\u2581azurt\u00e3": 7104,
  "\u2581biyo": 7105,
  "\u2581context": 7106,
  "\u2581dabbar": 7107,
  "\u2581e": 7108,
  "\u2581fitarwa": 7109,
  "\u2581fitinar": 7110,
  "\u2581hauka": 7111,
  "\u2581highest": 7112,
  "\u2581jingina": 7113,
  "\u2581likened": 7114,
  "\u2581manzon": 7115,
  "\u2581paragraphs": 7116,
  "\u2581persevere": 7117,
  "\u2581produces": 7118,
  "\u2581rantsuw\u00f5yinku": 7119,
  "\u2581scale": 7120,
  "\u2581shal": 7121,
  "\u2581sustain": 7122,
  "\u2581urgency": 7123,
  "\u2581visiting": 7124,
  "\u2581yarinya": 7125,
  "\u2581zukatan": 7126,
  "Woe": 7127,
  "sufficient": 7128,
  "we": 7129,
  "\u2581Afisa": 7130,
  "\u2581Annabci": 7131,
  "\u2581Bath": 7132,
  "\u2581Bring": 7133,
  "\u2581Disamba": 7134,
  "\u2581Enter": 7135,
  "\u2581Find": 7136,
  "\u2581Halls": 7137,
  "\u2581Living": 7138,
  "\u2581Mayu": 7139,
  "\u2581Mim": 7140,
  "\u2581Shortly": 7141,
  "\u2581Testament": 7142,
  "\u2581Use": 7143,
  "\u2581annabcen": 7144,
  "\u2581dangers": 7145,
  "\u2581d\u0169kiyar": 7146,
  "\u2581execution": 7147,
  "\u2581fed": 7148,
  "\u2581fundamental": 7149,
  "\u2581hated": 7150,
  "\u2581initiative": 7151,
  "\u2581jiya": 7152,
  "\u2581kamiltattu": 7153,
  "\u2581loose": 7154,
  "\u2581manifested": 7155,
  "\u2581misdeeds": 7156,
  "\u2581miss": 7157,
  "\u2581official": 7158,
  "\u2581persist": 7159,
  "\u2581tarried": 7160,
  "\u2581truthfulness": 7161,
  "\u2581unbelief": 7162,
  "\u2581\u0253\u00f5yewa": 7163,
  "mankind": 7164,
  "then": 7165,
  "\u2581300": 7166,
  "\u2581Assembly": 7167,
  "\u2581Firist": 7168,
  "\u2581Fit": 7169,
  "\u2581Haman": 7170,
  "\u2581Kayinu": 7171,
  "\u2581Muslim": 7172,
  "\u2581Philip": 7173,
  "\u2581Self": 7174,
  "\u2581Sin": 7175,
  "\u2581TA": 7176,
  "\u2581Taurat": 7177,
  "\u2581Ur": 7178,
  "\u2581Zion": 7179,
  "\u2581consume": 7180,
  "\u2581crowds": 7181,
  "\u2581crushed": 7182,
  "\u2581fas\u00e3di": 7183,
  "\u2581filako": 7184,
  "\u2581haushi": 7185,
  "\u2581iy\u00e3k\u00f5kin": 7186,
  "\u2581k\u1ebdway\u1ebdwa": 7187,
  "\u2581literally": 7188,
  "\u2581mahaifi": 7189,
  "\u2581ma\u0257aukaki": 7190,
  "\u2581plague": 7191,
  "\u2581preparing": 7192,
  "\u2581prevail": 7193,
  "\u2581qualify": 7194,
  "\u2581ruined": 7195,
  "\u2581ru\u0257i": 7196,
  "\u2581shugaba": 7197,
  "\u2581sifar": 7198,
  "\u2581significance": 7199,
  "\u2581trip": 7200,
  "\u2581\u0199ungiy\u00f5yin": 7201,
  "kuma": 7202,
  "place": 7203,
  "rimarily": 7204,
  "willingness": 7205,
  "\u2581120": 7206,
  "\u258186": 7207,
  "\u2581Annabcin": 7208,
  "\u2581Hikima": 7209,
  "\u2581Judas": 7210,
  "\u2581Service": 7211,
  "\u2581Yau": 7212,
  "\u2581addressed": 7213,
  "\u2581arrives": 7214,
  "\u2581bright": 7215,
  "\u2581catch": 7216,
  "\u2581discovered": 7217,
  "\u2581disposed": 7218,
  "\u2581empower": 7219,
  "\u2581householder": 7220,
  "\u2581identifie": 7221,
  "\u2581kayayyakin": 7222,
  "\u2581keys": 7223,
  "\u2581mahaifinsa": 7224,
  "\u2581march": 7225,
  "\u2581matashiya": 7226,
  "\u2581motive": 7227,
  "\u2581oppressed": 7228,
  "\u2581overwhelmed": 7229,
  "\u2581reminds": 7230,
  "\u2581repay": 7231,
  "\u2581scholar": 7232,
  "\u2581shield": 7233,
  "\u2581torture": 7234,
  "\u2581tremendous": 7235,
  "\u2581yalwar": 7236,
  "\u2581\u0199abilu": 7237,
  "Gama": 7238,
  "\u258140:": 7239,
  "\u258143)": 7240,
  "\u2581East": 7241,
  "\u2581Eric": 7242,
  "\u2581Hausa": 7243,
  "\u2581June": 7244,
  "\u2581Mas\u0129hu": 7245,
  "\u2581Men": 7246,
  "\u2581Sakamakon": 7247,
  "\u2581WA": 7248,
  "\u2581ascend": 7249,
  "\u2581consequence": 7250,
  "\u2581cutar": 7251,
  "\u2581depends": 7252,
  "\u2581greeting": 7253,
  "\u2581jarrab\u00e3wa": 7254,
  "\u2581komawa": 7255,
  "\u2581lion": 7256,
  "\u2581mazaunan": 7257,
  "\u2581refrain": 7258,
  "\u2581resurrect": 7259,
  "\u2581satisfy": 7260,
  "\u2581saurayi": 7261,
  "\u2581shu": 7262,
  "\u2581slavery": 7263,
  "\u2581ta\u0199aita": 7264,
  "\u2581tired": 7265,
  "\u2581umurninsa": 7266,
  "\u2581urges": 7267,
  "\u2581victorious": 7268,
  "\u2581wars": 7269,
  "\u2581\u0198arfafa": 7270,
  "sakamakon": 7271,
  "urb": 7272,
  "\u2581&": 7273,
  "\u2581Call": 7274,
  "\u2581Sophia": 7275,
  "\u2581accepts": 7276,
  "\u2581assemblies": 7277,
  "\u2581bango": 7278,
  "\u2581difficulty": 7279,
  "\u2581fabricate": 7280,
  "\u2581fasa": 7281,
  "\u2581halittarsu": 7282,
  "\u2581honourable": 7283,
  "\u2581mijin": 7284,
  "\u2581numbers": 7285,
  "\u2581orphan": 7286,
  "\u2581selected": 7287,
  "\u2581symbolic": 7288,
  "\u2581tabernacle": 7289,
  "\u2581tattare": 7290,
  "\u2581totally": 7291,
  "\u2581withhold": 7292,
  "\u2581yaransa": 7293,
  "\u2581\u0198a": 7294,
  "Masu": 7295,
  "aikatan": 7296,
  "disfellowshipped": 7297,
  "musu": 7298,
  "nan": 7299,
  "wurin": 7300,
  "\u258119]": 7301,
  "\u258158": 7302,
  "\u2581CE": 7303,
  "\u2581George": 7304,
  "\u2581Guidance": 7305,
  "\u2581HOW": 7306,
  "\u2581Ishmael": 7307,
  "\u2581Koranti": 7308,
  "\u2581Kusac": 7309,
  "\u2581Salih": 7310,
  "\u2581Saukar": 7311,
  "\u2581achieve": 7312,
  "\u2581adalcin": 7313,
  "\u2581alkawuransa": 7314,
  "\u2581baiwar": 7315,
  "\u2581budurwa": 7316,
  "\u2581center": 7317,
  "\u2581farauta": 7318,
  "\u2581fa\u0257an": 7319,
  "\u2581greatness": 7320,
  "\u2581hot": 7321,
  "\u2581incline": 7322,
  "\u2581miraculously": 7323,
  "\u2581mock": 7324,
  "\u2581mutunci": 7325,
  "\u2581neglected": 7326,
  "\u2581overtook": 7327,
  "\u2581permanent": 7328,
  "\u2581plant": 7329,
  "\u2581ride": 7330,
  "\u2581saninsa": 7331,
  "\u2581spouses": 7332,
  "\u2581storm": 7333,
  "\u2581talks": 7334,
  "\u2581tent": 7335,
  "\u2581weaken": 7336,
  "\u2581writers": 7337,
  "\"?": 7338,
  "Enter": 7339,
  "G\u00f5diya": 7340,
  "auratan": 7341,
  "hi": 7342,
  "ize": 7343,
  "j": 7344,
  "\u258117.)": 7345,
  "\u25814]": 7346,
  "\u2581Amsar": 7347,
  "\u2581Australia": 7348,
  "\u2581Earth": 7349,
  "\u2581Isuwa": 7350,
  "\u2581K\u00f5wane": 7351,
  "\u2581Line": 7352,
  "\u2581Mother": 7353,
  "\u2581Nuwamba": 7354,
  "\u2581Universe": 7355,
  "\u2581Zalimun": 7356,
  "\u2581Zuciya": 7357,
  "\u2581alcohol": 7358,
  "\u2581ambatar": 7359,
  "\u2581assume": 7360,
  "\u2581banda": 7361,
  "\u2581bukatunsu": 7362,
  "\u2581courageously": 7363,
  "\u2581distressed": 7364,
  "\u2581flocks": 7365,
  "\u2581forged": 7366,
  "\u2581g": 7367,
  "\u2581lissafi": 7368,
  "\u2581marital": 7369,
  "\u2581middle": 7370,
  "\u2581muhimmin": 7371,
  "\u2581notes": 7372,
  "\u2581obvious": 7373,
  "\u2581principal": 7374,
  "\u2581prize": 7375,
  "\u2581prominent": 7376,
  "\u2581promotes": 7377,
  "\u2581prompt": 7378,
  "\u2581ri\u0199o": 7379,
  "\u2581rubutun": 7380,
  "\u2581saurarar": 7381,
  "\u2581skins": 7382,
  "\u2581taurin": 7383,
  "\u2581temptations": 7384,
  "\u2581tsere": 7385,
  "\u2581wages": 7386,
  "\u2581\u0199arami": 7387,
  "ermon": 7388,
  "ron": 7389,
  "\u258120]": 7390,
  "\u2581ARTICLES": 7391,
  "\u2581Akwati": 7392,
  "\u2581Baftisma": 7393,
  "\u2581Magog": 7394,
  "\u2581NE": 7395,
  "\u2581Supreme": 7396,
  "\u2581Trust": 7397,
  "\u2581Ubangijinta": 7398,
  "\u2581adornment": 7399,
  "\u2581altogether": 7400,
  "\u2581arrive": 7401,
  "\u2581backing": 7402,
  "\u2581belonging": 7403,
  "\u2581burin": 7404,
  "\u2581campaign": 7405,
  "\u2581cared": 7406,
  "\u2581comforted": 7407,
  "\u2581dalilan": 7408,
  "\u2581depart": 7409,
  "\u2581expects": 7410,
  "\u2581farmaki": 7411,
  "\u2581gar\u0169ruwa": 7412,
  "\u2581hankalinsu": 7413,
  "\u2581hawa": 7414,
  "\u2581heal": 7415,
  "\u2581justly": 7416,
  "\u2581k\u00f5yi": 7417,
  "\u2581mode": 7418,
  "\u2581morally": 7419,
  "\u2581newly": 7420,
  "\u2581orders": 7421,
  "\u2581peaceable": 7422,
  "\u2581privileged": 7423,
  "\u2581reap": 7424,
  "\u2581saith": 7425,
  "\u2581sansanin": 7426,
  "\u2581sat": 7427,
  "\u2581scholars": 7428,
  "\u2581talifofi": 7429,
  "\u2581wul\u00e3kant\u00e3wa": 7430,
  "\u2581yafa": 7431,
  "\u2581zunubanku": 7432,
  "\u2581\u0257aurin": 7433,
  "fa\u0257i": 7434,
  "ruled": 7435,
  "taro": 7436,
  "umm\u00f5mi": 7437,
  "\u2581%1": 7438,
  "\u2581110": 7439,
  "\u2581139": 7440,
  "\u258138,": 7441,
  "\u2581G\u00f5diya": 7442,
  "\u2581KE": 7443,
  "\u2581Psalms": 7444,
  "\u2581Re": 7445,
  "\u2581Yara": 7446,
  "\u2581aniyar": 7447,
  "\u2581avert": 7448,
  "\u2581birane": 7449,
  "\u2581biye": 7450,
  "\u2581b\u0169sa": 7451,
  "\u2581capable": 7452,
  "\u2581expose": 7453,
  "\u2581fannoni": 7454,
  "\u2581fulfil": 7455,
  "\u2581gangan": 7456,
  "\u2581guideth": 7457,
  "\u2581gun": 7458,
  "\u2581healed": 7459,
  "\u2581immediate": 7460,
  "\u2581manufa": 7461,
  "\u2581mugu": 7462,
  "\u2581nasarar": 7463,
  "\u2581observes": 7464,
  "\u2581popular": 7465,
  "\u2581purified": 7466,
  "\u2581receives": 7467,
  "\u2581refreshing": 7468,
  "\u2581seventh": 7469,
  "\u2581valid": 7470,
  "\u2581vengeance": 7471,
  "4": 7472,
  "K\u0169": 7473,
  "te": 7474,
  "\u258162": 7475,
  "\u258191": 7476,
  "\u2581Heart": 7477,
  "\u2581Jas": 7478,
  "\u2581X": 7479,
  "\u2581aboki": 7480,
  "\u2581buw\u00e3ya": 7481,
  "\u2581contained": 7482,
  "\u2581demand": 7483,
  "\u2581doors": 7484,
  "\u2581fields": 7485,
  "\u2581flood": 7486,
  "\u2581gamsarwa": 7487,
  "\u2581gunki": 7488,
  "\u2581indecency": 7489,
  "\u2581influences": 7490,
  "\u2581it\u00e3ciyar": 7491,
  "\u2581k\u0169ka": 7492,
  "\u2581laugh": 7493,
  "\u2581liy\u00e3fa": 7494,
  "\u2581loan": 7495,
  "\u2581lokacinmu": 7496,
  "\u2581loyally": 7497,
  "\u2581rinj\u00e3ye": 7498,
  "\u2581secrets": 7499,
  "\u2581seeks": 7500,
  "\u2581suppose": 7501,
  "\u2581tsaur": 7502,
  "\u2581tsayu": 7503,
  "\u2581wurinka": 7504,
  "\u2581w\u00e3tsa": 7505,
  "\u2581z\u0169ciy\u00f5yinsu": 7506,
  "\u2581\u0199w\u00e3ya": 7507,
  "\u2581\u0253u\u0253\u0253ugar": 7508,
  "Bari": 7509,
  "camel": 7510,
  "ine": 7511,
  "\u258157": 7512,
  "\u2581Ad": 7513,
  "\u2581Asaph": 7514,
  "\u2581Charles": 7515,
  "\u2581Dutse": 7516,
  "\u2581Mahaliccin": 7517,
  "\u2581Mis\u00e3lin": 7518,
  "\u2581Reflect": 7519,
  "\u2581Tir": 7520,
  "\u2581Ubangjinsu": 7521,
  "\u2581allies": 7522,
  "\u2581az\u00e3b\u00e3": 7523,
  "\u2581below": 7524,
  "\u2581cherish": 7525,
  "\u2581disappointed": 7526,
  "\u2581disclose": 7527,
  "\u2581entering": 7528,
  "\u2581expectation": 7529,
  "\u2581footnote": 7530,
  "\u2581fuskarka": 7531,
  "\u2581greed": 7532,
  "\u2581halittarku": 7533,
  "\u2581hukuncinsa": 7534,
  "\u2581kasawa": 7535,
  "\u2581l\u00e3b\u00e3ran": 7536,
  "\u2581mar\u00e3ya": 7537,
  "\u2581multitude": 7538,
  "\u2581m\u0169gu": 7539,
  "\u2581press": 7540,
  "\u2581regarded": 7541,
  "\u2581r\u00f5\u0199on": 7542,
  "\u2581sanda": 7543,
  "\u2581similitude": 7544,
  "\u2581smoke": 7545,
  "\u2581stands": 7546,
  "\u2581stumble": 7547,
  "\u2581tunaninsa": 7548,
  "\u2581tunku\u0257\u1ebdwa": 7549,
  "\u2581voluntary": 7550,
  "\u2581yafe": 7551,
  "\u2581\u0198etarewa": 7552,
  "Ha\u0199\u0129\u0199a": 7553,
  "ddin": 7554,
  "if": 7555,
  "\u25812,000": 7556,
  "\u2581BA": 7557,
  "\u2581Haran": 7558,
  "\u2581Ruler": 7559,
  "\u2581R\u0169h": 7560,
  "\u2581Strong": 7561,
  "\u2581Urdun": 7562,
  "\u2581Yar": 7563,
  "\u2581al\u00e3ma": 7564,
  "\u2581camels": 7565,
  "\u2581claimed": 7566,
  "\u2581consult": 7567,
  "\u2581desirable": 7568,
  "\u2581grants": 7569,
  "\u2581instruct": 7570,
  "\u2581jaridar": 7571,
  "\u2581jinkirtar": 7572,
  "\u2581jure": 7573,
  "\u2581j\u1ebdre": 7574,
  "\u2581keepers": 7575,
  "\u2581killing": 7576,
  "\u2581marinj\u00e3ya": 7577,
  "\u2581maza\u0253a": 7578,
  "\u2581objective": 7579,
  "\u2581pictures": 7580,
  "\u2581rago": 7581,
  "\u2581repeated": 7582,
  "\u2581rewarding": 7583,
  "\u2581sautin": 7584,
  "\u2581separated": 7585,
  "\u2581shiriyar": 7586,
  "\u2581station": 7587,
  "\u2581supplication": 7588,
  "\u2581tayar": 7589,
  "\u2581tend": 7590,
  "\u2581tradition": 7591,
  "\u2581tsorata": 7592,
  "\u2581\u0199asarku": 7593,
  "6": 7594,
  "Noah": 7595,
  "ayinmu": 7596,
  "d\u00e3": 7597,
  "ies": 7598,
  "\u25812014": 7599,
  "\u258154": 7600,
  "\u2581Any": 7601,
  "\u2581Babylonian": 7602,
  "\u2581Besides": 7603,
  "\u2581Jon": 7604,
  "\u2581Mabuwayi": 7605,
  "\u2581Near": 7606,
  "\u2581Rebekah": 7607,
  "\u2581absorb": 7608,
  "\u2581capital": 7609,
  "\u2581counted": 7610,
  "\u2581damage": 7611,
  "\u2581exile": 7612,
  "\u2581expanded": 7613,
  "\u2581frustrate": 7614,
  "\u2581fuel": 7615,
  "\u2581gaibin": 7616,
  "\u2581halayensu": 7617,
  "\u2581harmdoers": 7618,
  "\u2581initial": 7619,
  "\u2581iy\u00e3linsa": 7620,
  "\u2581j\u1ebdfar": 7621,
  "\u2581lazimta": 7622,
  "\u2581listed": 7623,
  "\u2581m\u0169nin": 7624,
  "\u2581positions": 7625,
  "\u2581proceeded": 7626,
  "\u2581psalm": 7627,
  "\u2581realm": 7628,
  "\u2581repented": 7629,
  "\u2581r\u00f5\u0199": 7630,
  "\u2581r\u00f5\u0199a": 7631,
  "\u2581sorcery": 7632,
  "\u2581threaten": 7633,
  "\u2581y\u00e3y\u00e3": 7634,
  "\u2581zage": 7635,
  "\u2581z\u0169ciyarsa": 7636,
  "\u2581\u0257aga": 7637,
  "\u2581\u0257akin": 7638,
  "armu": 7639,
  "ary": 7640,
  "rs": 7641,
  "time": 7642,
  "um": 7643,
  "yaudari": 7644,
  "\u258114.)": 7645,
  "\u25813.)": 7646,
  "\u25818]": 7647,
  "\u2581Applet": 7648,
  "\u2581Bawan": 7649,
  "\u2581Congregation": 7650,
  "\u2581Little": 7651,
  "\u2581Owner": 7652,
  "\u2581Rifkatu": 7653,
  "\u2581Shawulu": 7654,
  "\u2581Sheol": 7655,
  "\u2581Therein": 7656,
  "\u2581Things": 7657,
  "\u2581admits": 7658,
  "\u2581advanced": 7659,
  "\u2581alamance": 7660,
  "\u2581ate": 7661,
  "\u2581boat": 7662,
  "\u2581charged": 7663,
  "\u2581deception": 7664,
  "\u2581denying": 7665,
  "\u2581deserves": 7666,
  "\u2581developing": 7667,
  "\u2581distinction": 7668,
  "\u2581dying": 7669,
  "\u2581eliminate": 7670,
  "\u2581endowed": 7671,
  "\u2581exhortation": 7672,
  "\u2581fahimc": 7673,
  "\u2581falsely": 7674,
  "\u2581gafala": 7675,
  "\u2581heritage": 7676,
  "\u2581honorable": 7677,
  "\u2581imitating": 7678,
  "\u2581iyawa": 7679,
  "\u2581kaburbura": 7680,
  "\u2581kam\u00e3": 7681,
  "\u2581lambu": 7682,
  "\u2581obstacles": 7683,
  "\u2581officials": 7684,
  "\u2581planned": 7685,
  "\u2581previously": 7686,
  "\u2581quiet": 7687,
  "\u2581remembered": 7688,
  "\u2581sauransu": 7689,
  "\u2581shortly": 7690,
  "\u2581twelve": 7691,
  "\u2581wealthy": 7692,
  "\u2581\u00e3y\u00f5yiNa": 7693,
  "Kai": 7694,
  "ata": 7695,
  "compassionate": 7696,
  "har": 7697,
  "ling": 7698,
  "what": 7699,
  "z": 7700,
  "\u25811930": 7701,
  "\u258128]": 7702,
  "\u2581Asabar": 7703,
  "\u2581Elders": 7704,
  "\u2581Kiy\u00e3ma": 7705,
  "\u2581Kusan": 7706,
  "\u2581Leader": 7707,
  "\u2581Sulaim\u00e3n": 7708,
  "\u2581afford": 7709,
  "\u2581aged": 7710,
  "\u2581arose": 7711,
  "\u2581cikakku": 7712,
  "\u2581ciniki": 7713,
  "\u2581clothes": 7714,
  "\u2581c\u0129": 7715,
  "\u2581disbelieves": 7716,
  "\u2581entirely": 7717,
  "\u2581flight": 7718,
  "\u2581gaug\u00e3wa": 7719,
  "\u2581height": 7720,
  "\u2581hopes": 7721,
  "\u2581ikilisiyoyin": 7722,
  "\u2581increasing": 7723,
  "\u2581maigidanta": 7724,
  "\u2581maintained": 7725,
  "\u2581manna": 7726,
  "\u2581manzanninSa": 7727,
  "\u2581mulmula": 7728,
  "\u2581nassosin": 7729,
  "\u2581plenty": 7730,
  "\u2581rabon": 7731,
  "\u2581rena": 7732,
  "\u2581singing": 7733,
  "\u2581tafiyarsa": 7734,
  "\u2581tsaron": 7735,
  "\u2581unfaithful": 7736,
  "\u2581\u0199ofar": 7737,
  "\u2581\u0199untata": 7738,
  "\u2581\u0199wararru": 7739,
  "kur": 7740,
  "my": 7741,
  "\u25812004": 7742,
  "\u2581Asia": 7743,
  "\u2581Bounty": 7744,
  "\u2581Faithful": 7745,
  "\u2581Godwary": 7746,
  "\u2581JEHOBAH": 7747,
  "\u2581Jericho": 7748,
  "\u2581Kawo": 7749,
  "\u2581Lut": 7750,
  "\u2581Priest": 7751,
  "\u2581Walk": 7752,
  "\u2581chastise": 7753,
  "\u2581delighted": 7754,
  "\u2581detailed": 7755,
  "\u2581disasters": 7756,
  "\u2581district": 7757,
  "\u2581exemplary": 7758,
  "\u2581garment": 7759,
  "\u2581matsayinmu": 7760,
  "\u2581milk": 7761,
  "\u2581mora": 7762,
  "\u2581played": 7763,
  "\u2581priority": 7764,
  "\u2581rahoton": 7765,
  "\u2581sam": 7766,
  "\u2581schedule": 7767,
  "\u2581solemn": 7768,
  "\u2581strange": 7769,
  "\u2581takarda": 7770,
  "\u2581transgressing": 7771,
  "\u2581withdraw": 7772,
  "\u2581zauren": 7773,
  "Knower": 7774,
  "ism": 7775,
  "others": 7776,
  "\u2581AN": 7777,
  "\u2581Kun": 7778,
  "\u2581Leave": 7779,
  "\u2581Left": 7780,
  "\u2581Maintain": 7781,
  "\u2581Next": 7782,
  "\u2581ROM": 7783,
  "\u2581Rutherford": 7784,
  "\u2581Save": 7785,
  "\u2581Wato": 7786,
  "\u2581accused": 7787,
  "\u2581captive": 7788,
  "\u2581cave": 7789,
  "\u2581changing": 7790,
  "\u2581goats": 7791,
  "\u2581horses": 7792,
  "\u2581invites": 7793,
  "\u2581ka\u0257e": 7794,
  "\u2581males": 7795,
  "\u2581ma\u0257aukaka": 7796,
  "\u2581mizanai": 7797,
  "\u2581nay": 7798,
  "\u2581rebelled": 7799,
  "\u2581replaced": 7800,
  "\u2581reputation": 7801,
  "\u2581restrain": 7802,
  "\u2581sababbi": 7803,
  "\u2581sail": 7804,
  "\u2581saya": 7805,
  "\u2581skills": 7806,
  "\u2581slander": 7807,
  "\u2581table": 7808,
  "\u2581title": 7809,
  "\u2581tsauta": 7810,
  "\u2581watchful": 7811,
  "\u2581weeping": 7812,
  "\u2581za\u0253in": 7813,
  "5": 7814,
  "awoyi": 7815,
  "ch": 7816,
  "jin": 7817,
  "masa": 7818,
  "\u258111]": 7819,
  "\u258140,": 7820,
  "\u2581Barnaba": 7821,
  "\u2581Barnabas": 7822,
  "\u2581Canaan": 7823,
  "\u2581Col": 7824,
  "\u2581Eat": 7825,
  "\u2581Ireland": 7826,
  "\u2581Jim": 7827,
  "\u2581Purpose": 7828,
  "\u2581Rayuwar": 7829,
  "\u2581Serve": 7830,
  "\u2581Sosai": 7831,
  "\u2581apparent": 7832,
  "\u2581asalin": 7833,
  "\u2581blazing": 7834,
  "\u2581crops": 7835,
  "\u2581development": 7836,
  "\u2581dialog": 7837,
  "\u2581diligent": 7838,
  "\u2581fabricated": 7839,
  "\u2581factor": 7840,
  "\u2581fat": 7841,
  "\u2581fulfilling": 7842,
  "\u2581ganewa": 7843,
  "\u2581glorified": 7844,
  "\u2581imaninsu": 7845,
  "\u2581immortal": 7846,
  "\u2581jana": 7847,
  "\u2581kokawa": 7848,
  "\u2581labor": 7849,
  "\u2581magicians": 7850,
  "\u2581olive": 7851,
  "\u2581passage": 7852,
  "\u2581percent": 7853,
  "\u2581reflects": 7854,
  "\u2581seas": 7855,
  "\u2581spite": 7856,
  "\u2581ta\u0257i": 7857,
  "\u2581treaty": 7858,
  "\u2581widows": 7859,
  "\u2581yardan": 7860,
  "\u2581\u0199alubalen": 7861,
  "Mighty": 7862,
  "Would": 7863,
  "\u2581Allahna": 7864,
  "\u2581Earl": 7865,
  "\u2581Kwana": 7866,
  "\u2581Proclaim": 7867,
  "\u2581River": 7868,
  "\u2581Shugaban": 7869,
  "\u2581Spiritual": 7870,
  "\u2581TARIHI": 7871,
  "\u2581West": 7872,
  "\u2581Yuni": 7873,
  "\u2581amincin": 7874,
  "\u2581awaiting": 7875,
  "\u2581bird": 7876,
  "\u2581clergy": 7877,
  "\u2581confirm": 7878,
  "\u2581defeat": 7879,
  "\u2581donations": 7880,
  "\u2581duhun": 7881,
  "\u2581duties": 7882,
  "\u2581encompasse": 7883,
  "\u2581executed": 7884,
  "\u2581fatawa": 7885,
  "\u2581fushin": 7886,
  "\u2581gets": 7887,
  "\u2581guarded": 7888,
  "\u2581ha\u0257ama": 7889,
  "\u2581highlights": 7890,
  "\u2581idanu": 7891,
  "\u2581kingdoms": 7892,
  "\u2581kishi": 7893,
  "\u2581lokatan": 7894,
  "\u2581maganin": 7895,
  "\u2581ma\u0199asudai": 7896,
  "\u2581nike": 7897,
  "\u2581ornaments": 7898,
  "\u2581planning": 7899,
  "\u2581proclaimers": 7900,
  "\u2581profound": 7901,
  "\u2581reliable": 7902,
  "\u2581rundunarsa": 7903,
  "\u2581sacrificial": 7904,
  "\u2581sixth": 7905,
  "\u2581successors": 7906,
  "\u2581suitable": 7907,
  "\u2581touching": 7908,
  "\u2581treacherous": 7909,
  "\u2581tsakaninmu": 7910,
  "\u2581voices": 7911,
  "\u2581\u0257igo": 7912,
  "Annabi": 7913,
  "Domin": 7914,
  "kwanaki": 7915,
  "sai": 7916,
  "too": 7917,
  "ttu": 7918,
  "up": 7919,
  "\u258135,": 7920,
  "\u2581Egyptian": 7921,
  "\u2581Hast": 7922,
  "\u2581Long": 7923,
  "\u2581Move": 7924,
  "\u2581Nations": 7925,
  "\u2581Nigeria": 7926,
  "\u2581Religion": 7927,
  "\u2581Thousand": 7928,
  "\u2581Tushen": 7929,
  "\u2581[\"": 7930,
  "\u2581angelic": 7931,
  "\u2581biranen": 7932,
  "\u2581calendar": 7933,
  "\u2581camel": 7934,
  "\u2581cikakke": 7935,
  "\u2581distinguish": 7936,
  "\u2581engag": 7937,
  "\u2581envy": 7938,
  "\u2581fargaba": 7939,
  "\u2581gentle": 7940,
  "\u2581hamsin": 7941,
  "\u2581hanyarsa": 7942,
  "\u2581humankind": 7943,
  "\u2581kasuwa": 7944,
  "\u2581kwanta": 7945,
  "\u2581kwashe": 7946,
  "\u2581memory": 7947,
  "\u2581m\u00e3tarsa": 7948,
  "\u2581prostrating": 7949,
  "\u2581rats": 7950,
  "\u2581remote": 7951,
  "\u2581ruled": 7952,
  "\u2581sayen": 7953,
  "\u2581searching": 7954,
  "\u2581seated": 7955,
  "\u2581sentence": 7956,
  "\u2581sweet": 7957,
  "\u2581tarko": 7958,
  "\u2581tawayen": 7959,
  "\u2581temper": 7960,
  "\u2581tempered": 7961,
  "\u2581thrilling": 7962,
  "\u2581tsayawa": 7963,
  "\u2581t\u00f5zarta": 7964,
  "\u2581veil": 7965,
  "\u2581won": 7966,
  "\u2581wurinku": 7967,
  "\u2581\u1e24": 7968,
  "abucin": 7969,
  "aun": 7970,
  "hin": 7971,
  "ilu": 7972,
  "\u25812015": 7973,
  "\u258163": 7974,
  "\u2581Aure": 7975,
  "\u2581Committee": 7976,
  "\u2581Death": 7977,
  "\u2581Kanada": 7978,
  "\u2581Mashaidiyar": 7979,
  "\u2581Often": 7980,
  "\u2581Pray": 7981,
  "\u2581Thereupon": 7982,
  "\u2581announced": 7983,
  "\u2581associations": 7984,
  "\u2581bayanai": 7985,
  "\u2581bought": 7986,
  "\u2581comment": 7987,
  "\u2581containing": 7988,
  "\u2581cultivating": 7989,
  "\u2581earthquake": 7990,
  "\u2581exceed": 7991,
  "\u2581exclusive": 7992,
  "\u2581generosity": 7993,
  "\u2581gush": 7994,
  "\u2581husk\u00f5ki": 7995,
  "\u2581impact": 7996,
  "\u2581j": 7997,
  "\u2581kamanta": 7998,
  "\u2581karaya": 7999,
  "\u2581kore": 8000,
  "\u2581kunnuwansu": 8001,
  "\u2581kyautatawa": 8002,
  "\u2581labartawa": 8003,
  "\u2581laifinsa": 8004,
  "\u2581level": 8005,
  "\u2581macen": 8006,
  "\u2581makamai": 8007,
  "\u2581maras": 8008,
  "\u2581ma\u0199wabtanmu": 8009,
  "\u2581preceded": 8010,
  "\u2581printed": 8011,
  "\u2581reflecting": 8012,
  "\u2581rungum": 8013,
  "\u2581safiya": 8014,
  "\u2581siffar": 8015,
  "\u2581spirits": 8016,
  "\u2581star": 8017,
  "\u2581tsabtace": 8018,
  "\u2581tsada": 8019,
  "\u2581understands": 8020,
  "\u2581wholeheartedly": 8021,
  "\u2581yaudarar": 8022,
  "\u2581yum\u0253u": 8023,
  "\u2581\u0199aramar": 8024,
  "domin": 8025,
  "iyar": 8026,
  "kada": 8027,
  "\u2581Additional": 8028,
  "\u2581Arthur": 8029,
  "\u2581Bilatus": 8030,
  "\u2581Biyu": 8031,
  "\u2581Cameron": 8032,
  "\u2581Days": 8033,
  "\u2581Face": 8034,
  "\u2581Jeroboam": 8035,
  "\u2581Talifofi": 8036,
  "\u2581Up": 8037,
  "\u2581adorned": 8038,
  "\u2581ajin": 8039,
  "\u2581allolin": 8040,
  "\u2581amincinmu": 8041,
  "\u2581appealing": 8042,
  "\u2581bayansa": 8043,
  "\u2581boys": 8044,
  "\u2581brochure": 8045,
  "\u2581confirmed": 8046,
  "\u2581daddare": 8047,
  "\u2581fallasa": 8048,
  "\u2581girls": 8049,
  "\u2581hates": 8050,
  "\u2581imprisoned": 8051,
  "\u2581iyalina": 8052,
  "\u2581kas\u00e3": 8053,
  "\u2581lacking": 8054,
  "\u2581lokacinsa": 8055,
  "\u2581makusanci": 8056,
  "\u2581mindful": 8057,
  "\u2581pity": 8058,
  "\u2581priesthood": 8059,
  "\u2581shirt": 8060,
  "\u2581shoulder": 8061,
  "\u2581strengthens": 8062,
  "\u2581trade": 8063,
  "\u2581wanka": 8064,
  "\u2581yawo": 8065,
  "ayoyi": 8066,
  "before": 8067,
  "cin": 8068,
  "l\u00f5kacin": 8069,
  "ro": 8070,
  "when": 8071,
  "\u258147)": 8072,
  "\u2581Above": 8073,
  "\u2581Ezekiyel": 8074,
  "\u2581History": 8075,
  "\u2581International": 8076,
  "\u2581Q": 8077,
  "\u2581abokansu": 8078,
  "\u2581admonish": 8079,
  "\u2581amazing": 8080,
  "\u2581anxieties": 8081,
  "\u2581bangaskiyarsa": 8082,
  "\u2581captivity": 8083,
  "\u2581dominmu": 8084,
  "\u2581examination": 8085,
  "\u2581fa\u0257\u00e3": 8086,
  "\u2581feature": 8087,
  "\u2581fitini": 8088,
  "\u2581furuci": 8089,
  "\u2581giveth": 8090,
  "\u2581humiliation": 8091,
  "\u2581id\u00e3nunsu": 8092,
  "\u2581inspiring": 8093,
  "\u2581kasala": 8094,
  "\u2581laden": 8095,
  "\u2581losing": 8096,
  "\u2581mafarkin": 8097,
  "\u2581ma\u0199iyan": 8098,
  "\u2581overlook": 8099,
  "\u2581priorities": 8100,
  "\u2581rescued": 8101,
  "\u2581respects": 8102,
  "\u2581sauko": 8103,
  "\u2581tear": 8104,
  "\u2581victim": 8105,
  "Even": 8106,
  "Happy": 8107,
  "Kuna": 8108,
  "M\u0169": 8109,
  "W": 8110,
  "abun": 8111,
  "ier": 8112,
  "isra": 8113,
  "jama": 8114,
  "nna": 8115,
  "zo": 8116,
  "\u25813,000": 8117,
  "\u258147.": 8118,
  "\u2581Daraja": 8119,
  "\u2581Everyone": 8120,
  "\u2581German": 8121,
  "\u2581Majestic": 8122,
  "\u2581Making": 8123,
  "\u2581ManzanninSa": 8124,
  "\u2581Masarawa": 8125,
  "\u2581Put": 8126,
  "\u2581Times": 8127,
  "\u2581apostates": 8128,
  "\u2581approaches": 8129,
  "\u2581aukuwar": 8130,
  "\u2581bukatu": 8131,
  "\u2581cleanse": 8132,
  "\u2581clock": 8133,
  "\u2581concealed": 8134,
  "\u2581continuing": 8135,
  "\u2581discussing": 8136,
  "\u2581d\u00e3di": 8137,
  "\u2581everywhere": 8138,
  "\u2581exercised": 8139,
  "\u2581experiencing": 8140,
  "\u2581faku": 8141,
  "\u2581fim": 8142,
  "\u2581han\u00e3": 8143,
  "\u2581heir": 8144,
  "\u2581leadership": 8145,
  "\u2581method": 8146,
  "\u2581minded": 8147,
  "\u2581m\u00e3kircin": 8148,
  "\u2581protects": 8149,
  "\u2581rendering": 8150,
  "\u2581sanctified": 8151,
  "\u2581shafin": 8152,
  "\u2581suffices": 8153,
  "\u2581tafiye": 8154,
  "\u2581wariya": 8155,
  "\u2581womb": 8156,
  "\u2581yank\u1ebdwa": 8157,
  "\u2581zamanu": 8158,
  "\u2581\u0199\u00e3ri": 8159,
  "d\u0169niya": 8160,
  "imta": 8161,
  "\u2581February": 8162,
  "\u2581Menu": 8163,
  "\u2581Zafaniya": 8164,
  "\u2581alherinsa": 8165,
  "\u2581alkama": 8166,
  "\u2581begenmu": 8167,
  "\u2581b\u00e3yinKa": 8168,
  "\u2581captives": 8169,
  "\u2581comprehend": 8170,
  "\u2581conducted": 8171,
  "\u2581continually": 8172,
  "\u2581conveyed": 8173,
  "\u2581darassi": 8174,
  "\u2581deeper": 8175,
  "\u2581denies": 8176,
  "\u2581didst": 8177,
  "\u2581disposition": 8178,
  "\u2581effectively": 8179,
  "\u2581exciting": 8180,
  "\u2581f\u00e3": 8181,
  "\u2581gar\u1ebd": 8182,
  "\u2581ga\u0257in": 8183,
  "\u2581gyaran": 8184,
  "\u2581happening": 8185,
  "\u2581headship": 8186,
  "\u2581intend": 8187,
  "\u2581laushi": 8188,
  "\u2581mazan": 8189,
  "\u2581meat": 8190,
  "\u2581misk\u0129na": 8191,
  "\u2581patriarch": 8192,
  "\u2581prior": 8193,
  "\u2581protectors": 8194,
  "\u2581rama": 8195,
  "\u2581red": 8196,
  "\u2581requited": 8197,
  "\u2581sakamakonsa": 8198,
  "\u2581shirkinku": 8199,
  "\u2581sole": 8200,
  "\u2581spared": 8201,
  "\u2581s\u00e3ke": 8202,
  "\u2581tagomashin": 8203,
  "\u2581taw\u00e3l": 8204,
  "\u2581ts\u0129ra": 8205,
  "\u2581wings": 8206,
  "\u2581yinsa": 8207,
  "\u2581zurfafa": 8208,
  "\u2581z\u00e3luncin": 8209,
  "\u2581\u0199arewa": 8210,
  "\u2581\u0199o\u0199arinsa": 8211,
  "\u2581\u0257imuwa": 8212,
  "Sun\u00e3": 8213,
  "Tafiyar": 8214,
  "Those": 8215,
  "countless": 8216,
  "id\u00e3jen": 8217,
  "ir": 8218,
  "nd\u00e3": 8219,
  "yanka": 8220,
  "z\u00e3": 8221,
  "\u0128": 8222,
  "\u258141,": 8223,
  "\u2581ALLAH": 8224,
  "\u2581Latin": 8225,
  "\u2581Loving": 8226,
  "\u2581Maza": 8227,
  "\u2581Nasara": 8228,
  "\u2581Pilate": 8229,
  "\u2581Saduma": 8230,
  "\u2581Salama": 8231,
  "\u2581Says": 8232,
  "\u2581Seed": 8233,
  "\u2581Seek": 8234,
  "\u2581Taro": 8235,
  "\u2581adhere": 8236,
  "\u2581arewa": 8237,
  "\u2581attractive": 8238,
  "\u2581barazana": 8239,
  "\u2581ba\u0199o": 8240,
  "\u2581befell": 8241,
  "\u2581behave": 8242,
  "\u2581blow": 8243,
  "\u2581breast": 8244,
  "\u2581collect": 8245,
  "\u2581comparison": 8246,
  "\u2581dread": 8247,
  "\u2581d\u0169kiy\u00f5yinku": 8248,
  "\u2581gaining": 8249,
  "\u2581girmam\u00e3wa": 8250,
  "\u2581gorancin": 8251,
  "\u2581ha\u0199\u0199i": 8252,
  "\u2581hidimarka": 8253,
  "\u2581illustrates": 8254,
  "\u2581inab\u00f5bi": 8255,
  "\u2581items": 8256,
  "\u2581jid\u00e3li": 8257,
  "\u2581j\u0169y\u00e3wa": 8258,
  "\u2581kwatsam": 8259,
  "\u2581k\u00e3wunansu": 8260,
  "\u2581k\u00f5kanto": 8261,
  "\u2581k\u00f5m\u00f5wa": 8262,
  "\u2581maf\u0129f\u0129ta": 8263,
  "\u2581minutes": 8264,
  "\u2581mourning": 8265,
  "\u2581ninka": 8266,
  "\u2581niyya": 8267,
  "\u2581pearls": 8268,
  "\u2581perceived": 8269,
  "\u2581perfectly": 8270,
  "\u2581remembering": 8271,
  "\u2581requirement": 8272,
  "\u2581shugabancin": 8273,
  "\u2581stern": 8274,
  "\u2581succeeded": 8275,
  "\u2581tafasa": 8276,
  "\u2581thine": 8277,
  "\u2581undergo": 8278,
  "\u2581waves": 8279,
  "\u2581weeds": 8280,
  "\u2581widely": 8281,
  "Salat": 8282,
  "arka": 8283,
  "ry": 8284,
  "\u25813]": 8285,
  "\u2581Dominmu": 8286,
  "\u2581Fight": 8287,
  "\u2581Ji": 8288,
  "\u2581Kamata": 8289,
  "\u2581NAN": 8290,
  "\u2581Three": 8291,
  "\u2581Whoso": 8292,
  "\u2581aikinka": 8293,
  "\u2581ashamed": 8294,
  "\u2581b\u0169\u0257e": 8295,
  "\u2581cik\u00e3": 8296,
  "\u2581conform": 8297,
  "\u2581cooperate": 8298,
  "\u2581desktop": 8299,
  "\u2581despised": 8300,
  "\u2581dreadful": 8301,
  "\u2581d\u00f5minku": 8302,
  "\u2581guiding": 8303,
  "\u2581gwauraye": 8304,
  "\u2581g\u00e3don": 8305,
  "\u2581halakakku": 8306,
  "\u2581hany\u00f5yin": 8307,
  "\u2581honoured": 8308,
  "\u2581h\u00f5r\u1ebd": 8309,
  "\u2581illustrated": 8310,
  "\u2581ilmin": 8311,
  "\u2581insolent": 8312,
  "\u2581lightning": 8313,
  "\u2581mabiya": 8314,
  "\u2581matarwa": 8315,
  "\u2581mockery": 8316,
  "\u2581muhimmiya": 8317,
  "\u2581mumm\u0169nan": 8318,
  "\u2581northern": 8319,
  "\u2581peer": 8320,
  "\u2581pleasures": 8321,
  "\u2581reads": 8322,
  "\u2581rub\u0169t\u00e3wa": 8323,
  "\u2581sako": 8324,
  "\u2581sanctuary": 8325,
  "\u2581shameful": 8326,
  "\u2581shu\u0257e": 8327,
  "\u2581silk": 8328,
  "\u2581sing": 8329,
  "\u2581texts": 8330,
  "\u2581thorough": 8331,
  "\u2581tools": 8332,
  "\u2581vary": 8333,
  "\u2581vegetation": 8334,
  "\u2581\u0199af\u00e3fu": 8335,
  "\u2581\u0199aryat\u00e3": 8336,
  "\u2581\u0199oshi": 8337,
  "\u2581\u0253oyewa": 8338,
  "ED": 8339,
  "Joseph": 8340,
  "kin": 8341,
  "put": 8342,
  "\u2581133": 8343,
  "\u258121.)": 8344,
  "\u258142)": 8345,
  "\u258146.": 8346,
  "\u2581FOR": 8347,
  "\u2581Gabriel": 8348,
  "\u2581Hud": 8349,
  "\u2581Kudu": 8350,
  "\u2581Shepherd": 8351,
  "\u2581WHEN": 8352,
  "\u2581Window": 8353,
  "\u2581belonged": 8354,
  "\u2581commits": 8355,
  "\u2581computer": 8356,
  "\u2581culture": 8357,
  "\u2581dictionary": 8358,
  "\u2581fashioned": 8359,
  "\u2581friendships": 8360,
  "\u2581gabanin": 8361,
  "\u2581gafalallu": 8362,
  "\u2581gamsu": 8363,
  "\u2581haddasa": 8364,
  "\u2581ha\u0199urin": 8365,
  "\u2581ha\u0199\u0129": 8366,
  "\u2581hukumar": 8367,
  "\u2581hungry": 8368,
  "\u2581ikilisiyarmu": 8369,
  "\u2581jikinmu": 8370,
  "\u2581ji\u0253inta": 8371,
  "\u2581judgments": 8372,
  "\u2581kaciya": 8373,
  "\u2581k\u00f5gon": 8374,
  "\u2581magician": 8375,
  "\u2581maigidana": 8376,
  "\u2581makasudai": 8377,
  "\u2581masihirta": 8378,
  "\u2581nisan": 8379,
  "\u2581pregnant": 8380,
  "\u2581previous": 8381,
  "\u2581prophesied": 8382,
  "\u2581rab\u00f5": 8383,
  "\u2581sand": 8384,
  "\u2581strikes": 8385,
  "\u2581sudden": 8386,
  "\u2581torn": 8387,
  "\u2581urgent": 8388,
  "\u2581wad\u00e3ta": 8389,
  "\u2581warfare": 8390,
  "\u2581zaki": 8391,
  ">": 8392,
  "Alone": 8393,
  "Wahayi": 8394,
  "Wane": 8395,
  "Wani": 8396,
  "ius": 8397,
  "nau": 8398,
  "new": 8399,
  "\u258197": 8400,
  "\u2581Gold": 8401,
  "\u2581Jeri": 8402,
  "\u2581Jude": 8403,
  "\u2581Ka\u0257an": 8404,
  "\u2581November": 8405,
  "\u2581Shiryoyi": 8406,
  "\u2581S\u00e3lihu": 8407,
  "\u2581Yanayin": 8408,
  "\u2581Za\u0253i": 8409,
  "\u2581alkawarinta": 8410,
  "\u2581apostate": 8411,
  "\u2581a\u0199alla": 8412,
  "\u2581bliss": 8413,
[...]
