{
  "</s>": 0,
  "<unk>": 1,
  ",": 2,
  ".": 3,
  "\u2581a": 4,
  "\u2581no": 5,
  "\u2581\"": 6,
  "\u2581the": 7,
  "\u2581s\u025b": 8,
  "\u2581na": 9,
  "\u2581to": 10,
  "\u2581of": 11,
  "\u2581ne": 12,
  "\u2581mu": 13,
  "\u2581and": 14,
  "\u2581ho": 15,
  "\u2581so": 16,
  "\u2581-": 17,
  "\u2581w\u0254": 18,
  "?": 19,
  "\u2581in": 20,
  ":": 21,
  "'": 22,
  "\u2581w\u0254n": 23,
  "s": 24,
  "\u2581that": 25,
  "\u2581is": 26,
  "\u2581bi": 27,
  "\u2581y\u025bn": 28,
  "\u2581for": 29,
  "\u2581ma": 30,
  "\u2581de": 31,
  "\u2581Bible": 32,
  "\u2581Jehovah": 33,
  "\u2581Yehowa": 34,
  "\u2581me": 35,
  "\u2581y\u025b": 36,
  "\u2581was": 37,
  "\u2581God": 38,
  "\u2581his": 39,
  "\u2581with": 40,
  "\u2581be": 41,
  "\u2581": 42,
  "\u2581we": 43,
  "\u2581saa": 44,
  "\u2581bere": 45,
  "\u2581Onyankop\u0254n": 46,
  "\u2581not": 47,
  "\u2581you": 48,
  "\u2581I": 49,
  "\u2581yi": 50,
  "\u2581on": 51,
  "\u2581as": 52,
  "\u2581nea": 53,
  "\u2581The": 54,
  "a": 55,
  "\u2581wo": 56,
  "\u2581are": 57,
  "\u2581'": 58,
  "\u2581h\u0254": 59,
  "\u2581nyinaa": 60,
  "\u2581have": 61,
  "\u2581he": 62,
  "\u2581will": 63,
  "\u2581it": 64,
  "\u2581as\u025bm": 65,
  "\u2581pii": 66,
  "\u2581n": 67,
  "\u2581by": 68,
  "\u2581ase": 69,
  "\u2581S\u025b": 70,
  "\u2581from": 71,
  "\u2581nso": 72,
  "\u2581(": 73,
  "!": 74,
  "\u2581their": 75,
  "\u2581biara": 76,
  "\u2581[": 77,
  ";": 78,
  "\u2581ka": 79,
  "\u2581they": 80,
  "\u2581can": 81,
  "\u2581Yesu": 82,
  "\u2581our": 83,
  "\u2581who": 84,
  "\u2581nnipa": 85,
  "\u2581or": 86,
  "\u2581Jesus": 87,
  "\u2581this": 88,
  "ing": 89,
  ")": 90,
  "e": 91,
  "\u2581us": 92,
  "\u2581w\u0254de": 93,
  "\u2581ara": 94,
  "\u2581adi": 95,
  "\u2581s\u025bnea": 96,
  "\u2581were": 97,
  "\u25811": 98,
  "\u2581nti": 99,
  "\u2581ama": 100,
  "\u2581adwuma": 101,
  "\u2581what": 102,
  "\u2581Nanso": 103,
  "\u2581anaa": 104,
  "\u2581do": 105,
  "\u2581had": 106,
  "\u2581ahorow": 107,
  "\u2581one": 108,
  "\u2581all": 109,
  "\u2581at": 110,
  "\u2581\u025by\u025b": 111,
  "\u2581What": 112,
  "\u2581your": 113,
  "\u2581da": 114,
  "]": 115,
  "\u2581nne\u025bma": 116,
  "\u2581ns\u025bm": 117,
  "\u2581people": 118,
  "\u2581In": 119,
  "\u2581them": 120,
  "\u2581an": 121,
  "\u2581\u025bs\u025b": 122,
  "\u2581ay\u025b": 123,
  "\u2581him": 124,
  "\u2581A": 125,
  "\u2581has": 126,
  "\u2581Bere": 127,
  "\u2581about": 128,
  "\u2581b\u025bn": 129,
  "\u2581my": 130,
  "\u2581would": 131,
  "\u2581foforo": 132,
  "\u2581when": 133,
  "\u2581obi": 134,
  "\u2581D\u025bn": 135,
  "\u2581k\u025bse": 136,
  "\u2581W\u0254": 137,
  "\u2581kyer\u025b": 138,
  "\u2581time": 139,
  "\u2581\u025bw\u0254": 140,
  "\u2581So": 141,
  "\u2581may": 142,
  "\u2581den": 143,
  "\u2581did": 144,
  "\u2581ani": 145,
  "\u2581N\u00e1": 146,
  "\u2581life": 147,
  "\u2581yiye": 148,
  "\u2581How": 149,
  "\u2581but": 150,
  "\u2581di": 151,
  "\u2581kwan": 152,
  "\u2581nanso": 153,
  "\u2581ade": 154,
  "\u2581Kristofo": 155,
  "\u2581te": 156,
  "\u2581akyi": 157,
  "\u2581fam": 158,
  "\u2581betumi": 159,
  "\u2581those": 160,
  "\u2581mo": 161,
  "\u2581Na": 162,
  "\u2581more": 163,
  "\u2581mma": 164,
  "\u2581d\u025bn": 165,
  "\u2581He": 166,
  "\u2581nokware": 167,
  "\u2581some": 168,
  "\u2581nni": 169,
  "\u2581w\u0254w\u0254": 170,
  "\u2581koraa": 171,
  "\u2581ankasa": 172,
  "\u2581afoforo": 173,
  "\u2581mfe": 174,
  "\u2581also": 175,
  "\u2581nkur\u0254fo": 176,
  "\u2581her": 177,
  "\u2581maa": 178,
  "\u2581been": 179,
  "\u2581pa": 180,
  "\u2581fi": 181,
  "\u2581w": 182,
  "\u2581nhoma": 183,
  "\u2581wiase": 184,
  "\u2581out": 185,
  "\u2581p\u025b": 186,
  "\u2581\u0254de": 187,
  "\u2581Witnesses": 188,
  "\u2581honhom": 189,
  "\u2581b\u0254ne": 190,
  "\u2581It": 191,
  "\u2581many": 192,
  "\u2581asase": 193,
  "\u2581adwene": 194,
  "\u2581kan": 195,
  "\u2581such": 196,
  "\u025b": 197,
  "\u2581\u025bte": 198,
  "\u2581help": 199,
  "\u2581edi": 200,
  "\u2581how": 201,
  "\u2581man": 202,
  "\u2581dwuma": 203,
  "\u2581Enti": 204,
  "\u2581kae": 205,
  "\u2581ba": 206,
  "\u2581paa": 207,
  "\u2581aba": 208,
  "\u2581up": 209,
  "\u2581mpo": 210,
  "\u2581there": 211,
  "\u2581w\u0254y\u025b": 212,
  "\u2581/": 213,
  "ed": 214,
  "\u2581good": 215,
  "\u2581anigye": 216,
  "\u2581Adansefo": 217,
  "\u2581b\u025by\u025b": 218,
  "\u2581m": 219,
  "\u2581b\u0254": 220,
  "\u2581Nea": 221,
  "\u2581daa": 222,
  "\u2581tumi": 223,
  "\u2581We": 224,
  "\u2581gye": 225,
  "\u2581asafo": 226,
  "\u2581world": 227,
  "\u2581Paul": 228,
  "\u2581if": 229,
  "\u2581other": 230,
  "\u2581Paulo": 231,
  "\u2581should": 232,
  "\u2581said": 233,
  "\u2581kyer\u025b\u025b": 234,
  "ani": 235,
  "\u2581way": 236,
  "\u2581ano": 237,
  "\u2581work": 238,
  "\u2581things": 239,
  "\u2581than": 240,
  "\u2581does": 241,
  "\u25812": 242,
  "\"": 243,
  "\u2581biako": 244,
  "\u2581k\u0254": 245,
  "\u2581afi": 246,
  "\u2581love": 247,
  "\u2581even": 248,
  "b": 249,
  "\u2581som": 250,
  "\u2581But": 251,
  "\u2581Christian": 252,
  "\u25815": 253,
  "\u2581years": 254,
  "\u2581these": 255,
  "\u2581could": 256,
  "\u2581When": 257,
  "\u2581into": 258,
  "\u2581\u0254y\u025b": 259,
  "\u2581day": 260,
  "\u2581hia": 261,
  "\u2581Saa": 262,
  "\u2581which": 263,
  "\u2581aka": 264,
  "\u2581make": 265,
  "\u2581Satan": 266,
  "\u2581din": 267,
  "\u2581page": 268,
  "\u2581\u025bny\u025b": 269,
  "\u258115": 270,
  "\u2581nkwa": 271,
  "\u2581she": 272,
  "\u2581kasa": 273,
  "\u2581biribi": 274,
  "\u2581anya": 275,
  "\u2581children": 276,
  "ly": 277,
  "\u2581earth": 278,
  "\u2581enti": 279,
  "\u2581They": 280,
  "\u2581eyi": 281,
  "\u2581This": 282,
  "\u2581y\u025b\u025b": 283,
  "\u2581kaa": 284,
  "\u2581emu": 285,
  "\u2581Christians": 286,
  "\u2581Why": 287,
  "\u2581first": 288,
  "\u2581\u025bma": 289,
  "\u2581Kristo": 290,
  "\u2581only": 291,
  "\u2581others": 292,
  "\u2581sen": 293,
  "\u2581Christ": 294,
  "\u2581nhw\u025bso": 295,
  "\u2581For": 296,
  "\u2581Kingdom": 297,
  "\u2581gyidi": 298,
  "\u2581hw\u025b": 299,
  "\u2581nsa": 300,
  "\u2581ny\u025b": 301,
  "\u2581because": 302,
  "\u2581k\u0254\u0254": 303,
  "\u2581yebetumi": 304,
  "\u2581family": 305,
  "\u2581says": 306,
  "\u2581\u025bb\u025by\u025b": 307,
  "\u2581anim": 308,
  "\u2581\u0254kwan": 309,
  "\u2581y\u025bde": 310,
  "\u2581Nyankop\u0254n": 311,
  "\u2581fii": 312,
  "\u2581\u0254w\u0254": 313,
  "\u2581afe": 314,
  "\u2581nka": 315,
  "\u2581need": 316,
  "\u2581Israel": 317,
  "\u2581wom": 318,
  "kratafa": 319,
  "\u25813:": 320,
  "\u2581efis\u025b": 321,
  "\u2581being": 322,
  "\u2581titiriw": 323,
  "\u2581made": 324,
  "\u2581As": 325,
  "\u2581faith": 326,
  "\u2581If": 327,
  "\u2581example": 328,
  "\u2581spirit": 329,
  "\u2581Ahenni": 330,
  "\u2581hu": 331,
  "\u2581over": 332,
  "the": 333,
  "\u2581must": 334,
  "\u2581\u025bho": 335,
  "\u2581mm\u0254den": 336,
  "\u2581\u0186kwan": 337,
  "\u2581like": 338,
  "\u2581too": 339,
  "\u25812:": 340,
  "\u2581As\u025bm": 341,
  "\u2581dodow": 342,
  "\u2581*": 343,
  "\u2581Afei": 344,
  "\u2581bo": 345,
  "\u2581koma": 346,
  "\u2581fa": 347,
  "\u2581see": 348,
  "\u2581\u0254d\u0254": 349,
  "...": 350,
  "\u2581then": 351,
  "\u2581You": 352,
  "\u2581mmofra": 353,
  "\u2022": 354,
  "\u2581congregation": 355,
  "\u2581know": 356,
  "\u2581mmom": 357,
  "\u25816": 358,
  "\u25814": 359,
  "\u2581its": 360,
  "n": 361,
  "\u2581S\u025bnea": 362,
  "t": 363,
  "\u2581dii": 364,
  "\u2581spiritual": 365,
  "\u2581well": 366,
  "\u2581\u025bne": 367,
  "\u2581nhyiam": 368,
  "\u2581ebia": 369,
  "\u2581baabi": 370,
  "\u2581take": 371,
  "\u2581come": 372,
  "\u2581true": 373,
  "\u2581aboa": 374,
  "\u2581bio": 375,
  "\u2581own": 376,
  "\u2581ebetumi": 377,
  "\u2581just": 378,
  "\u2581become": 379,
  "\u2581anka": 380,
  "\u2581And": 381,
  "\u2581mmoa": 382,
  "\u2581akyer\u025b": 383,
  "\u2581heart": 384,
  "\u2581after": 385,
  "\u2581tebea": 386,
  "\u2581before": 387,
  "\u2581nn\u025b": 388,
  "\u2581W\u0254n": 389,
  "\u2581ntam": 390,
  "\u2581mfaso": 391,
  "\u2581words": 392,
  "\u2581death": 393,
  "\u2581ak\u0254": 394,
  "\u2581now": 395,
  "\u2581ones": 396,
  "\u258113": 397,
  "\u2581new": 398,
  "\u2581No": 399,
  "\u2581obiara": 400,
  "\u2581nna": 401,
  "\u2581Wo": 402,
  "\u2581any": 403,
  "\u2581fie": 404,
  "\u2581two": 405,
  "\u2581hy\u025b": 406,
  "\u2581y\u025by\u025b": 407,
  "\u2581parents": 408,
  "\u2581men": 409,
  "\u258112": 410,
  "\u2581mmara": 411,
  "\u2581very": 412,
  "\u2581John": 413,
  "\u2581another": 414,
  "\u2581ansa": 415,
  "\u2581abusua": 416,
  "\u2581\u025bno": 417,
  "\u25811,": 418,
  "\u2581nhyehy\u025be": 419,
  "\u2581onipa": 420,
  "\u2581much": 421,
  "d": 422,
  "\u2581nya": 423,
  "\u2581b\u0254\u0254": 424,
  "\u2581That": 425,
  "\u2581give": 426,
  "\u2581papa": 427,
  "\u2581sika": 428,
  "\u2581study": 429,
  "\u2581times": 430,
  "\u2581through": 431,
  "\u2581Picture": 432,
  "\u2581Esian": 433,
  "\u258114": 434,
  "\u25818": 435,
  "\u2581abien": 436,
  "\u2581Mfonini": 437,
  "\u258111": 438,
  "\u2581home": 439,
  "\u2581nkutoo": 440,
  "\u2581today": 441,
  "\u2581most": 442,
  "\u2581ahy\u025b": 443,
  "\u2581Me": 444,
  "\u2581baa": 445,
  "\u2581name": 446,
  "\u2581\u025bkyer\u025b": 447,
  "\u2581New": 448,
  "\u2581person": 449,
  "\u258110": 450,
  "\u2581awiei": 451,
  "\u2581might": 452,
  "\u2581\u0254ne": 453,
  "\u2581truth": 454,
  "\u2581hokwan": 455,
  "y\u025b\u025b": 456,
  "\u2581anaas\u025b": 457,
  "\u2581asetra": 458,
  "\u2581adesua": 459,
  "\u2581Y\u025bn": 460,
  "m": 461,
  "\u25817": 462,
  "\u2581hy\u025b\u025b": 463,
  "E": 464,
  "\u2581One": 465,
  "\u2581where": 466,
  "u": 467,
  "\u2581young": 468,
  "\u2581To": 469,
  "\u2581Ho": 470,
  "\u2581Word": 471,
  "\u2581feel": 472,
  "\u2581great": 473,
  "\u2581Nokwarem": 474,
  "\u2581part": 475,
  "\u2581put": 476,
  "\u2581akyiri": 477,
  "fo": 478,
  "\u2581brothers": 479,
  "\u2581found": 480,
  "\u258120": 481,
  "\u2581yehu": 482,
  "\u2581nkuran": 483,
  "\u2581say": 484,
  "\u2581ni": 485,
  "\u2581year": 486,
  "\u2581mpae": 487,
  "\u2581\u025bda": 488,
  "\u2581find": 489,
  "I": 490,
  "\u2581\u0190wom": 491,
  "\u2581each": 492,
  "\u2581efi": 493,
  "\u2581horow": 494,
  "\u2581Eyi": 495,
  "\u2581David": 496,
  "\u2581soro": 497,
  "\u2581su": 498,
  "S": 499,
  "\u2581against": 500,
  "\u2581nky\u025bn": 501,
  "\u2581C": 502,
  "\u2581ti": 503,
  "\u2581gyina": 504,
  "\u2581book": 505,
  "\u2581human": 506,
  "\u2581use": 507,
  "\u2581N": 508,
  "\u25819": 509,
  "\u2581mpanyimfo": 510,
  "\u2581\u025bto": 511,
  "\u2581However": 512,
  "\u2581apostle": 513,
  "\u2581w\u0254ka": 514,
  "\u2581\u0254haw": 515,
  "\u2581wodi": 516,
  "\u2581awofo": 517,
  "\u2581Abraham": 518,
  "\u2581\u0190y\u025b": 519,
  "\u2581Nnipa": 520,
  "\u2581\u0254p\u025b": 521,
  "\u2581himself": 522,
  "\u2581aware": 523,
  "\u2581Mu": 524,
  "\u2581as\u025bnka": 525,
  "\u2581keep": 526,
  "\u2581\u0190s\u025b": 527,
  "\u2581\u0254man": 528,
  "\u2581Ne": 529,
  "\u2581biribiara": 530,
  "\u2581d\u0254": 531,
  "\u2581aman": 532,
  "\u2581\u025bfata": 533,
  "\u2581long": 534,
  "\u2581never": 535,
  "\u2581same": 536,
  "\u2581Some": 537,
  "\u2581esiane": 538,
  "\u2581means": 539,
  "\u2581b\u025bma": 540,
  "\u2581\u0254som": 541,
  "\u2581Do": 542,
  "\u2581wrote": 543,
  "\u25813": 544,
  "\u2581Dawid": 545,
  "\u2581learn": 546,
  "o": 547,
  "\u2581Peter": 548,
  "\u2581Hw\u025b": 549,
  "\u2581w\u0254ne": 550,
  "\u2581get": 551,
  "Yehowa": 552,
  "\u2581though": 553,
  "\u2581mmarima": 554,
  "\u2581often": 555,
  "\u2581under": 556,
  "\u2581agye": 557,
  "\u2581used": 558,
  "y": 559,
  "\u2581end": 560,
  "\u2581mfonini": 561,
  "\u2581show": 562,
  "\u2581why": 563,
  "\u2581right": 564,
  "\u2581koro": 565,
  "\u2581tete": 566,
  "\u2581asomdwoe": 567,
  "\u2581\u025bka": 568,
  "\u2581upon": 569,
  "\u2581mmere": 570,
  "\u2581place": 571,
  "\u2581important": 572,
  "\u2581At": 573,
  "\u258117": 574,
  "\u2581every": 575,
  "\u2581nyansa": 576,
  "\u2581nkyer\u025bkyer\u025b": 577,
  "\u2581yenya": 578,
  "\u2581go": 579,
  "\u2581became": 580,
  "\u2581yare": 581,
  "\u2581mmea": 582,
  "\u2581\u025bfa": 583,
  "\u2581Kyer\u025bwns\u025bm": 584,
  "\u2581nam": 585,
  "\u2581Ma": 586,
  "\u2581kyer\u025bkyer\u025b": 587,
  "\u2581\u025bde": 588,
  "\u2581Yohane": 589,
  "\u2581read": 590,
  "\u2581y\u025bw\u0254": 591,
  "\u2581worship": 592,
  "\u2581back": 593,
  "\u2581O": 594,
  "\u2581course": 595,
  "\u2581After": 596,
  "\u2581came": 597,
  "\u2581si": 598,
  "\u2581Father": 599,
  "\u2581days": 600,
  "\u258121": 601,
  "\u2581nimde\u025b": 602,
  "\u2581want": 603,
  "\u2581Petro": 604,
  "\u2581faithful": 605,
  "\u2581word": 606,
  "\u2581anidaso": 607,
  "\u2581W": 608,
  "\u2581down": 609,
  "\u2581wubetumi": 610,
  "\u2581\u025b": 611,
  "\u2581among": 612,
  "\u2581wobetumi": 613,
  "\u2581wife": 614,
  "\u2581called": 615,
  "\u2581M": 616,
  "),": 617,
  "\u2581during": 618,
  "\u2581nsu": 619,
  "\u2581let": 620,
  "\u2581live": 621,
  "\u2581news": 622,
  "\u2581aduan": 623,
  "\u2581w\u0254fr\u025b": 624,
  "\u2581\u025bb\u025bma": 625,
  "\u2581Dwom": 626,
  "\u2581Is": 627,
  "\u0301": 628,
  "\u2581\u0190no": 629,
  "\u2581f\u00e3": 630,
  "\u2581sii": 631,
  "\u2581Israelfo": 632,
  "\u2581Adam": 633,
  "\u2581ehia": 634,
  "\u2581ministry": 635,
  "B": 636,
  "\u2581away": 637,
  "\u2581ahu": 638,
  "\u2581kronkron": 639,
  "\u2581as\u025bmpa": 640,
  "\u2581\u0186": 641,
  "\u2581Matthew": 642,
  "\u2581told": 643,
  "\u2581gyinae": 644,
  "\u2581nyaa": 645,
  "\u2581later": 646,
  "\u2581still": 647,
  "\u2581preaching": 648,
  "\u2581mind": 649,
  "\u2581K": 650,
  "\u2581boa": 651,
  "\u2581adanse": 652,
  "\u2581hope": 653,
  "\u258116": 654,
  "\u2581view": 655,
  "\u2581began": 656,
  "\u2581\u0254no": 657,
  "\u2581Yudafo": 658,
  "\u2581century": 659,
  "\u2581Ebia": 660,
  "\u2581There": 661,
  "\u2581knowledge": 662,
  "\u2581b\u025bba": 663,
  "\u2581old": 664,
  "\u2581yere": 665,
  "\u2581Mateo": 666,
  "\u258119": 667,
  "\u2581service": 668,
  "\u2581three": 669,
  "\u2581y\u025be": 670,
  "\u2581\u025bns\u025b": 671,
  "\u2581By": 672,
  "\u25814.": 673,
  "\u2581given": 674,
  "\u2581sukuu": 675,
  "\u2581ab\u0254": 676,
  "\u2581Y\u025b": 677,
  "\u2581Psalm": 678,
  "The": 679,
  "\u2581themselves": 680,
  "\u2581B": 681,
  "\u2581am": 682,
  "\u2581susuw": 683,
  "\u2581NW": 684,
  "\u2581mfa": 685,
  "\u2581peace": 686,
  "\u2581living": 687,
  "\u2581Scriptures": 688,
  "\u2581nt\u025bm": 689,
  "\u2581mogya": 690,
  "\u25814:": 691,
  "\u2581doing": 692,
  "\u25812.": 693,
  "\u2581ban": 694,
  "\u2581serve": 695,
  "\u2581sua": 696,
  "\u2581able": 697,
  "\u2581wode": 698,
  "\u258110.": 699,
  "adwene": 700,
  "\u2581holy": 701,
  "\u2581y\u025bne": 702,
  "\u2581\u0254barima": 703,
  "\u2581without": 704,
  "\u2581nwonwa": 705,
  "\u2581w\u0254te": 706,
  "\u25a1": 707,
  "\u2581On": 708,
  "\u2581afotu": 709,
  "\u2581She": 710,
  "\u2581child": 711,
  "\u2581kakra": 712,
  "\u2581however": 713,
  "\u258122": 714,
  "A": 715,
  "\u2581gave": 716,
  "\u2581akwan": 717,
  "\u2581aho\u0254den": 718,
  "\u2581power": 719,
  "\u2581ebinom": 720,
  "\u2581With": 721,
  "\u2581asi": 722,
  "\u258125": 723,
  "\u2581Yes": 724,
  "\u2581hwehw\u025b": 725,
  "w": 726,
  "\u2581gu": 727,
  "\u2581krataa": 728,
  "\u2581set": 729,
  "\u2581asu": 730,
  "i": 731,
  "\u2581afa": 732,
  "\u2581E": 733,
  "\u2581Mose": 734,
  "\u2581result": 735,
  "\u2581father": 736,
  "\u2581house": 737,
  "\u2581kyer\u025bw": 738,
  "\u2581wer\u025b": 739,
  "\u25818.": 740,
  "\u2581kurow": 741,
  "\u2581bae": 742,
  "\u2581adesamma": 743,
  "\u2581dwumadi": 744,
  "\u2581always": 745,
  "\u2581\u0254bea": 746,
  "\u25811:": 747,
  "\u2581asomfo": 748,
  "\u2581Then": 749,
  "\u2581ahotoso": 750,
  "\u2581anuanom": 751,
  "\u25817.": 752,
  "\u2581both": 753,
  "\u2581\u0254kae": 754,
  "\u2581disciples": 755,
  "\u2581while": 756,
  "\u2581mp\u025bn": 757,
  "\u2581owu": 758,
  "\u2581asked": 759,
  "\u2581making": 760,
  "\u258114.": 761,
  "\u2581ways": 762,
  "\u2581Many": 763,
  "\u2581religious": 764,
  "\u258124": 765,
  "\u2581King": 766,
  "\u2581His": 767,
  "\u2581mede": 768,
  "\u258113.": 769,
  "\u2581Our": 770,
  "\u2581full": 771,
  "\u2581fact": 772,
  "\u2581bu": 773,
  "\u2581sin": 774,
  "\u25815.": 775,
  "\u2581nnwuma": 776,
  "\u2581atwam": 777,
  "\u2581dua": 778,
  "\u2581humans": 779,
  "\u2581loving": 780,
  "\u2581ntumi": 781,
  "\u2581\u0254ka": 782,
  "\u2581mother": 783,
  "\u2581kuw": 784,
  "\u2581abusuab\u0254": 785,
  "\u2581Yet": 786,
  "\u2581Daniel": 787,
  "\u2581wu": 788,
  "\u2581took": 789,
  "\u2581think": 790,
  "\u2581Even": 791,
  "\u2581nim": 792,
  "\u2581consider": 793,
  "\u2581something": 794,
  "er": 795,
  "\u2581hand": 796,
  "\u25819.": 797,
  "\u2581Ns\u025bm": 798,
  "\u258111.": 799,
  "\u2581States": 800,
  "\u2581mankind": 801,
  "\u2581ntease": 802,
  "\u2581tiaa": 803,
  "ankasa": 804,
  "\u258130": 805,
  "\u2581asiane": 806,
  "\u2581Kristoni": 807,
  "\u2581whom": 808,
  "\u2581wonya": 809,
  "\u2581order": 810,
  "\u25816:": 811,
  "\u2581Genesis": 812,
  "\u2581future": 813,
  "\u2581World": 814,
  "\u258112.": 815,
  "\u2581daakye": 816,
  "\u2581reason": 817,
  "\u2581abofra": 818,
  "\u2581servants": 819,
  "\u258115,": 820,
  "\u258117.": 821,
  "\u2581bedi": 822,
  "\u2581hwee": 823,
  "\u2581personal": 824,
  "\u2581between": 825,
  "\u2581wonni": 826,
  "\u2581article": 827,
  "\u2581\u0190ny\u025b": 828,
  "\u2581woman": 829,
  "tumi": 830,
  "\u2581really": 831,
  "\u2581purpose": 832,
  "\u2581Aban": 833,
  "\u2581having": 834,
  "\u2581marriage": 835,
  "\u2581baanu": 836,
  "\u2581number": 837,
  "\u2581nko": 838,
  "\u258116.": 839,
  "\u2581husband": 840,
  "\u2581Jerusalem": 841,
  "\u2581mufo": 842,
  "\u2581Yesaia": 843,
  "\u2581honam": 844,
  "\u2581fellow": 845,
  "\u2581food": 846,
  "\u25816.": 847,
  "\u2581afeha": 848,
  "\u2581Isaiah": 849,
  "\u258115.": 850,
  "\u2581faa": 851,
  "al": 852,
  "\u2581kosi": 853,
  "\u2581gyee": 854,
  "\u2581afei": 855,
  "\u2581nuanom": 856,
  "\u2581someone": 857,
  "\u25813.": 858,
  "\u2581together": 859,
  "\u2581son": 860,
  "\u2581anuonyam": 861,
  "\u2581nney\u025be": 862,
  "\u2581pefee": 863,
  "th": 864,
  "\u2581abi\u025bsa": 865,
  "\u2581joy": 866,
  "\u2581My": 867,
  "\u2581W\u0254de": 868,
  "\u258118": 869,
  "\u2581From": 870,
  "\u2581city": 871,
  "\u2581toward": 872,
  "\u2581akwankyer\u025b": 873,
  "\u2581meetings": 874,
  "\u2581care": 875,
  "\u2581few": 876,
  "\u2581little": 877,
  "\u2581as\u0254re": 878,
  "\u2581denam": 879,
  "\u2581Watchtower": 880,
  "\u2581ko": 881,
  "\u2581questions": 882,
  "\u2581women": 883,
  "\u2581kyer\u025bwee": 884,
  "\u2581haw": 885,
  "\u2581wofi": 886,
  "\u2581b\u025bboro": 887,
  "\u2581nnim": 888,
  "S\u025b": 889,
  "\u2581w\u0254ay\u025b": 890,
  "\u2581lives": 891,
  "\u2581experience": 892,
  "\u2581look": 893,
  "\u2581problems": 894,
  "\u2581komam": 895,
  "\u2581\u0254somafo": 896,
  "\u2581mpaeb\u0254": 897,
  "\u2581benya": 898,
  "....": 899,
  "\u2581Ase": 900,
  "\u2581\u0254soro": 901,
  "\u2581Moses": 902,
  "atumi": 903,
  "\u2581brother": 904,
  "\u2581binom": 905,
  "\u2581Yerusalem": 906,
  "\u2581again": 907,
  "\u2581left": 908,
  "\u2581eye": 909,
  "\u2581\u0254pepem": 910,
  "\u2581nyamesom": 911,
  "\u2581obetumi": 912,
  "\u2581free": 913,
  "\u2581taa": 914,
  "\u2581\u0254b\u025by\u025b": 915,
  "\u2581helped": 916,
  "\u258123": 917,
  "\u2581Ade": 918,
  "\u2581bring": 919,
  "\u2581Son": 920,
  "\u2581\u0186w\u025bn": 921,
  "\u2581learned": 922,
  "\u2581Ba": 923,
  "\u2581These": 924,
  "\u2581fear": 925,
  "\u2581tom": 926,
  "\u258128": 927,
  "\u2581S": 928,
  "\u2581prayer": 929,
  "\u0254": 930,
  "\u2581done": 931,
  "\u2581needed": 932,
  "\u2581since": 933,
  "\u2581w\u0254p\u025b": 934,
  "\u2581tell": 935,
  "\u25818,": 936,
  "\u2581Mmebus\u025bm": 937,
  "\u2581blood": 938,
  "\u2581happy": 939,
  "\u2581heaven": 940,
  "\u2581w\u0254b\u0254": 941,
  "\u2581better": 942,
  "\u2581mf\u025bfo": 943,
  "\u2581felt": 944,
  "\u2581kakraa": 945,
  "\u2581Proverbs": 946,
  "\u2581wisdom": 947,
  "\u2581mfomso": 948,
  "\u2581last": 949,
  "\u2581possible": 950,
  "\u2581elders": 951,
  "\u2581following": 952,
  "\u2581dedaw": 953,
  "\u2581begye": 954,
  "\u2581different": 955,
  "\u2581mmuae": 956,
  "\u2581off": 957,
  "\u2581anointed": 958,
  "\u2581Y": 959,
  "\u2581obu": 960,
  "\u2581nsakrae": 961,
  "\u2581nations": 962,
  "\u2581kunu": 963,
  "\u2581mmeae": 964,
  "\u2581water": 965,
  "\u2581nkyer\u025b": 966,
  "\u2581wicked": 967,
  "\u2581went": 968,
  "\u25813,": 969,
  "\u2581counsel": 970,
  "\u2581face": 971,
  "\u2581All": 972,
  "\u2581mmer\u025bw": 973,
  "\u2581Israelites": 974,
  "\u2581s\u0254hw\u025b": 975,
  "\u2581conduct": 976,
  "\u2581teaching": 977,
  "\u2581\u0254te": 978,
  "\u2581y\u025bb\u025by\u025b": 979,
  "\u2581relationship": 980,
  "\u2581ever": 981,
  "\u2581school": 982,
  "\u2581Nne\u025bma": 983,
  "\u2581tenten": 984,
  "\u2581cannot": 985,
  "\u2581U": 986,
  "\u2581known": 987,
  "\u2581\u0190da": 988,
  "\u2581law": 989,
  "\u2581best": 990,
  "\u2581nnamfo": 991,
  "\u2581Center": 992,
  "\u2581matter": 993,
  "\u2581members": 994,
  "\u2581nk\u0254mhy\u025b": 995,
  "\u2581ato": 996,
  "\u2581atumi": 997,
  "\u2581hyia": 998,
  "\u2581nhyira": 999,
  "\u2581af\u0254re": 1000,
  "\u2581share": 1001,
  "\u2581k\u025bk\u025b": 1002,
  "\u2581Mmara": 1003,
  "\u2581hard": 1004,
  "\u2581close": 1005,
  "\u2581w\u0254anya": 1006,
  "\u2581York": 1007,
  "\u2581eyes": 1008,
  "\u2581believe": 1009,
  "\u2581woy\u025b": 1010,
  "\u2581wadi": 1011,
  "\u2581support": 1012,
  "\u2581system": 1013,
  "\u2581bad": 1014,
  "\u2581bra": 1015,
  "\u2581near": 1016,
  "\u2581thought": 1017,
  "\u2581continue": 1018,
  "\u2581nsow": 1019,
  "\u2581Yiw": 1020,
  "\u2581w\u0254b\u025by\u025b": 1021,
  "\u2581y\u025banya": 1022,
  "\u2581situation": 1023,
  "\u2581religion": 1024,
  "\u2581san": 1025,
  "\u2581denneennen": 1026,
  "\u2581St": 1027,
  "\u2581ofi": 1028,
  "\u2581\u025bt\u0254": 1029,
  "\u2581friends": 1030,
  "\u2581maame": 1031,
  "\u2581Let": 1032,
  "\u2581panyin": 1033,
  "\u2581far": 1034,
  "\u2581message": 1035,
  "\u2581nk\u0254so": 1036,
  "\u2581understand": 1037,
  "\u2581ask": 1038,
  "C": 1039,
  "\u2581Korintofo": 1040,
  "\u2581Timoteo": 1041,
  "\u2581nhwehw\u025bmu": 1042,
  "\u2581Timothy": 1043,
  "\u2581age": 1044,
  "\u2581Wiase": 1045,
  "\u2581nor": 1046,
  "\u2581war": 1047,
  "\u2581abrab\u0254": 1048,
  "\u2581heavenly": 1049,
  "\u2581odi": 1050,
  "\u2581present": 1051,
  "\u2581du": 1052,
  "\u2581soronko": 1053,
  "as\u025bm": 1054,
  "\u2581mean": 1055,
  "\u2581language": 1056,
  "\u2581righteous": 1057,
  "\u2581dan": 1058,
  "\u2581ada": 1059,
  "\u2581Corinthians": 1060,
  "\u2581Hiob": 1061,
  "\u2581avoid": 1062,
  "\u2581early": 1063,
  "\u2581Your": 1064,
  "\u2581ak\u025bse": 1065,
  "\u258118.": 1066,
  "\u2581fine": 1067,
  "st": 1068,
  "\u2581Job": 1069,
  "\u2581rey\u025b": 1070,
  "\u2581tia": 1071,
  "\u2581enjoy": 1072,
  "\u2581difficult": 1073,
  "\u2581until": 1074,
  "\u2581wotumi": 1075,
  "\u2581money": 1076,
  "\u2581Society": 1077,
  "\u2581Thus": 1078,
  "\u2581Solomon": 1079,
  "\u2581health": 1080,
  "\u25819,": 1081,
  "\u2581mfiase": 1082,
  "\u2581yourself": 1083,
  "\u2581\u0254": 1084,
  "k\u0254\u0254": 1085,
  "\u25815,": 1086,
  "\u2581Because": 1087,
  "\u2581high": 1088,
  "\u2581w\u0254asra": 1089,
  "\u2581Greek": 1090,
  "\u2581ourselves": 1091,
  "\u2581especially": 1092,
  "\u2581abu": 1093,
  "\u2581agu": 1094,
  "\u2581mae": 1095,
  "\u2581Mmom": 1096,
  "\u2581around": 1097,
  "maa": 1098,
  "\u2581Samuel": 1099,
  "\u258131": 1100,
  "\u2581body": 1101,
  "\u2581land": 1102,
  "\u2581\u0190nn\u025b": 1103,
  "\u2581next": 1104,
  "\u2581Although": 1105,
  "\u2581case": 1106,
  "\u2581huu": 1107,
  "\u2581baptized": 1108,
  "\u2581desire": 1109,
  "\u2581answer": 1110,
  "\u2581nipadua": 1111,
  "\u2581self": 1112,
  "\u2581kar": 1113,
  "\u2581m\u0169": 1114,
  "\u2581ahw\u025b": 1115,
  "\u2581attention": 1116,
  "\u2581amma": 1117,
  "\u2581giving": 1118,
  "\u2581Luke": 1119,
  "\u2581cause": 1120,
  "\u2581sense": 1121,
  "\u2581Lord": 1122,
  "\u2581certain": 1123,
  "\u2581nsusuwii": 1124,
  "\u2581yet": 1125,
  "\u2581Luka": 1126,
  "\u2581ancient": 1127,
  "\u2581Adiyis\u025bm": 1128,
  "\u25816,": 1129,
  "\u2581saw": 1130,
  "\u2581paradise": 1131,
  "\u2581yam": 1132,
  "\u258119.": 1133,
  "\u258140": 1134,
  "\u2581serving": 1135,
  "\u2581Romafo": 1136,
  "\u2581benefit": 1137,
  "\u2581Awurade": 1138,
  "\u2581Can": 1139,
  "\u2581died": 1140,
  "\u2581Da": 1141,
  "\u2581Jews": 1142,
  "\u2581kind": 1143,
  "\u2581tu": 1144,
  "\u2581Agya": 1145,
  "\u2581yebenya": 1146,
  "\u2581received": 1147,
  "\u2581nnyinasos\u025bm": 1148,
  "\u2581ntia": 1149,
  "\u2581states": 1150,
  "\u2581along": 1151,
  "\u2581feelings": 1152,
  "\u2581Of": 1153,
  "\u2581Revelation": 1154,
  "\u2581afie": 1155,
  "\u2581Who": 1156,
  "\u2581saying": 1157,
  "\u2581wobenya": 1158,
  "\u2581afiase": 1159,
  "\u2581dead": 1160,
  "\u2581Law": 1161,
  "\u2581respect": 1162,
  "\u2581Bio": 1163,
  "\u2581speak": 1164,
  "ratafa": 1165,
  "\u2581Efi": 1166,
  "\u2581James": 1167,
  "\u2581w\u0254ny\u025b": 1168,
  "\u2581soon": 1169,
  "\u2581\u025bhy\u025b": 1170,
  "in": 1171,
  "\u2581needs": 1172,
  "\u2581Since": 1173,
  "\u2581whole": 1174,
  "\u2581Fa": 1175,
  "\u2581\u0186kae": 1176,
  "\u2581nniso": 1177,
  "\u2581yaw": 1178,
  "c": 1179,
  "\u2581talk": 1180,
  "\u2581Be": 1181,
  "\u2581nnye": 1182,
  "\u2581as\u025be": 1183,
  "\u2581real": 1184,
  "\u2581Nnwuma": 1185,
  "\u2581anis\u0254": 1186,
  "\u2581small": 1187,
  "\u2581bebree": 1188,
  "nam": 1189,
  "\u258126": 1190,
  "Those": 1191,
  "\u2581Acts": 1192,
  "\u2581brought": 1193,
  "\u2581wop\u025b": 1194,
  "\u2581\u0186hene": 1195,
  "awofo": 1196,
  "\u2581thus": 1197,
  "\u2581wise": 1198,
  "\u2581wrong": 1199,
  "\u2581b\u025bka": 1200,
  "\u2581de\u025b": 1201,
  "\u2581going": 1202,
  "\u2581Asa": 1203,
  "\u2581ye": 1204,
  "ni": 1205,
  "\u2581reading": 1206,
  "\u2581United": 1207,
  "\u2581point": 1208,
  "\u2581Asomafo": 1209,
  "hy\u025b\u025b": 1210,
  "\u2581y\u025bte": 1211,
  "\u2581\u0254ma": 1212,
  "\u2581knew": 1213,
  "\u2581Saul": 1214,
  "\u2581wogye": 1215,
  "\u2581Consider": 1216,
  "\u2581king": 1217,
  "\u258127": 1218,
  "\u2581account": 1219,
  "\u2581mfi": 1220,
  "\u2581question": 1221,
  "Onyankop\u0254n": 1222,
  "\u2581including": 1223,
  "\u2581mmusua": 1224,
  "\u2581atoro": 1225,
  "\u2581\u025bmfa": 1226,
  "\u2581sure": 1227,
  "\u2581receive": 1228,
  "\u2581akokoduru": 1229,
  "\u2581nk\u0254mm\u0254": 1230,
  "\u2581anokwafo": 1231,
  "\u2581ogye": 1232,
  "\u2581turn": 1233,
  "\u2581Creator": 1234,
  "\u2581wanted": 1235,
  "\u2581moved": 1236,
  "\u2581principles": 1237,
  "\u2581re": 1238,
  "\u2581tew": 1239,
  "\u25814,": 1240,
  "\u2581attitude": 1241,
  "\u2581seesei": 1242,
  "\u2581awer\u025bhyem": 1243,
  "\u2581rek\u0254": 1244,
  "\u2581ha": 1245,
  "\u2581special": 1246,
  "abusua": 1247,
  "\u258120.": 1248,
  "\u2581\u0254ha": 1249,
  "\u2581information": 1250,
  "\u2581change": 1251,
  "\u2581taught": 1252,
  "\u2581trenee": 1253,
  "\u258114,": 1254,
  "anim": 1255,
  "\u2581nk\u0254": 1256,
  "\u2581nsi": 1257,
  "\u2581\u0190nde": 1258,
  "\u2581botae": 1259,
  "b\u0254\u0254": 1260,
  "\u2581nation": 1261,
  "\u2581Are": 1262,
  "\u2581temple": 1263,
  "\u2581More": 1264,
  "\u2581Watch": 1265,
  "\u2581w\u0254ma": 1266,
  "\u2581thinking": 1267,
  "\u2581divine": 1268,
  "\u2581follow": 1269,
  "\u2581four": 1270,
  "\u2581ns\u025bmma": 1271,
  "\u2581b\u0254hy\u025b": 1272,
  "\u2581provide": 1273,
  "\u2581f\u025b": 1274,
  "\u2581light": 1275,
  "\u2581asuafo": 1276,
  "\u2581suffering": 1277,
  "te": 1278,
  "\u2581Such": 1279,
  "\u2581group": 1280,
  "\u2581hui": 1281,
  "\u2581Whil": 1282,
  "\u2581married": 1283,
  "\u2581likely": 1284,
  "\u258112:": 1285,
  "\u2581beae": 1286,
  "\u2581nokwas\u025bm": 1287,
  "\u2581trust": 1288,
  "\u2581\u0186somafo": 1289,
  "\u2581lead": 1290,
  "\u2581p\u025bp\u025b\u025bp\u025b": 1291,
  "\u2581awer\u025bhow": 1292,
  "\u2581Romans": 1293,
  "\u2581any\u025b": 1294,
  "\u2581strong": 1295,
  "\u2581makes": 1296,
  "\u2581s": 1297,
  "\u2581y\u0254nko": 1298,
  "\u2581w\u0254kyer\u025b": 1299,
  "\u2581Today": 1300,
  "\u2581agyina": 1301,
  "\u2581ahyia": 1302,
  "\u2581nk\u025bnt\u025bnso": 1303,
  "\u2581boaa": 1304,
  "\u2581Footnote": 1305,
  "\u2581atirimp\u0254w": 1306,
  "\u2581sent": 1307,
  "\u2581asua": 1308,
  "\u2581as\u025by\u025bde": 1309,
  "r": 1310,
  "\u2581kindness": 1311,
  "\u2581\u025bba": 1312,
  "\u2581Not": 1313,
  "\u2581aky\u025bde": 1314,
  "\u2581\u0254y\u025b\u025b": 1315,
  "\u2581T": 1316,
  "\u2581Onua": 1317,
  "\u2581b\u025by\u025b\u025b": 1318,
  "\u2581w\u0254b\u0254\u0254": 1319,
  "\u2581toto": 1320,
  "\u2581prophet": 1321,
  "\u2581\u025bboa": 1322,
  "\u2581suban": 1323,
  "\u2581amane": 1324,
  "\u258133": 1325,
  "\u2581w\u0254nam": 1326,
  "\u258121.": 1327,
  "\u2581amanaman": 1328,
  "\u2581taken": 1329,
  "\u2581\u025bwom": 1330,
  "\u2581mey\u025b": 1331,
  "\u2581anan": 1332,
  "\u2581thing": 1333,
  "\u2581whether": 1334,
  "asuafo": 1335,
  "\u2581teach": 1336,
  "\u2581tirim": 1337,
  "\u2581nkate": 1338,
  "\u2581b\u025bk\u0254": 1339,
  "\u2581asraafo": 1340,
  "\u2581\u025bb\u025bboa": 1341,
  "\u2581taking": 1342,
  "\u2581try": 1343,
  "\u2581happiness": 1344,
  "\u2581P": 1345,
  "\u2581Ad\u025bn": 1346,
  "\u2581wohu": 1347,
  "\u2581fr\u025b": 1348,
  "\u2581ahyehy\u025bde": 1349,
  "\u2581night": 1350,
  "\u2581act": 1351,
  "\u2581involved": 1352,
  "\u2581false": 1353,
  "\u2581reka": 1354,
  "\u2581simply": 1355,
  "\u2581Akyiri": 1356,
  "\u2581country": 1357,
  "\u2581nothing": 1358,
  "\u2581Does": 1359,
  "\u2581People": 1360,
  "\u2581wobu": 1361,
  "\u2581\u025bmaa": 1362,
  "\u2581J": 1363,
  "\u2581abak\u0254s\u025bm": 1364,
  "Y": 1365,
  "\u258118:": 1366,
  "\u2581certainly": 1367,
  "\u2581THE": 1368,
  "\u2581Dur": 1369,
  "\u2581matters": 1370,
  "\u2581According": 1371,
  "\u25812,": 1372,
  "\u2581po": 1373,
  "\u2581nnansa": 1374,
  "\u2581heard": 1375,
  "\u2581resurrection": 1376,
  "\u2581nokwaredi": 1377,
  "\u2581w\u0254mfa": 1378,
  "\u2581y\u025bma": 1379,
  "\u2581seen": 1380,
  "\u2581problem": 1381,
  "\u2581similar": 1382,
  "duu": 1383,
  "\u2581ab\u0254de": 1384,
  "\u2581agya": 1385,
  "\u2581amanehunu": 1386,
  "\u2581Susuw": 1387,
  "\u2581aban": 1388,
  "\u2581ayamye": 1389,
  "\u2581past": 1390,
  "\u2581y\u025bb\u0254": 1391,
  "\u2581Joseph": 1392,
  "\u2581reba": 1393,
  "\u2581Hebrifo": 1394,
  "\u2581as\u0254fo": 1395,
  "\u2581allow": 1396,
  "\u2581abufuw": 1397,
  "\u2581control": 1398,
  "\u2581\u0254kasa": 1399,
  "woo": 1400,
  "\u2581followers": 1401,
  "\u2581atom": 1402,
  "\u2581w\u0254hw\u025b": 1403,
  "\u2581individuals": 1404,
  "\u2581remain": 1405,
  "\u2581works": 1406,
  "\u25817,": 1407,
  "\u2581according": 1408,
  "\u2581kyer\u025bwtoh\u0254": 1409,
  "\u2581sisters": 1410,
  "\u258111,": 1411,
  "\u2581Tower": 1412,
  "\u2581Mo": 1413,
  "\u258110:": 1414,
  "\u2581sons": 1415,
  "\u2581gives": 1416,
  "\u2581sacrifice": 1417,
  "\u2581May": 1418,
  "\u2581as\u0254refie": 1419,
  "\u2581kingdom": 1420,
  "\u2581once": 1421,
  "\u2581large": 1422,
  "\u2581\u0186ka": 1423,
  "\u2581Hall": 1424,
  "\u2581nsam": 1425,
  "\u2581fo": 1426,
  "\u2581everlasting": 1427,
  "\u2581Akyinnye": 1428,
  "\u2581adan": 1429,
  "\u2581comes": 1430,
  "\u2581perfect": 1431,
  "\u258110,": 1432,
  "\u2581An": 1433,
  "re": 1434,
  "\u2581righteousness": 1435,
  "\u2581public": 1436,
  "\u2581shows": 1437,
  "\u258129": 1438,
  "\u258150": 1439,
  "\u2581Hebrew": 1440,
  "\u2581spiritually": 1441,
  "\u2581Gilead": 1442,
  "\u2581interest": 1443,
  "\u2581sheep": 1444,
  "\u2581based": 1445,
  "\u2581amanne\u025b": 1446,
  "\u2581clear": 1447,
  "\u258112,": 1448,
  "\u2581awarefo": 1449,
  "\u2581further": 1450,
  "\u2581\u025bsen": 1451,
  "\u2581Hela": 1452,
  "\u2581akodi": 1453,
  "\u2581pray": 1454,
  "\u2581Roma": 1455,
  "\u2581Asafo": 1456,
  "\u2581\u0190": 1457,
  "\u2581loved": 1458,
  "\u2581started": 1459,
  "M": 1460,
  "\u2581soul": 1461,
  "\u2581Pictures": 1462,
  "\u2581Paradise": 1463,
  "\u2581already": 1464,
  "\u2581organization": 1465,
  "\u2581ahy\u025bde": 1466,
  "\u2581w\u0254taa": 1467,
  "\u2581showed": 1468,
  "\u2581Would": 1469,
  "\u2581asom": 1470,
  "\u2581D": 1471,
  "\u2581wow\u0254": 1472,
  "\u2581anadwo": 1473,
  "\u2581call": 1474,
  "\u2581awo": 1475,
  "\u258111:": 1476,
  "\u2581Germany": 1477,
  "\u2581Maria": 1478,
  "\u2581authority": 1479,
  "\u2581coming": 1480,
  "\u2581p\u0254tee": 1481,
  "\u2581leave": 1482,
  "\u2581truly": 1483,
  "\u258116,": 1484,
  "\u2581percent": 1485,
  "\u2581material": 1486,
  "\u2581Rather": 1487,
  "\u2581Wubetumi": 1488,
  "\u2581Their": 1489,
  "l": 1490,
  "\u2581meeting": 1491,
  "\u2581nan": 1492,
  "\u2581local": 1493,
  "\u2581s\u025bnkyer\u025bnne": 1494,
  "\u2581slave": 1495,
  "\u2581second": 1496,
  "\u2581tra": 1497,
  "\u2581as\u025bmfua": 1498,
  "\u2581Ebinom": 1499,
  "\u2581\u025bh\u0254": 1500,
  "\u2581araa": 1501,
  "\u2581\u0254ko": 1502,
  "\u2581prophecy": 1503,
  "\u2581onim": 1504,
  "\u2581y\u025bk\u0254": 1505,
  "\u2581Unit": 1506,
  "\u2581kyer\u025be": 1507,
  "\u2581here": 1508,
  "\u2581mentioned": 1509,
  "\u2581qualities": 1510,
  "\u2581wonderful": 1511,
  "\u2581hene": 1512,
  "\u2581history": 1513,
  "\u2581provided": 1514,
  "\u2581therefore": 1515,
  "\u2581Jewish": 1516,
  "\u2581strength": 1517,
  "\u2581forever": 1518,
  "\u2581nkonim": 1519,
  "\u2581return": 1520,
  "\u2581nhu": 1521,
  "\u2581Will": 1522,
  "\u2581physical": 1523,
  "\u258123.": 1524,
  "\u2581Nhoma": 1525,
  "\u2581b\u025bb\u0254": 1526,
  "\u2581y\u025bka": 1527,
  "\u2581\u0254hw\u025b": 1528,
  "\u2581form": 1529,
  "\u2581apostles": 1530,
  "\u2581evidence": 1531,
  "\u2581Egypt": 1532,
  "\u2581Africa": 1533,
  "\u2581countries": 1534,
  "\u2581\u025bk\u0254": 1535,
  "\u2581yedi": 1536,
  "\u2581\u025btete": 1537,
  "\u2581circumstances": 1538,
  "\u2581\u0254b\u0254\u0254": 1539,
  "\u2581asetram": 1540,
  "\u2581anyone": 1541,
  "\u2581Life": 1542,
  "\u2581church": 1543,
  "\u2581longer": 1544,
  "\u2581rather": 1545,
  "\u2581serious": 1546,
  "\u2581Mfe": 1547,
  "\u2581Devil": 1548,
  "\u2581Yebetumi": 1549,
  "\u2581understanding": 1550,
  "\u2581lost": 1551,
  "\u2581s\u0254": 1552,
  "\u2581\u0190t\u0254": 1553,
  "\u2581Now": 1554,
  "\u2581promise": 1555,
  "\u2581kept": 1556,
  "\u2581adaka": 1557,
  "\u2581wob\u025by\u025b": 1558,
  "\u2581b\u025bboa": 1559,
  "huu": 1560,
  "\u2581\u0254hy\u025b": 1561,
  "\u258122.": 1562,
  "\u2581\u025bnde": 1563,
  "\u2581Hebrews": 1564,
  "\u2581ak\u0254nn\u0254": 1565,
  "\u2581congregations": 1566,
  "\u2581ns\u025bmmisa": 1567,
  "\u2581inspired": 1568,
  "\u2581\u0190b\u025by\u025b": 1569,
  "\u258132": 1570,
  "\u2581Witness": 1571,
  "\u2581accept": 1572,
  "\u2581momma": 1573,
  "\u2581sister": 1574,
  "\u25817:": 1575,
  "\u2581greater": 1576,
  "\u2581pioneer": 1577,
  "\u2581nnuru": 1578,
  "\u2581fully": 1579,
  "\u2581onni": 1580,
  "Me": 1581,
  "\u2581million": 1582,
  "\u2581wontumi": 1583,
  "\u2581awu": 1584,
  "\u2581besi": 1585,
  "\u2581months": 1586,
  "\u258113,": 1587,
  "\u2581gift": 1588,
  "\u2581way\u025b": 1589,
  "\u2581\u025bb\u025bba": 1590,
  "Read": 1591,
  "\u2581ampa": 1592,
  "\u2581stand": 1593,
  "\u2581tee": 1594,
  "O": 1595,
  "to": 1596,
  "\u258137": 1597,
  "\u2581comfort": 1598,
  "\u2581lived": 1599,
  "\u2581baako": 1600,
  "\u2581kwa": 1601,
  "\u2581effort": 1602,
  "\u2581perhaps": 1603,
  "\u2581Mary": 1604,
  "\u2581friend": 1605,
  "\u2581efforts": 1606,
  "\u2581nnwom": 1607,
  "\u2581kura": 1608,
  "\u2581nguan": 1609,
  "You": 1610,
  "\u2581France": 1611,
  "\u2581explained": 1612,
  "\u2581w\u0254aka": 1613,
  "\u2581wubehu": 1614,
  "ting": 1615,
  "\u2581fr\u025b\u025b": 1616,
  "\u2581shall": 1617,
  "\u2581rule": 1618,
  "\u2581\u0254kaa": 1619,
  "\u2581Yosef": 1620,
  "\u2581alone": 1621,
  "\u2581born": 1622,
  "\u2581got": 1623,
  "\u2581common": 1624,
  "\u2581ago": 1625,
  "\u2581meaning": 1626,
  "\u2581using": 1627,
  "\u2581wodii": 1628,
  "\u2581Roman": 1629,
  "\u2581anything": 1630,
  "\u2581hearts": 1631,
  "\u2581written": 1632,
  "\u2581ns\u025bnnennen": 1633,
  "\u2581w\u0254fa": 1634,
  "\u2581enni": 1635,
  "\u2581within": 1636,
  "\u2581die": 1637,
  "\u2581ahobr\u025base": 1638,
  "\u2581wonim": 1639,
  "\u2581Box": 1640,
  "\u2581aduru": 1641,
  "\u2581Obi": 1642,
  "\u2581w\u0254adi": 1643,
  "\u2581y\u025bahu": 1644,
  "mita": 1645,
  "\u2581\u0186de": 1646,
  "\u2581please": 1647,
  "ne": 1648,
  "\u2581five": 1649,
  "\u2581deep": 1650,
  "\u2581gain": 1651,
  "\u2581Noa": 1652,
  "\u2581hands": 1653,
  "\u2581Like": 1654,
  "\u2581Nokwas\u025bm": 1655,
  "\u2581ab\u025by\u025b": 1656,
  "\u2581tumidi": 1657,
  "\u2581k\u0254ma": 1658,
  "\u2581Yuda": 1659,
  "\u2581Scriptural": 1660,
  "\u2581y\u025bhw\u025b": 1661,
  "\u2581atra": 1662,
  "\u2581\u0186bonsam": 1663,
  "es": 1664,
  "\u2581ab\u0254fo": 1665,
  "\u2581Indeed": 1666,
  "\u2581promises": 1667,
  "\u2581adwenem": 1668,
  "\u2581government": 1669,
  "\u2581\"[": 1670,
  "\u2581\u0254b\u025bma": 1671,
  "\u2581\u025bsom": 1672,
  "\u2581Catholic": 1673,
  "\u2581continued": 1674,
  "\u2581effect": 1675,
  ",...": 1676,
  "\u2581k\u0254k\u0254": 1677,
  "\u2581witness": 1678,
  "\u2581Mark": 1679,
  "\u2581egyina": 1680,
  "\u2581Yakobo": 1681,
  "ade": 1682,
  "\u258124.": 1683,
  "\u2581powerful": 1684,
  "\u2581pain": 1685,
  "\u2581Fibea": 1686,
  "\u2581heavens": 1687,
  "\u2581confidence": 1688,
  "\u2581awufo": 1689,
  "\u2581ahenni": 1690,
  "\u2581address": 1691,
  "\u2581basabasay\u025b": 1692,
  "\u2581opportunity": 1693,
  "\u2581Hebri": 1694,
  "\u2581Noah": 1695,
  "\u2581akenkan": 1696,
  "\u2581named": 1697,
  "\u2581deal": 1698,
  "akyi": 1699,
  "\u2581Momma": 1700,
  "\u2581tie": 1701,
  "\u2581remember": 1702,
  "\u2581everything": 1703,
  "\u2581South": 1704,
  "\u2581speaking": 1705,
  "\u258119,": 1706,
  "\u2581decision": 1707,
  "\u2581F": 1708,
  "\u2581itself": 1709,
  "\u2581mfatoho": 1710,
  "\u2581Instead": 1711,
  "\u2581\u0254maa": 1712,
  "\u2581af\u00e3": 1713,
  "\u2581Betel": 1714,
  "\u2581examples": 1715,
  "\u2581ahobamm\u0254": 1716,
  "\u2581older": 1717,
  "\u2581eyinom": 1718,
  "san": 1719,
  "\u2581Asase": 1720,
  "\u2581value": 1721,
  "\u2581Credit": 1722,
  "\u2581July": 1723,
  "\u2581toom": 1724,
  "\u2581Mmofra": 1725,
  "\u2581guu": 1726,
  "\u2581judgment": 1727,
  "an": 1728,
  "\u2581regarding": 1729,
  "\u2581served": 1730,
  "\u2581spoke": 1731,
  "Hw\u025b": 1732,
  "\u2581mprempren": 1733,
  "\u2581otumi": 1734,
  "\u2581baabiara": 1735,
  "\u2581prayers": 1736,
  "\u258117,": 1737,
  "\u2581atwa": 1738,
  "\u2581odii": 1739,
  ".)": 1740,
  "\u2581held": 1741,
  "\u2581mmamu": 1742,
  "\u2581Read": 1743,
  "\u2581doubt": 1744,
  "\u2581draw": 1745,
  "\u2581privilege": 1746,
  "\u2581bom": 1747,
  "\u2581w\u0254y\u025be": 1748,
  "\u2581preach": 1749,
  "\u2581II": 1750,
  "\u2581helps": 1751,
  "\u2581imitate": 1752,
  "\u2581apam": 1753,
  "\u2581True": 1754,
  "\u2581nhw\u025b": 1755,
  "\u2581afiri": 1756,
  "\u2581blessing": 1757,
  "\u2581loyal": 1758,
  "\u2581hear": 1759,
  "\u2581w\u0254da": 1760,
  "ic": 1761,
  "\u2581kenkan": 1762,
  "\u2581ayi": 1763,
  "\u2581mfirihyia": 1764,
  "\u2581adwumay\u025bfo": 1765,
  "\u2581stated": 1766,
  "saa": 1767,
  "\u2581events": 1768,
  "\u2581move": 1769,
  "\u2581standards": 1770,
  "Nea": 1771,
  "\u00b7": 1772,
  "\u2581Still": 1773,
  "\u2581glory": 1774,
  "\u2581Mesia": 1775,
  "\u258170": 1776,
  "\u2581vital": 1777,
  "\u2581ahofadi": 1778,
  "\u2581honor": 1779,
  "\u2581BIBLE": 1780,
  "\u2581Afe": 1781,
  "\u2581asomafo": 1782,
  "\u2581w\u0254hy\u025b": 1783,
  "\u2581atifi": 1784,
  "\u2581aso": 1785,
  "\u2581pages": 1786,
  "\u2581apply": 1787,
  "\u2581etwa": 1788,
  "\u2581hold": 1789,
  "\u2581Nokware": 1790,
  "\u2581poor": 1791,
  "\u2581gyinap\u025bn": 1792,
  "\u2581dwumadibea": 1793,
  "\u2581visit": 1794,
  "\u2581accepted": 1795,
  "\u2581letter": 1796,
  "\u2581explains": 1797,
  "\u2581students": 1798,
  "\u2581area": 1799,
  "\u2581listen": 1800,
  "\u2581suro": 1801,
  "\u2581available": 1802,
  "\u2581Did": 1803,
  "\u2581atu": 1804,
  "\u2581period": 1805,
  "\u2581role": 1806,
  "\u2581offer": 1807,
  "\u2581ahiade": 1808,
  "\u2581whose": 1809,
  "\u2581willing": 1810,
  "\u2581various": 1811,
  "\u2581Mp\u025bn": 1812,
  "\u2581prove": 1813,
  "\u25818:": 1814,
  "\u2581anibere": 1815,
  "\u2581y\u025bp\u025b": 1816,
  "\u2581\u0190de": 1817,
  "\u2581nhy\u025b": 1818,
  "\u2581godly": 1819,
  "\u2581enough": 1820,
  "\u2581field": 1821,
  "\u2581angels": 1822,
  "\u2581blessings": 1823,
  "\u2581class": 1824,
  "\u2581w\u0254k\u0254": 1825,
  "buu": 1826,
  "\u2581easy": 1827,
  "\u2581families": 1828,
  "\u2581\u025bso": 1829,
  "\u2581modern": 1830,
  "too": 1831,
  "\u2581activity": 1832,
  "\u258122,": 1833,
  "\u2581magazine": 1834,
  "\u2581several": 1835,
  "\u2581wuhu": 1836,
  "b\u025btumi": 1837,
  "\u2581published": 1838,
  "\u2581Yeremia": 1839,
  "\u2581ketewa": 1840,
  "Jehovah": 1841,
  "\u2581led": 1842,
  "\u2581mframa": 1843,
  "\u2581minya": 1844,
  "\u2581\u0254ny\u025b": 1845,
  "\u2581etumi": 1846,
  "\u2581violence": 1847,
  "\u2581considered": 1848,
  "\u2581affect": 1849,
  "\u2581decisions": 1850,
  "\u2581kyer\u025bwfo": 1851,
  "\u2581head": 1852,
  "\u2581w\u0254som": 1853,
  "\u2581changed": 1854,
  "\u2581kra": 1855,
  "\u2581less": 1856,
  "\u2581mew\u0254": 1857,
  "\u2581worldwide": 1858,
  "\u2581nkoa": 1859,
  "fii": 1860,
  "\u2581Hence": 1861,
  "\u2581ability": 1862,
  "\u2581gyei": 1863,
  "\u2581August": 1864,
  "\u2581Tract": 1865,
  "\u2581atia": 1866,
  "\u2581influence": 1867,
  "us": 1868,
  "\u2581atew": 1869,
  "\u2581happened": 1870,
  "\u2581issue": 1871,
  "\u2581Awiei": 1872,
  "\u2581nnya": 1873,
  "\u2581\u025bnn\u025b": 1874,
  "\u2581ab\u0254nefo": 1875,
  "\u2581Jeremiah": 1876,
  "\u2581\u0254taa": 1877,
  "\u2581Bethel": 1878,
  "\u2581teachings": 1879,
  "\u2581Adwuma": 1880,
  "\u2581seek": 1881,
  "\u2581regard": 1882,
  "\u2581millions": 1883,
  "\u2581open": 1884,
  "\u2581\u0190ho": 1885,
  "\u2581abusuafo": 1886,
  "\u2581seem": 1887,
  "God": 1888,
  "\u2581'?": 1889,
  "\u2581couple": 1890,
  "na": 1891,
  "\u2581chapter": 1892,
  "\u258118,": 1893,
  "\u2581walk": 1894,
  "\u2581tried": 1895,
  "\u2581Afrika": 1896,
  "\u2581lands": 1897,
  "\u2581described": 1898,
  "\u2581Salomo": 1899,
  "\u2581branch": 1900,
  "\u2581forth": 1901,
  "\u2581Te": 1902,
  "\u2581wonnya": 1903,
  "\u25811914": 1904,
  "\u2581Most": 1905,
  "\u2581working": 1906,
  "\u2581clearly": 1907,
  "\u2581promised": 1908,
  "\u2581\u0190mfa": 1909,
  "\u258124:": 1910,
  "\u2581proved": 1911,
  "over": 1912,
  "\u2581answers": 1913,
  "\u2581activities": 1914,
  "\u2581books": 1915,
  "\u258134": 1916,
  "\u2581nokwafo": 1917,
  "\u2581instance": 1918,
  "\u2581appreciate": 1919,
  "\u2581freedom": 1920,
  "\u2581responsibility": 1921,
  "\u258125.": 1922,
  "\u2581English": 1923,
  "\u2581hokafo": 1924,
  "\u2581p\u025bn": 1925,
  "\u2581sins": 1926,
  "\u2581atitiriw": 1927,
  "\u2581First": 1928,
  "\u2581\u0254nam": 1929,
  "Na": 1930,
  "taa": 1931,
  "\u2581Arena": 1932,
  "\u2581nk\u0254m": 1933,
  "\u2581L": 1934,
  "\u2581April": 1935,
  "\u2581Line": 1936,
  "\u2581awer\u025bkyekye": 1937,
  "\u2581mp\u0254n": 1938,
  "\u2581Ebetumi": 1939,
  "\u2581Church": 1940,
  "\u2581Hawa": 1941,
  "\u2581ap\u025bde": 1942,
  "\u2581ntade": 1943,
  "\u2581dwom": 1944,
  "\u2581maintain": 1945,
  "\u2581rest": 1946,
  "\u2581education": 1947,
  "\u2581appointed": 1948,
  "\u2581moral": 1949,
  "\u2581experienced": 1950,
  "\u2581t\u0254": 1951,
  "\u2581anum": 1952,
  "\u2581above": 1953,
  "\u2581s\u025bn": 1954,
  "\u2581Nyinaa": 1955,
  "\u2581conscience": 1956,
  "\u2581determined": 1957,
  "\u2581regular": 1958,
  "\u2581six": 1959,
  "\u2581flesh": 1960,
  "\u2581mep\u025b": 1961,
  "\u2581asram": 1962,
  "\u2581build": 1963,
  "\u2581single": 1964,
  "\u2581advice": 1965,
  "\u2581everyone": 1966,
  "\u2581birth": 1967,
  "\u2581concern": 1968,
  "\u2581clean": 1969,
  "\u2581kosii": 1970,
  "\u2581source": 1971,
  "\u2581thoughts": 1972,
  "\u2581position": 1973,
  "\u2581convention": 1974,
  "\u2581recorded": 1975,
  "\u2581else": 1976,
  "or": 1977,
  "\u2581appreciation": 1978,
  "\u2581redi": 1979,
  "\u2581Y\u025bb\u025by\u025b": 1980,
  "\u2581wanya": 1981,
  "\u2581direction": 1982,
  "\u2581Later": 1983,
  "\u2581Japan": 1984,
  "\u2581complete": 1985,
  "\u2581covenant": 1986,
  "\u2581Exodus": 1987,
  "\u2581believers": 1988,
  "\u2581carry": 1989,
  "\u2581hann": 1990,
  "\u2581b\u025bhy\u025b": 1991,
  "\u2581mpempem": 1992,
  "\u2581June": 1993,
  "\u2581accurate": 1994,
  "\u2581asetena": 1995,
  "\u2581foretold": 1996,
  "\u2581met": 1997,
  "\u2581meet": 1998,
  "\u2581praise": 1999,
  "\u2581War": 2000,
  "\u2581psalmist": 2001,
  "\u2581thousands": 2002,
  "\u2581yesusuw": 2003,
  "\u2581offered": 2004,
  "\u2581reach": 2005,
  "\u2581sexual": 2006,
  "\u2581created": 2007,
  "\u2581mate": 2008,
  "\u2581office": 2009,
  "\u2581w\u0254b\u025bma": 2010,
  "\u2581harmony": 2011,
  "\u2581ransom": 2012,
  "\u2581yebehu": 2013,
  "\u2581myself": 2014,
  "\u2581Bi": 2015,
  "\u2581\u0186dansefo": 2016,
  "\u2581mm\u0254": 2017,
  "\u2581Babilon": 2018,
  "\u2581integrity": 2019,
  "\u2581ten": 2020,
  "y\u025b": 2021,
  "\u2581Another": 2022,
  "\u2581Just": 2023,
  "\u2581dodo": 2024,
  "\u2581stay": 2025,
  "\u2581write": 2026,
  "\u258160": 2027,
  "\u2581ananmu": 2028,
  "\u2581Awake": 2029,
  "\u2581actually": 2030,
  "\u2581akyinnye": 2031,
  "\u2581\u0254yare": 2032,
  "\u2581100": 2033,
  "\u2581ky\u025bfa": 2034,
  "\u2581wonyaa": 2035,
  "\u2581laws": 2036,
  "\u2581practical": 2037,
  "\u2581Honhom": 2038,
  "\u2581dom": 2039,
  "\u2581natural": 2040,
  "\u2581wobedi": 2041,
  "\u2581De": 2042,
  "\u2581Eve": 2043,
  "\u2581eat": 2044,
  "\u2581nhia": 2045,
  "\u2581\u025bsono": 2046,
  "\u2581adey\u025b": 2047,
  "\u2581baptism": 2048,
  "\u25819:": 2049,
  "\u2581Dr": 2050,
  "\u2581wants": 2051,
  "\u2581akatua": 2052,
  "\u2581indeed": 2053,
  "\u2581See": 2054,
  "\u2581Or": 2055,
  "\u2581helping": 2056,
  "adwuma": 2057,
  "\u2581force": 2058,
  "\u2581yetumi": 2059,
  "\u2581H\u0254": 2060,
  "\u2581appropriate": 2061,
  "\u2581grow": 2062,
  "\u2581owia": 2063,
  "\u2581Amanaman": 2064,
  "\u2581least": 2065,
  "\u2581precious": 2066,
  "\u2581Europa": 2067,
  "\u2581Great": 2068,
  "\u2581d\u025b": 2069,
  "\u2581entire": 2070,
  "\u2581y\u025bb\u025bka": 2071,
  "\u2581Ko": 2072,
  "\u2581adu": 2073,
  "\u2581akoa": 2074,
  "\u2581onyaa": 2075,
  "\u2581\u025bb\u025bn": 2076,
  "\u2581Adesua": 2077,
  "\u2581action": 2078,
  "\u2581job": 2079,
  "\u2581learning": 2080,
  "ness": 2081,
  "\u2581daughter": 2082,
  "\u2581decided": 2083,
  "\u2581text": 2084,
  "\u2581\u025bmfata": 2085,
  "\u02b9": 2086,
  "\u2581nua": 2087,
  "\u2581report": 2088,
  "\u2581strengthen": 2089,
  "\u2581daily": 2090,
  "\u2581odiyifo": 2091,
  "\u2581\u0254kyer\u025b": 2092,
  "\u2581Brother": 2093,
  "\u2581former": 2094,
  "\u2581\u025brek\u0254": 2095,
  "\u2581prison": 2096,
  "\u2581un": 2097,
  "\u2581Efis\u025b": 2098,
  "\u2581Have": 2099,
  "\u2581September": 2100,
  "\u2581ahonim": 2101,
  "\u2581ankorankoro": 2102,
  "\u2581caused": 2103,
  "\u2581training": 2104,
  "\u2581w\u0254ahu": 2105,
  "\u2581obey": 2106,
  "\u2581reasons": 2107,
  "\u2581earthly": 2108,
  "\u2581regularly": 2109,
  "\u2581s\u0254re": 2110,
  "\u2581at\u025bn": 2111,
  "\u2581wui": 2112,
  "\u2581Nyan": 2113,
  "\u2581nnua": 2114,
  "\u2581tuu": 2115,
  "\u2581anger": 2116,
  "\u2581neither": 2117,
  "\u2581elder": 2118,
  "\u2581mihu": 2119,
  "\u2581disease": 2120,
  "\u2581hours": 2121,
  "\u2581w\u0254ahyehy\u025b": 2122,
  "\u2581assignment": 2123,
  "\u2581attend": 2124,
  "asetra": 2125,
  "kyer\u025b\u025b": 2126,
  "\u2581don": 2127,
  "\u2581boaset\u0254": 2128,
  "\u2581short": 2129,
  "\u2581wote": 2130,
  "\u2581stop": 2131,
  "\u2581As\u0254re": 2132,
  "\u2581Brooklyn": 2133,
  "\u2581Seesei": 2134,
  "\u2581fulfillment": 2135,
  "\u2581missionary": 2136,
  "\u2581duru": 2137,
  "\u2581ntetee": 2138,
  "\u2581nkrataa": 2139,
  "\u2581Anigye": 2140,
  "\u2581returned": 2141,
  "\u2581start": 2142,
  "\u258120,": 2143,
  "\u2581abam": 2144,
  "\u2581w\u0254akyer\u025bw": 2145,
  "\u2581Canada": 2146,
  "\u2581K\u025bse": 2147,
  "\u2581develop": 2148,
  "\u2581nkyer\u025base": 2149,
  "\u2581occasion": 2150,
  "\u2581mi": 2151,
  "\u2581sum": 2152,
  "\u2581w\u0254rey\u025b": 2153,
  "\u2581subject": 2154,
  "\u2581earlier": 2155,
  "\u2581results": 2156,
  "\u2581centuries": 2157,
  "\u2581gyinabea": 2158,
  "\u2581raised": 2159,
  "\u2581ahw\u025bfo": 2160,
  "\u2581justice": 2161,
  "\u2581Australia": 2162,
  "\u2581December": 2163,
  "\u2581England": 2164,
  "\u2581\u0254hene": 2165,
  "\u2581places": 2166,
  "\u2581Afoforo": 2167,
  "asomfo": 2168,
  "\u2581takes": 2169,
  "akyidifo": 2170,
  "\u2581literature": 2171,
  "\u2581encouraged": 2172,
  "\u2581ohu": 2173,
  "\u2581onya": 2174,
  "\u2581w\u0254san": 2175,
  "\u2581creation": 2176,
  "\u2581\u0254da": 2177,
  "\u2581destruction": 2178,
  "\u2581crowd": 2179,
  "\u2581individual": 2180,
  "\u2581respond": 2181,
  "\u2581Therefore": 2182,
  "\u2581building": 2183,
  "\u2581changes": 2184,
  "\u2581p\u025b\u025b": 2185,
  "\u2581speech": 2186,
  "\u2581interested": 2187,
  "\u2581realize": 2188,
  "\u2581Asia": 2189,
  "\u2581awie": 2190,
  "\u2581d\u0254\u0254so": 2191,
  "\u2581afahy\u025b": 2192,
  "\u2581throughout": 2193,
  "\u2581nk\u0254anim": 2194,
  "\u2581proper": 2195,
  "\u2581nyarewa": 2196,
  "\u2581basis": 2197,
  "\u2581ebi": 2198,
  "\u2581ofie": 2199,
  "\u2581wura": 2200,
  "\u258129.": 2201,
  "\u2581addition": 2202,
  "\u2581behind": 2203,
  "\u2581door": 2204,
  "\u2581miles": 2205,
  "\u2581turned": 2206,
  "\u2581\u0254panyin": 2207,
  "\u258117:": 2208,
  "\u2581nt\u025bmnt\u025bm": 2209,
  "\u2581state": 2210,
  "\u2581\u0254y\u025be": 2211,
  "\u2581b\u025b": 2212,
  "\u2581languages": 2213,
  "\u2581suffer": 2214,
  "\u2581salvation": 2215,
  "\u2581getting": 2216,
  "\u2581necessary": 2217,
  "\u2581pressure": 2218,
  "\u2581added": 2219,
  "\u2581March": 2220,
  "\u2581Memorial": 2221,
  "\u2581seems": 2222,
  "\u2581yefi": 2223,
  "\u2581morning": 2224,
  "\u2581Others": 2225,
  "\u2581gyidifo": 2226,
  "\u2581sometimes": 2227,
  "atirimp\u0254w": 2228,
  "\u2581akuw": 2229,
  "\u2581nkakrankakra": 2230,
  "\u2581guidance": 2231,
  "\u2581woanya": 2232,
  "\u2581ako": 2233,
  "\u2581half": 2234,
  "\u2581shown": 2235,
  "\u2581metumi": 2236,
  "\u2581positive": 2237,
  "\u2581practice": 2238,
  "\u2581week": 2239,
  "\u2581y\u025bda": 2240,
  "\u2581Before": 2241,
  "\u2581almo": 2242,
  "\u2581w\u0254ato": 2243,
  "\u2581becoming": 2244,
  "\u2581nhy\u025bso": 2245,
  "\u2581actions": 2246,
  "\u2581biakoy\u025b": 2247,
  "\u2581reports": 2248,
  "\u2581wosusuw": 2249,
  "\u2581yii": 2250,
  "\u2581\u025bhaw": 2251,
  "ri": 2252,
  "\u2581happen": 2253,
  "\u2581side": 2254,
  "See": 2255,
  "\u2581asia": 2256,
  "\u2581bisa": 2257,
  "\u2581esii": 2258,
  "\u2581knows": 2259,
  "\u2581studying": 2260,
  "\u2581R": 2261,
  "\u2581kilo": 2262,
  "\u2581mmoawa": 2263,
  "wa": 2264,
  "\u2581ate": 2265,
  "\u2581allowed": 2266,
  "\u2581amanne\u025bb\u0254": 2267,
  "\u2581beliefs": 2268,
  "\u2581owus\u0254re": 2269,
  "\u2581wonder": 2270,
  "\u258128.": 2271,
  "\u2581leaders": 2272,
  "\u2581seven": 2273,
  "\u2581pay": 2274,
  "\u2581trials": 2275,
  "\u2581wubenya": 2276,
  "\u2581as\u025bmpatr\u025bwfo": 2277,
  "\u2581endure": 2278,
  "\u2581University": 2279,
  "\u2581evil": 2280,
  "\u2581traveling": 2281,
  "\u2581y\u025bay\u025b": 2282,
  "\u2581Adwene": 2283,
  "\u2581October": 2284,
  "\u2581akokwaw": 2285,
  "\u2581y\u025bnhw\u025b": 2286,
  "kuw": 2287,
  "\u2581discipline": 2288,
  "ve": 2289,
  "\u2581Rome": 2290,
  "\u2581Young": 2291,
  "\u2581tow": 2292,
  "\u2581rich": 2293,
  "\u2581youths": 2294,
  "\u2581Though": 2295,
  "\u2581br\u025b": 2296,
  "\u2581lack": 2297,
  "\u2581protect": 2298,
  "\u2581Efesofo": 2299,
  "\u2581twe": 2300,
  "\u2581AIDS": 2301,
  "\u2581feet": 2302,
  "\u2581befi": 2303,
  "\u2581nte": 2304,
  "\u2581anni": 2305,
  "\u2581atamfo": 2306,
  "\u2581baasa": 2307,
  "\u2581dap\u025bn": 2308,
  "\u2581tribulation": 2309,
  "\u2581\u0254dan": 2310,
  "\u2581aniwa": 2311,
  "N": 2312,
  "\u2581Russia": 2313,
  "\u2581ogya": 2314,
  "\u2581w\u0254ab\u0254": 2315,
  "\u2581Coliseum": 2316,
  "\u2581Nevertheless": 2317,
  "\u2581conditions": 2318,
  "\u258135": 2319,
  "\u2581Babylon": 2320,
  "\u2581animals": 2321,
  "\u2581invited": 2322,
  "\u2581Judah": 2323,
  "\u2581babea": 2324,
  "\u2581hy\u025bn": 2325,
  "\u2581include": 2326,
  "ers": 2327,
  "\u2581beginning": 2328,
  "\u2581osetie": 2329,
  "\u2581political": 2330,
  "\u2581H": 2331,
  "\u2581nidi": 2332,
  "\u2581sign": 2333,
  "\u2581exercise": 2334,
  "\u2581interests": 2335,
  "\u2581member": 2336,
  "\u2581condition": 2337,
  "\u2581parent": 2338,
  "\u2581egye": 2339,
  "\u2581oo": 2340,
  "de": 2341,
  "\u2581personality": 2342,
  "\u2581tree": 2343,
  "\u2581Convention": 2344,
  "\u2581Holy": 2345,
  "\u2581quickly": 2346,
  "\u2581nsase": 2347,
  "\u2581wiei": 2348,
  "\u2581Ephesians": 2349,
  "\u2581usually": 2350,
  "\u2581akwampae": 2351,
  "\u2581choose": 2352,
  "\u2581Further": 2353,
  "\u2581agyede": 2354,
  "\u2581nkurow": 2355,
  "\u2581feeling": 2356,
  "\u2581\u0186d\u0254": 2357,
  "\u2581challenge": 2358,
  "\u2581provides": 2359,
  "\u2581Pa": 2360,
  "\u2581Sukuu": 2361,
  "\u2581benefits": 2362,
  "\u2581\u0254b\u0254": 2363,
  "\u2581showing": 2364,
  "\u2581adwempa": 2365,
  "\u2581expression": 2366,
  "\u2581pintinn": 2367,
  "\u2581anwonwade": 2368,
  "\u2581program": 2369,
  "\u2581servant": 2370,
  "\u2581ason": 2371,
  "\u2581nn\u0254nhwerew": 2372,
  "\u258131.": 2373,
  "\u2581mfiri": 2374,
  "\u2581mmienu": 2375,
  "\u2581nhyia": 2376,
  "\u2581faako": 2377,
  "\u2581nkyer\u025bwee": 2378,
  "\u2581B\u0254fo": 2379,
  "\u2581priest": 2380,
  "\u2581\u0254bras\u025be": 2381,
  "\u2581\u0254fa": 2382,
  "\u2581encouragement": 2383,
  "\u2581Ghana": 2384,
  "\u2581ntini": 2385,
  "\u2581prayed": 2386,
  "\u2581walking": 2387,
  "\u2581\u0254kyer\u025bw": 2388,
  "\u2581aky\u025b": 2389,
  "\u2581beyond": 2390,
  "\u2581nkwagye": 2391,
  "\u2581noted": 2392,
  "If": 2393,
  "\u2581Marko": 2394,
  "\u2581baguam": 2395,
  "\u2581parts": 2396,
  "\u2581somfo": 2397,
  "ofii": 2398,
  "\u25817]": 2399,
  "\u2581Perhaps": 2400,
  "\u2581aberante": 2401,
  "\u2581blessed": 2402,
  "\u2581obenya": 2403,
  "\u2581completely": 2404,
  "\u2581expect": 2405,
  "\u2581Ahorow": 2406,
  "\u2581Emu": 2407,
  "\u2581enjoyed": 2408,
  "\u2581progress": 2409,
  "\u2581voice": 2410,
  "\u2581eventually": 2411,
  "\u2581Love": 2412,
  "\u2581ayaresabea": 2413,
  "\u2581followed": 2414,
  "\u2581Hy\u025b": 2415,
  "\u2581School": 2416,
  "\u2581fire": 2417,
  "\u2581pon": 2418,
  "\u2581wohia": 2419,
  "\u2581imperfect": 2420,
  "\u2581sikas\u025bm": 2421,
  "\u2581Soon": 2422,
  "\u2581priests": 2423,
  "\u2581Ka": 2424,
  "\u2581Maame": 2425,
  "\u2581Spain": 2426,
  "\u2581spent": 2427,
  "\u2581worked": 2428,
  "\u2581Messiah": 2429,
  "\u2581either": 2430,
  "It": 2431,
  "\u2581greatest": 2432,
  "\u2581\u0190ka": 2433,
  "Monkenkan": 2434,
  "\u2581Di": 2435,
  "\u2581related": 2436,
  "\u2581January": 2437,
  "\u2581quality": 2438,
  "\u2581Ansa": 2439,
  "\u2581German": 2440,
  "\u2581Jacob": 2441,
  "\u2581acts": 2442,
  "\u2581cases": 2443,
  "\u2581encourage": 2444,
  "\u2581ready": 2445,
  "\u2581kurom": 2446,
  "\u2581onua": 2447,
  "\u2581osuahu": 2448,
  "\u2581alive": 2449,
  "\u2581humble": 2450,
  "\u2581mm\u0254denb\u0254": 2451,
  "\u2581y\u025bny\u025b": 2452,
  "\u2581assigned": 2453,
  "\u2581nnuan": 2454,
  "\u2581recent": 2455,
  "ifii": 2456,
  "\u2581knowing": 2457,
  "We": 2458,
  "\u2581medical": 2459,
  "\u2581seeking": 2460,
  "\u2581trying": 2461,
  "\u2581abot\u0254yam": 2462,
  "\u2581Hena": 2463,
  "\u2581arrived": 2464,
  "\u2581twa": 2465,
  "\u2581warning": 2466,
  "\u2581Mexico": 2467,
  "\u2581girl": 2468,
  "\u2581Foforo": 2469,
  "\u2581fulfilled": 2470,
  "\u2581yesua": 2471,
  "\u2581Po": 2472,
  "\u2581areas": 2473,
  "\u2581courage": 2474,
  "\u2581mp\u0254tam": 2475,
  "\u2581studies": 2476,
  "\u2581\u025bboro": 2477,
  "\u2581G": 2478,
  "\u2581an\u0254pa": 2479,
  "\u2581atemmu": 2480,
  "\u2581looking": 2481,
  "\u2581wim": 2482,
  "ahenni": 2483,
  "\u2581goal": 2484,
  "\u2581\u0190ma": 2485,
  "\u258124,": 2486,
  "\u2581\u0186b\u0254ade\u025b": 2487,
  "\u2581Keep": 2488,
  "\u2581Nhw\u025bso": 2489,
  "\u2581akwahosan": 2490,
  "p": 2491,
  "\u258116:": 2492,
  "\u2581Europe": 2493,
  "\u2581yegye": 2494,
  "\u2581record": 2495,
  "\u2581Ask": 2496,
  "\u2581behu": 2497,
  "\u2581\u0254manfo": 2498,
  "man": 2499,
  "\u2581display": 2500,
  "\u2581\u0254sram": 2501,
  "so": 2502,
  "\u2581adawurub\u0254fo": 2503,
  "\u2581onii": 2504,
  "on": 2505,
  "\u2581success": 2506,
  "ra": 2507,
  "\u2581beautiful": 2508,
  "\u2581deeply": 2509,
  "\u2581sound": 2510,
  "\u2581akode": 2511,
  "\u2581enemies": 2512,
  "less": 2513,
  "\u2581reported": 2514,
  "\u2581society": 2515,
  "\u2581Brazil": 2516,
  "\u2581muni": 2517,
  "\u2581reb\u0254": 2518,
  "\u2581\u0254k\u0254\u0254": 2519,
  "\u2581revealed": 2520,
  "\u2581whatever": 2521,
  "\u2581abira": 2522,
  "\u2581Yakob": 2523,
  "\u2581security": 2524,
  "\u2581adamfo": 2525,
  "\u2581dwen": 2526,
  "\u2581missionaries": 2527,
  "\u2581w\u0254kyer\u025bw": 2528,
  "\u2581emotional": 2529,
  "\u2581ohui": 2530,
  "\u2581Despi": 2531,
  "\u2581amammer\u025b": 2532,
  "\u2581Dabi": 2533,
  "\u2581final": 2534,
  "\u2581firm": 2535,
  "\u2581express": 2536,
  "\u2581Us": 2537,
  "\u2581k\u0254k\u0254b\u0254": 2538,
  "\u2581\u025bte\u025b": 2539,
  "\u2581akwampaefo": 2540,
  "\u2581wogyina": 2541,
  "\u2581ab\u025bn": 2542,
  "\u2581favor": 2543,
  "\u2581obedi": 2544,
  "\u2581hyew": 2545,
  "\u2581mpanyin": 2546,
  "\u2581wonnim": 2547,
  "Bere": 2548,
  "\u2581expressed": 2549,
  "\u2581gua": 2550,
  "\u2581lot": 2551,
  "\u2581social": 2552,
  "\u2581youth": 2553,
  "\u2581yenim": 2554,
  "w\u0254": 2555,
  "\u2581km": 2556,
  "\u2581month": 2557,
  "\u2581NO": 2558,
  "\u2581bear": 2559,
  "\u2581Paapa": 2560,
  "\u2581Italy": 2561,
  "\u2581protection": 2562,
  "\u2581spend": 2563,
  "\u2581wives": 2564,
  "\u2581\u0254k\u0254": 2565,
  "\u2581Christendom": 2566,
  "\u2581at\u0254": 2567,
  "\u2581desires": 2568,
  "\u2581dwiriw": 2569,
  "\u2581w\u0254ahy\u025b": 2570,
  "ano": 2571,
  "\u2581Where": 2572,
  "\u2581woyi": 2573,
  "\u2581London": 2574,
  "\u2581publications": 2575,
  "\u2581n\u00e1": 2576,
  "adamfo": 2577,
  "\u2581nhumu": 2578,
  "\u2581About": 2579,
  "\u2581Greece": 2580,
  "\u2581presence": 2581,
  "\u2581yiyedi": 2582,
  "\u2581\u025bb\u0254": 2583,
  "\u2581line": 2584,
  "\u2581choice": 2585,
  "no": 2586,
  "\u2581Similarly": 2587,
  "\u2581Tete": 2588,
  "\u2581Amerika": 2589,
  "\u2581sea": 2590,
  "\u2581w\u0254b\u025bka": 2591,
  "\u2581boro": 2592,
  "\u2581enable": 2593,
  "\u2581passed": 2594,
  "\u2581wunya": 2595,
  "\u2581killed": 2596,
  "\u2581o": 2597,
  "\u2581prepared": 2598,
  "\u2581nipa": 2599,
  "\u2581Kristoman": 2600,
  "\u2581begin": 2601,
  "\u2581fall": 2602,
  "\u2581filled": 2603,
  "\u2581nketenkete": 2604,
  "\u2581observed": 2605,
  "\u2581K\u0254": 2606,
  "\u2581mercy": 2607,
  "\u2581brings": 2608,
  "\u2581sukuufo": 2609,
  "\u2581yebedi": 2610,
  "\u2581ehu": 2611,
  "\u2581outside": 2612,
  "\u2581sick": 2613,
  "\u2581test": 2614,
  "\u2581\u0190ns\u025b": 2615,
  "agya": 2616,
  "\u2581dedication": 2617,
  "\u2581explain": 2618,
  "\u2581groups": 2619,
  "\u2581dedicated": 2620,
  "\u2581y\u025bmfa": 2621,
  "\u2581Ave": 2622,
  "\u2581paw": 2623,
  "\u2581hw\u025b\u025b": 2624,
  "\u2581S\u0190": 2625,
  "\u2581osu": 2626,
  "\u258127.": 2627,
  "\u2581Translation": 2628,
  "\u2581ates\u025bm": 2629,
  "\u2581meka": 2630,
  "\u2581treat": 2631,
  "\u2581hena": 2632,
  "\u2581yebu": 2633,
  "\u258121,": 2634,
  "\u2581akyer\u025bkyer\u025bfo": 2635,
  "\u2581atua": 2636,
  "da": 2637,
  "\u2581India": 2638,
  "\u2581edin": 2639,
  "\u2581mmirika": 2640,
  "\u258165": 2641,
  "\u2581Remember": 2642,
  "\u2581ayaresa": 2643,
  "\u2581sa": 2644,
  "\u2581Through": 2645,
  "\u2581akannifo": 2646,
  "\u2581general": 2647,
  "\u2581ketewaa": 2648,
  "\u2581meant": 2649,
  "h": 2650,
  "\u2581w\u0254d\u0254": 2651,
  "FA": 2652,
  "di": 2653,
  "\u2581akosi": 2654,
  "\u2581ground": 2655,
  "\u2581nature": 2656,
  "\u2581prevent": 2657,
  "\u2581term": 2658,
  "\u258145": 2659,
  "\u2581Times": 2660,
  "\u2581ahonyade": 2661,
  "\u2581manya": 2662,
  "\u2581sacred": 2663,
  "j": 2664,
  "\u2581b\u025bto": 2665,
  "\u2581original": 2666,
  "\u2581Children": 2667,
  "\u2581contact": 2668,
  "\u2581forward": 2669,
  "\u2581overseer": 2670,
  "\u2581Hene": 2671,
  "\u2581ahead": 2672,
  "\u2581yourselves": 2673,
  "\u00a9": 2674,
  "\u2581homes": 2675,
  "\u2581faced": 2676,
  "\u2581mete": 2677,
  "\u2581Elia": 2678,
  "\u2581sun": 2679,
  "\u2581treatment": 2680,
  "\u2581Nkur\u0254fo": 2681,
  "\u2581Wei": 2682,
  "\u2581akwantu": 2683,
  "\u2581genuine": 2684,
  "\u2581\u025bs\u0254": 2685,
  "\u258120:": 2686,
  "\u258128,": 2687,
  "\u2581sisi": 2688,
  "\u2581angel": 2689,
  "\u2581k\u0254e": 2690,
  "\u2581approach": 2691,
  "\u2581mental": 2692,
  "\u2581sint\u0254": 2693,
  "\u2581teacher": 2694,
  "\u2581Britain": 2695,
  "\u2581established": 2696,
  "\u2581realized": 2697,
  "\u2581town": 2698,
  "\u2581third": 2699,
  "\u2581wotu": 2700,
  "\u2581w\u0254agye": 2701,
  "\u2581City": 2702,
  "\u2581anky\u025b": 2703,
  "\u2581cope": 2704,
  "\u2581developed": 2705,
  "\u2581fight": 2706,
  "\u2581fruit": 2707,
  "is": 2708,
  "\u2581at\u025bntrenee": 2709,
  "\u2581calls": 2710,
  "\u2581major": 2711,
  "\u2581built": 2712,
  "\u258130.": 2713,
  "\u2581Clearly": 2714,
  "\u2581ahwehw\u025b": 2715,
  "\u2581nne": 2716,
  "\u2581reflect": 2717,
  "\u2581IN": 2718,
  "\u2581amfa": 2719,
  "\u2581babarima": 2720,
  "\u2581carefully": 2721,
  "\u2581teachers": 2722,
  "In": 2723,
  "\u2581mm\u0254borohunu": 2724,
  "\u2581\u0186som": 2725,
  "\u2581asiesie": 2726,
  "\u2581relief": 2727,
  "\u2581nsoromma": 2728,
  "\u2581\u0254yere": 2729,
  "\u2581Kae": 2730,
  "\u2581yenni": 2731,
  "\u2581American": 2732,
  "\u2581Christianity": 2733,
  "\u2581nkitaho": 2734,
  "\u258135.": 2735,
  "\u2581contrast": 2736,
  "\u2581mmep\u0254w": 2737,
  "\u2581f\u0254": 2738,
  "\u2581importance": 2739,
  "\u2581risk": 2740,
  "\u2581simple": 2741,
  "\u2581w\u0254hwehw\u025b": 2742,
  "\u2581awia": 2743,
  "\u258126.": 2744,
  "\u2581Eden": 2745,
  "\u2581Nhyiam": 2746,
  "\u2581idea": 2747,
  "\u2581keeping": 2748,
  "\u2581principle": 2749,
  "\u2581despite": 2750,
  "\u2581kum": 2751,
  "\u2581required": 2752,
  "\u2581television": 2753,
  "\u2581behalf": 2754,
  "\u2581standing": 2755,
  "\u2581\u025bkaa": 2756,
  "Wo": 2757,
  "\u2581business": 2758,
  "\u2581nkyeky\u025bm": 2759,
  "Do": 2760,
  "\u2581command": 2761,
  "\u2581destroyed": 2762,
  "\u2581sobo": 2763,
  "\u2581steps": 2764,
  "\u2581nte\u025bso": 2765,
  "\u2581resurrected": 2766,
  "\u2581sacrifices": 2767,
  "\u2581agyapade": 2768,
  "\u2581m\u025by\u025b": 2769,
  "\u2581Adaka": 2770,
  "\u25814;": 2771,
  "\u2581devotion": 2772,
  "\u2581mere": 2773,
  "\u2581Anky\u025b": 2774,
  "\u2581W\u0254ka": 2775,
  "\u2581akontaa": 2776,
  "\u2581cultivate": 2777,
  "\u2581included": 2778,
  "\u2581Lot": 2779,
  "\u2581TV": 2780,
  "\u2581fata": 2781,
  "\u2581mihui": 2782,
  "\u2581translation": 2783,
  "\u2581video": 2784,
  "\u2581woyii": 2785,
  "\u2581persecution": 2786,
  "\u2581wama": 2787,
  "\u2581workers": 2788,
  "\u2581ayayade": 2789,
  "\u2581mp\u025b": 2790,
  "\u2581behavior": 2791,
  "\u2581ohia": 2792,
  "\u2581yebesusuw": 2793,
  "\u2581SO": 2794,
  "\u2581anigyede": 2795,
  "\u2581neighbor": 2796,
  "\u2581nketewa": 2797,
  "\u2581Obiara": 2798,
  "\u2581illustration": 2799,
  "\u2581patient": 2800,
  "\u2581asusuw": 2801,
  "\u2581Elijah": 2802,
  "\u2581Latin": 2803,
  "\u2581November": 2804,
  "\u2581anwummere": 2805,
  "\u2581asan": 2806,
  "\u2581discuss": 2807,
  "\u2581Pennsylvania": 2808,
  "\u2581State": 2809,
  "\u2581opposition": 2810,
  "\u2581dibea": 2811,
  "\u2581lesson": 2812,
  "\u2581\u0254mfa": 2813,
  "\u2581ky\u025b": 2814,
  "\u2581recognize": 2815,
  "\u2581Kristosom": 2816,
  "\u2581experiences": 2817,
  "\u2581kings": 2818,
  "le": 2819,
  "\u2581attended": 2820,
  "\u2581efii": 2821,
  "\u2581tena": 2822,
  "\u2581traa": 2823,
  "\u2581wobehu": 2824,
  "\u2581Joshua": 2825,
  "\u2581immediately": 2826,
  "\u2581flock": 2827,
  "\u2581\u025bnna": 2828,
  "Let": 2829,
  "\u2581chosen": 2830,
  "\u2581wohui": 2831,
  "\u2581Each": 2832,
  "\u2581PAGE": 2833,
  "\u2581seemed": 2834,
  "\u2581spoken": 2835,
  "\u2581unity": 2836,
  "\u2581involves": 2837,
  "\u2581key": 2838,
  "\u2581produce": 2839,
  "quite": 2840,
  "\u2581Also": 2841,
  "\u2581vision": 2842,
  "\u2581Kenkan": 2843,
  "org": 2844,
  "\u2581KRATA": 2845,
  "\u2581Kronkron": 2846,
  "\u2581danger": 2847,
  "\u2581hour": 2848,
  "\u2581\u0254kra": 2849,
  "\u258136": 2850,
  "\u2581increase": 2851,
  "\u2581mmaa": 2852,
  "\u2581although": 2853,
  "\u2581arrangement": 2854,
  "\u2581truths": 2855,
  "Mo": 2856,
  "\u2581closer": 2857,
  "\u2581minister": 2858,
  "\u2581bep\u0254w": 2859,
  "\u2581goals": 2860,
  "\u2581publishers": 2861,
  "\u25819]": 2862,
  "\u2581declared": 2863,
  "as": 2864,
  "\u2581finally": 2865,
  "\u2581lose": 2866,
  "\u2581Gyidi": 2867,
  "\u2581boy": 2868,
  "\u2581dadwen": 2869,
  "\u2581visited": 2870,
  "\u2581b\u025btra": 2871,
  "\u2581forgive": 2872,
  "\u2581mmabun": 2873,
  "\u2581y\u025bfa": 2874,
  "more": 2875,
  "\u2581nsonsonoe": 2876,
  "\u2581personally": 2877,
  "\u2581practices": 2878,
  "\u2581\u25aa": 2879,
  "\u258133.": 2880,
  "\u2581mm\u0254b\u0254": 2881,
  "\u2581sex": 2882,
  "ee": 2883,
  "\u2581articles": 2884,
  "\u2581asa": 2885,
  "\u2581forget": 2886,
  "\u2581reasonable": 2887,
  "\u2581sleep": 2888,
  "\u2581suffered": 2889,
  "\u2581300": 2890,
  "\u2581believed": 2891,
  "\u2581attending": 2892,
  "\u2581urged": 2893,
  "\u258110]": 2894,
  "\u2581mmabaa": 2895,
  "\u2581Inc": 2896,
  "\u2581wonhu": 2897,
  "\u2581Akwan": 2898,
  "\u2581household": 2899,
  "\u2581seed": 2900,
  "\u2581Well": 2901,
  "\u2581Filipifo": 2902,
  "\u2581limited": 2903,
  "en": 2904,
  "\u2581Misraim": 2905,
  "\u2581\u0190h\u0254": 2906,
  "\u25811993": 2907,
  "\u2581Katolek": 2908,
  "\u2581cut": 2909,
  "\u2581s\u025bee": 2910,
  "\u2581abom": 2911,
  "\u2581affection": 2912,
  "\u2581examine": 2913,
  "\u2581asub\u0254": 2914,
  "\u2581picture": 2915,
  "\u2581refused": 2916,
  "\u2581room": 2917,
  "\u2581association": 2918,
  "\u2581focus": 2919,
  "abusuafo": 2920,
  "\u2581Adi": 2921,
  "\u2581consequences": 2922,
  "\u2581notes": 2923,
  "\u2581accounts": 2924,
  "\u2581loss": 2925,
  "\u2581osuro": 2926,
  "Agya": 2927,
  "\u2581loyalty": 2928,
  "\u2581mmerante": 2929,
  "\u2581sharing": 2930,
  "\u2581wonnye": 2931,
  "\u2581w\u0254kaa": 2932,
  "\u2581\u0254san": 2933,
  "NEA": 2934,
  "\u258110;": 2935,
  "\u2581w\u0254afa": 2936,
  "\u2581amanne": 2937,
  "\u2581\u0254kyer\u025bkyer\u025b": 2938,
  "\u258116;": 2939,
  "\u2581February": 2940,
  "\u2581Ns\u025bmmisa": 2941,
  "\u2581asen": 2942,
  "\u2581convinced": 2943,
  "\u2581nhomawa": 2944,
  "\u2581\u0254kyer\u025bwee": 2945,
  "\u25811995": 2946,
  "\u2581Mfaso": 2947,
  "\u2581pioneers": 2948,
  "\u2581rejoice": 2949,
  "\u2581situations": 2950,
  "\u2581y\u025bb\u025bk\u0254": 2951,
  "\u2581\u0186s\u025bnkafo": 2952,
  "\u2581Philippians": 2953,
  "\u2581amansan": 2954,
  "\u2581evening": 2955,
  "\u2581wohw\u025b": 2956,
  "\u2581\u025bmma": 2957,
  "ahyira": 2958,
  "\u2581Over": 2959,
  "\u2581Yosua": 2960,
  "\u2581attack": 2961,
  "\u2581effective": 2962,
  "\u2581sort": 2963,
  "\u2581w\u0254kae": 2964,
  "adwenem": 2965,
  "\u2581ahiafo": 2966,
  "\u2581spread": 2967,
  "\u2581car": 2968,
  "\u2581observe": 2969,
  "\u2581prepare": 2970,
  "\u2581seeing": 2971,
  "Fa": 2972,
  "\u2581agree": 2973,
  "\u2581ah\u0254ho": 2974,
  "\u2581edidi": 2975,
  "\u2581woahu": 2976,
  "kunkum": 2977,
  "\u258123]": 2978,
  "\u258138": 2979,
  "\u2581nn\u025byi": 2980,
  "\u2581\u0254re": 2981,
  "\u2581Family": 2982,
  "\u2581akyer\u025bwfo": 2983,
  "\u2581answered": 2984,
  "He": 2985,
  "\u2581Re": 2986,
  "\u2581continues": 2987,
  "\u2581nnipakuw": 2988,
  "\u2581w\u0254re": 2989,
  "\u2581y\u025baka": 2990,
  "\u2581manner": 2991,
  "\u2581warned": 2992,
  "able": 2993,
  "\u2581akyirikyiri": 2994,
  "\u2581compassion": 2995,
  "\u2581B\u0254": 2996,
  "\u2581Ruth": 2997,
  "\u2581asking": 2998,
  "\u2581basabasa": 2999,
  "\u2581adwumaden": 3000,
  "\u2581watch": 3001,
  "\u25aa": 3002,
  "\u2581afuw": 3003,
  "\u2581authorities": 3004,
  "\u2581student": 3005,
  "\u2581wobegye": 3006,
  "\u2581\u0254f\u00e3": 3007,
  "\u2581High": 3008,
  "\u2581instead": 3009,
  "\u2581Work": 3010,
  "\u2581bread": 3011,
  "\u2581police": 3012,
  "\u2581step": 3013,
  "N\u00e1": 3014,
  "\u2581Ecclesiastes": 3015,
  "hw\u025b": 3016,
  "\u2581obedience": 3017,
  "\u2581obedient": 3018,
  "\u2581play": 3019,
  "\u2581adidi": 3020,
  "\u2581Good": 3021,
  "\u2581firi": 3022,
  "\u2581y\u025badi": 3023,
  "\u2581Anaas\u025b": 3024,
  "\u2581akyer\u025bkyer\u025b": 3025,
  "\u2581front": 3026,
  "\u2581ohuu": 3027,
  "\u2581Her": 3028,
  "\u2581cities": 3029,
  "\u2581court": 3030,
  "\u2581negative": 3031,
  "\u2581w\u0254ama": 3032,
  "\u2581concerned": 3033,
  "\u2581kunkum": 3034,
  "\u2581late": 3035,
  "\u2581tua": 3036,
  "\u2581\u0254mantam": 3037,
  "traa": 3038,
  "\u2581existence": 3039,
  "\u2581kanyan": 3040,
  "\u2581odwo": 3041,
  "\u2581okunu": 3042,
  "\u2581responsible": 3043,
  "\u25cf": 3044,
  "3": 3045,
  "\u2581CA": 3046,
  "\u2581Engiresi": 3047,
  "\u2581mmer\u025bwy\u025b": 3048,
  "\u2581polisifo": 3049,
  "\u2581active": 3050,
  "\u2581army": 3051,
  "\u2581siesie": 3052,
  "\u258123,": 3053,
  "\u2581Henanom": 3054,
  "\u2581Man": 3055,
  "\u2581enye": 3056,
  "\u2581\u025bbae": 3057,
  "\u2581Abusua": 3058,
  "\u2581Encyclopedia": 3059,
  "\u2581humility": 3060,
  "\u2581mmra": 3061,
  "\u2581wotie": 3062,
  "D": 3063,
  "W\u0254": 3064,
  "ma": 3065,
  "\u2581easily": 3066,
  "\u2581\u0254s\u0254fo": 3067,
  "\u2581\u0254s\u025be": 3068,
  "\u2581\u025bkanyan": 3069,
  "T": 3070,
  "\u2581drugs": 3071,
  "\u2581remained": 3072,
  "mong": 3073,
  "\u2581African": 3074,
  "\u2581grateful": 3075,
  "\u2581nkuranhy\u025b": 3076,
  "\u2581nyansahu": 3077,
  "\u2581sight": 3078,
  "\u2581mmu": 3079,
  "\u2581w\u0254b\u025bk\u0254": 3080,
  "\u2581abuse": 3081,
  "\u2581requires": 3082,
  "\u2581includes": 3083,
  "\u2581\u0254pepepem": 3084,
  "\u258126]": 3085,
  "\u2581Bep\u0254w": 3086,
  "\u2581Mma": 3087,
  "\u2581Mother": 3088,
  "\u2581akyer\u025bw": 3089,
  "\u2581challenges": 3090,
  "\u2581hwehw\u025b\u025b": 3091,
  "\u2581nyae": 3092,
  "\u2581kokoam": 3093,
  "\u2581music": 3094,
  "\u2581ntoboa": 3095,
  "\u2581anisoadehu": 3096,
  "\u2581military": 3097,
  "\u2581specific": 3098,
  "\u2581Should": 3099,
  "\u2581commanded": 3100,
  "\u2581conclusion": 3101,
  "\u2581wimhy\u025bn": 3102,
  "\u2581ns\u025bmm\u0254nedi": 3103,
  "P": 3104,
  "\u2581Was": 3105,
  "\u2581event": 3106,
  "\u2581nkyer\u025bkyer\u025bmu": 3107,
  "\u2581sovereignty": 3108,
  "\u2581telefon": 3109,
  "\u2581viewed": 3110,
  "\u2581note": 3111,
  "\u2581opened": 3112,
  "\u2581weeks": 3113,
  "\u2581delight": 3114,
  "\u2581points": 3115,
  "\u2581relatives": 3116,
  "\u2581abr\u025b": 3117,
  "\u2581wokura": 3118,
  "\u258112;": 3119,
  "\u2581Y\u025bde": 3120,
  "\u2581appear": 3121,
  "\u2581particularly": 3122,
  "\u2581Mount": 3123,
  "\u2581failed": 3124,
  "\u2581\u025bnte": 3125,
  "\u2581Awofo": 3126,
  "\u2581Only": 3127,
  "\u2581nantew": 3128,
  "\u2581anyame": 3129,
  "\u2581fail": 3130,
  "\u2581imagine": 3131,
  "\u2581wob\u025bka": 3132,
  "\u2581Yehu": 3133,
  "\u2581asisi": 3134,
  "\u2581describes": 3135,
  "\u2581growing": 3136,
  "\u2581hunu": 3137,
  "\u2581wosua": 3138,
  "f": 3139,
  "\u2581Nhwehw\u025bmu": 3140,
  "\u2581Su": 3141,
  "\u2581crime": 3142,
  "\u2581goes": 3143,
  "\u2581persons": 3144,
  "\u2581sincere": 3145,
  "\u2581Kolosefo": 3146,
  "\u2581basic": 3147,
  "\u2581becomes": 3148,
  "\u2581looked": 3149,
  "\u2581ontumi": 3150,
  "\u2581universe": 3151,
  "\u2581\u0190te": 3152,
  "\u2581Fi": 3153,
  "\u2581mouth": 3154,
  "W": 3155,
  "\u2581save": 3156,
  "\u2581tongue": 3157,
  "\u2581odwontofo": 3158,
  "\u2581yentumi": 3159,
  "\u2581Som": 3160,
  "\u2581hyehy\u025b": 3161,
  "\u2581road": 3162,
  "\u2581yensusuw": 3163,
  "\u2581\u0186no": 3164,
  "\u2581Colossians": 3165,
  "\u2581shepherd": 3166,
  "\u2581B\u025by\u025b": 3167,
  "\u2581strive": 3168,
  "\u2581response": 3169,
  "This": 3170,
  "\u2581Hesekiel": 3171,
  "\u2581nto": 3172,
  "\u2581y\u025bsr\u025b": 3173,
  "\u2581\u025brenky\u025b": 3174,
  "\u2581Questions": 3175,
  "\u2581adwumay\u025bbea": 3176,
  "\u2581forgiveness": 3177,
  "\u2581f\u025bw": 3178,
  "\u2581Aaron": 3179,
  "\u2581Finally": 3180,
  "\u2581mfinimfini": 3181,
  "kanyan": 3182,
  "\u2581Fam": 3183,
  "\u2581illness": 3184,
  "\u2581nkae": 3185,
  "\u2581ntoatoaso": 3186,
  "\u2581tema": 3187,
  "\u2581verse": 3188,
  "\u2581\u0254k\u0254m": 3189,
  "\u2581Robert": 3190,
  "\u2581affected": 3191,
  "\u2581oprehy\u025bn": 3192,
  "akwan": 3193,
  "\u2581abotare": 3194,
  "\u2581elderly": 3195,
  "\u2581leading": 3196,
  "\u2581pure": 3197,
  "\u2581wie": 3198,
  "\u2581adds": 3199,
  "\u2581preached": 3200,
  "\u2581prophets": 3201,
  "\u2581Book": 3202,
  "\u2581ahohia": 3203,
  "\u2581ahokyere": 3204,
  "\u2581anom": 3205,
  "\u2581esi": 3206,
  "\u2581mek\u0254": 3207,
  "\u2581baby": 3208,
  "\u2581writer": 3209,
  "\u2581yehia": 3210,
  "\u2581Time": 3211,
  "\u2581break": 3212,
  "\u2581\u0186man": 3213,
  "\u2581\u025bbaa": 3214,
  "s\u025bm": 3215,
  "\u2581akyidifo": 3216,
  "\u2581stress": 3217,
  "\u2581carried": 3218,
  "\u2581d\u0254m": 3219,
  "\u2581welcome": 3220,
  "\u2581\u025breba": 3221,
  "\u2581behia": 3222,
  "\u2581gifts": 3223,
  "\u2581offering": 3224,
  "\u2581saved": 3225,
  "\u258115]": 3226,
  "\u2581disciple": 3227,
  "\u2581lie": 3228,
  "\u2581newspaper": 3229,
  "\u2581valuable": 3230,
  "\u2581village": 3231,
  "\u2581NY": 3232,
  "\u2581friendship": 3233,
  "\u2581overcome": 3234,
  "ka": 3235,
  "\u2581enter": 3236,
  "\u2581presented": 3237,
  "\u2581sare": 3238,
  "\u2581y\u025bb\u025bma": 3239,
  "H": 3240,
  "When": 3241,
  "\u2581Kyer\u025bkyer\u025b": 3242,
  "\u2581asuasua": 3243,
  "\u2581names": 3244,
  "\u2581nkratafa": 3245,
  "\u2581reached": 3246,
  "\u2581values": 3247,
  "\u2581Two": 3248,
  "\u2581big": 3249,
  "\u2581caring": 3250,
  "\u2581causes": 3251,
  "\u2581judge": 3252,
  "\u2581particular": 3253,
  "k": 3254,
  "\u2581Baal": 3255,
  "\u2581discreet": 3256,
  "\u2581hyira": 3257,
  "\u2581y\u025bhy\u025b": 3258,
  "\u2581\u025bnte\u025b": 3259,
  "responsibilities": 3260,
  "\u2581encouraging": 3261,
  "\u2581k\u0254k\u0254\u0254": 3262,
  "\u2581\u025btra": 3263,
  "haha": 3264,
  "\u25812000": 3265,
  "\u258180": 3266,
  "\u2581Ezekiel": 3267,
  "\u2581energy": 3268,
  "\u2581greatly": 3269,
  "\u2581sr\u025b": 3270,
  "\u2581Make": 3271,
  "\u2581fulfill": 3272,
  "\u2581doctor": 3273,
  "\u2581guard": 3274,
  "\u2581harm": 3275,
  "\u2581reveal": 3276,
  "like": 3277,
  "\u2581air": 3278,
  "\u2581comments": 3279,
  "\u2581discussion": 3280,
  "\u2581foreign": 3281,
  "\u2581thousand": 3282,
  "\u2581y\u025bd\u0254": 3283,
  "\u2581unique": 3284,
  "me": 3285,
  "\u2581grew": 3286,
  "\u2581mpofirim": 3287,
  "\u2581ahe": 3288,
  "\u2581ahurusi": 3289,
  "\u2581endurance": 3290,
  "\u2581wunim": 3291,
  "and": 3292,
  "\u2581Body": 3293,
  "\u2581Hu": 3294,
  "\u2581dangerous": 3295,
  "el": 3296,
  "it": 3297,
  "\u2581Anaa": 3298,
  "\u2581Onipa": 3299,
  "\u2581improve": 3300,
  "\u2581nuabea": 3301,
  "\u2581territory": 3302,
  "\u2581Once": 3303,
  "\u2581remind": 3304,
  "\u2581image": 3305,
  "\u2581nipasu": 3306,
  "\u2581wosuro": 3307,
  "\u2581zeal": 3308,
  "\u2581direct": 3309,
  "\u2581listening": 3310,
  "\u2581overseers": 3311,
  "\u2581patience": 3312,
  "\u2581race": 3313,
  "\u2581relative": 3314,
  "\u2581successful": 3315,
  "he": 3316,
  "\u258155": 3317,
  "\u2581edu": 3318,
  "\u2581manifest": 3319,
  "\u2581Deuteronomium": 3320,
  "\u2581Ye": 3321,
  "\u2581acceptable": 3322,
  "\u2581agoru": 3323,
  "\u2581international": 3324,
  "\u2581twaa": 3325,
  "\u2581violent": 3326,
  "\u2581Sea": 3327,
  "\u2581Y\u025by\u025b": 3328,
  "\u2581environment": 3329,
  "be": 3330,
  "\u2581Deuteronomy": 3331,
  "\u2581Nya": 3332,
  "\u2581Really": 3333,
  "\u2581confident": 3334,
  "\u2581hearing": 3335,
  "\u2581surely": 3336,
  "\u2581religions": 3337,
  "\u2581rema": 3338,
  "\u258190": 3339,
  "\u2581Isaac": 3340,
  "\u2581amount": 3341,
  "\u2581claim": 3342,
  "\u2581talking": 3343,
  "\u25811994": 3344,
  "\u2581ngu": 3345,
  "\u2581purposes": 3346,
  "\u2581t\u0254\u0254": 3347,
  "\u2581worth": 3348,
  "\u25811997": 3349,
  "\u2581issues": 3350,
  "\u2581k\u0254n": 3351,
  "\u2581sohw\u025bfo": 3352,
  "\u2581\u0186kaa": 3353,
  "\u2581opening": 3354,
  "\u2581wars": 3355,
  "ll": 3356,
  "\u2581Daa": 3357,
  "\u2581placed": 3358,
  "\u2581Under": 3359,
  "\u2581search": 3360,
  "\u2581sini": 3361,
  "\u2581twee": 3362,
  "all": 3363,
  "\u25813;": 3364,
  "\u2581Nkwa": 3365,
  "\u2581af\u0254reb\u0254": 3366,
  "\u2581belief": 3367,
  "\u2581measure": 3368,
  "\u2581tiee": 3369,
  "\u2581understood": 3370,
  "\u2581wokum": 3371,
  "\u2581w\u0254mma": 3372,
  "\u2581y\u025bkae": 3373,
  "\u2581\u025byaw": 3374,
  "\u2581200": 3375,
  "\u2581ababaa": 3376,
  "\u2581adwenemhaw": 3377,
  "\u2581community": 3378,
  "\u2581eight": 3379,
  "\u2581type": 3380,
  "\u2581yehyia": 3381,
  "\u2581\u0186benfo": 3382,
  "\u2581Faith": 3383,
  "\u2581due": 3384,
  "\u2581helpful": 3385,
  "\u2581reward": 3386,
  "\u2581Version": 3387,
  "\u2581careful": 3388,
  "\u2581circuit": 3389,
  "\u2581occur": 3390,
  "\u2581writing": 3391,
  "\u2581Mmoa": 3392,
  "\u2581extreme": 3393,
  "\u2581legal": 3394,
  "\u2581\u0186barima": 3395,
  "\u2581America": 3396,
  "\u2581mudi": 3397,
  "b\u025by\u025b\u025b": 3398,
  "\u2581akuraa": 3399,
  "\u2581atrae": 3400,
  "\u2581atumfo\u0254": 3401,
  "\u2581demons": 3402,
  "\u2581nhomasua": 3403,
  "\u2581story": 3404,
  "\u2581teaches": 3405,
  "\u2581\u025bk\u0254\u0254": 3406,
  "\u2581Help": 3407,
  "\u2581appeared": 3408,
  "\u2581merely": 3409,
  "\u2581pene": 3410,
  "\u2581probably": 3411,
  "\u2581join": 3412,
  "\u2581normal": 3413,
  "\u2581ntama": 3414,
  "\u2581publication": 3415,
  "akoa": 3416,
  "\u2581busy": 3417,
  "\u2581camp": 3418,
  "\u2581minds": 3419,
  "\u2581onuawa": 3420,
  "\u2581pursue": 3421,
  "\u2581reality": 3422,
  "\u2581wait": 3423,
  "\u2581warm": 3424,
  "\u2581wine": 3425,
  "\u2581Soviet": 3426,
  "\u2581Take": 3427,
  "\u2581cost": 3428,
  "\u2581extent": 3429,
  "\u2581poverty": 3430,
  "\u2581prophecies": 3431,
  "ation": 3432,
  "\u2581\u0254boa": 3433,
  "There": 3434,
  "\u2581Being": 3435,
  "\u2581prospect": 3436,
  "\u2581\u0254br\u025b": 3437,
  "\u2581\u0254wofo": 3438,
  "As\u025bm": 3439,
  "\u2581Nkaedi": 3440,
  "\u2581ahantan": 3441,
  "\u2581b\u025bkyer\u025b": 3442,
  "\u2581hundreds": 3443,
  "&": 3444,
  "\u2581battle": 3445,
  "\u2581react": 3446,
  "\u2581referred": 3447,
  "susuw": 3448,
  "\u2581(1)": 3449,
  "\u2581Other": 3450,
  "\u2581as\u025bmmisa": 3451,
  "\u2581statement": 3452,
  "\u2581trained": 3453,
  "\u258148": 3454,
  "\u2581Dansefo": 3455,
  "\u2581adiyifo": 3456,
  "\u2581asefo": 3457,
  "\u2581moy\u025b": 3458,
  "\u2581quoted": 3459,
  "\u258142": 3460,
  "\u2581demonstrate": 3461,
  "\u2581hurt": 3462,
  "\u2581nnuruy\u025bfo": 3463,
  "\u2581train": 3464,
  "\u2581Ano": 3465,
  "\u2581animal": 3466,
  "\u2581\u0254ba": 3467,
  "\u258118]": 3468,
  "\u2581W\u0254y\u025b": 3469,
  "\u2581eating": 3470,
  "\u2581listed": 3471,
  "\u2581uses": 3472,
  "\u2581(2)": 3473,
  "\u25815]": 3474,
  "\u2581History": 3475,
  "\u2581expected": 3476,
  "\u2581gold": 3477,
  "\u2581oduruy\u025bfo": 3478,
  "\u2581w\u0254paw": 3479,
  "\u2581\u0190def": 3480,
  "s\u025b": 3481,
  "\u2581Amos": 3482,
  "\u2581inside": 3483,
  "\u2581y\u025bre": 3484,
  "\u2581\u0254b\u025bka": 3485,
  "\u2581\u0254mma": 3486,
  "\u2581produced": 3487,
  "\u258132.": 3488,
  "\u2581Govern": 3489,
  "\u2581b\u0254e": 3490,
  "\u2581drink": 3491,
  "\u2581identify": 3492,
  "\u2581Tim": 3493,
  "\u2581fell": 3494,
  "\u2581f\u0129": 3495,
  "\u2581organized": 3496,
  "\u2581recently": 3497,
  "\u2581younger": 3498,
  "\u2581bringing": 3499,
  "\u2581factors": 3500,
  "\u2581Land": 3501,
  "\u2581concerning": 3502,
  "\u2581worshipers": 3503,
  "\u2581anxiety": 3504,
  "\u2581studied": 3505,
  "\u2581tears": 3506,
  "\u2581Anuanom": 3507,
  "\u2581Galatifo": 3508,
  "\u2581accomplish": 3509,
  "\u2581discussed": 3510,
  "\u2581nifa": 3511,
  "se": 3512,
  "\u2581Parents": 3513,
  "\u2581as\u025bnnibea": 3514,
  "\u2581atena": 3515,
  "\u2581growth": 3516,
  "\u2581population": 3517,
  "\u2581ad\u0254e": 3518,
  "\u2581gods": 3519,
  "\u2581increased": 3520,
  "\u2581Ankasa": 3521,
  "\u2581creatures": 3522,
  "\u2581decades": 3523,
  "\u2581guide": 3524,
  "\u2581As\u025bmpa": 3525,
  "\u2581Nkabom": 3526,
  "\u2581W\u0186": 3527,
  "\u2581antumi": 3528,
  "\u2581translated": 3529,
  "\u2581Galatians": 3530,
  "\u2581bebu": 3531,
  "\u2581instruction": 3532,
  "\u2581pass": 3533,
  "\u2581Matt": 3534,
  "\u2581ahot\u0254": 3535,
  "\u2581approval": 3536,
  "\u2581e": 3537,
  "\u2581minim": 3538,
  "\u2581w\u0254boa": 3539,
  "\u2581119": 3540,
  "\u2581fill": 3541,
  "\u2581gone": 3542,
  "\u2581refers": 3543,
  "\u2581\u0254badwemma": 3544,
  "\u2581La": 3545,
  "\u2581conversation": 3546,
  "\u2581dawuru": 3547,
  "\u2581evident": 3548,
  "\u2581immorality": 3549,
  "\u2581nkyem": 3550,
  "\u2581nnyina": 3551,
  "\u2581yetie": 3552,
  "\u2581\u0254b\u0254fo": 3553,
  "ap\u025bde": 3554,
  "\u2581economic": 3555,
  "\u2581communication": 3556,
  "\u2581pleasure": 3557,
  "\u2581raise": 3558,
  "\u2581secular": 3559,
  "\u2581Michael": 3560,
  "\u2581consideration": 3561,
  "\u2581w\u0254b\u025bfa": 3562,
  "\u2581Testament": 3563,
  "\u2581fruitage": 3564,
  "\u2581hatred": 3565,
  "\u2581main": 3566,
  "\u2581neighbors": 3567,
  "\u2581\u0254reka": 3568,
  "w\u0254n": 3569,
  "\u2581effects": 3570,
  "\u2581hospital": 3571,
  "\u2581Intan\u025bt": 3572,
  "\u2581ahemman": 3573,
  "\u2581akomat\u0254yam": 3574,
  "\u2581generation": 3575,
  "\u2581troubled": 3576,
  "\u2581k\u0254mputa": 3577,
  "For": 3578,
  "\u2581lies": 3579,
  "\u2581offspring": 3580,
  "\u2581powers": 3581,
  "\u2581pue": 3582,
  "\u2581aniberes\u025bm": 3583,
  "\u2581indicate": 3584,
  "\u2581\u0254mansin": 3585,
  "\u2581Ampa": 3586,
  "\u2581Eyinom": 3587,
  "\u2581French": 3588,
  "\u25811990": 3589,
  "\u2581Nti": 3590,
  "\u2581ank\u0254": 3591,
  "\u2581madi": 3592,
  "\u2581mahu": 3593,
  "\u2581oil": 3594,
  "\u2581sup\u0254w": 3595,
  "\u2581\u025bkor\u0254n": 3596,
  "\u2581committed": 3597,
  "\u2581w\u0254ak\u0254": 3598,
  "\u2581HIV": 3599,
  "\u2581Russell": 3600,
  "\u2581nk\u0254mm\u0254b\u0254": 3601,
  "\u2581assist": 3602,
  "\u2581kill": 3603,
  "\u2581nkyekyem": 3604,
  "\u2581suahu": 3605,
  "\u2581victims": 3606,
  "\u2581aid": 3607,
  "\u2581commandments": 3608,
  "\u2581mpa": 3609,
  "Kenkan": 3610,
  "\u2581Gospel": 3611,
  "\u2581Here": 3612,
  "\u2581Sometimes": 3613,
  "\u2581global": 3614,
  "\u2581secret": 3615,
  "\u2581sigaret": 3616,
  "\u2581\u0254honam": 3617,
  "\u2581Rut": 3618,
  "\u2581insight": 3619,
  "ur": 3620,
  "\u2581Katolekfo": 3621,
  "\u2581nnub\u0254ne": 3622,
  "\u2581sodifo": 3623,
  "\u2581Nations": 3624,
  "\u2581hyiae": 3625,
  "\u2581invitation": 3626,
  "\u2581treated": 3627,
  "\u2581eternal": 3628,
  "\u2581popular": 3629,
  "\u2581riches": 3630,
  "\u2581survive": 3631,
  "\u2581cover": 3632,
  "\u2581research": 3633,
  "\u2581\u0186haw": 3634,
  "do": 3635,
  "ww": 3636,
  "\u258141": 3637,
  "\u2581seriously": 3638,
  "\u2581thank": 3639,
  "\u2581\u025bkam": 3640,
  "\u2581B\u025bn": 3641,
  "\u2581International": 3642,
  "\u2581Mi": 3643,
  "\u2581ayamhyehye": 3644,
  "\u2581destroy": 3645,
  "\u2581mmusuakuw": 3646,
  "\u2581p\u025bs\u025bmenkominya": 3647,
  "ny\u025b": 3648,
  "\u2581Awer\u025bhos\u025bm": 3649,
  "\u2581assured": 3650,
  "\u2581d\u0254te": 3651,
  "\u2581impressed": 3652,
  "\u2581magazines": 3653,
  "\u2581nnaadaa": 3654,
  "\u2581praying": 3655,
  "\u2581run": 3656,
  "\u2581correct": 3657,
  "\u2581nusu": 3658,
  "\u2581siei": 3659,
  "asase": 3660,
  "\u2581advantage": 3661,
  "\u2581apaw": 3662,
  "\u2581essential": 3663,
  "\u2581mature": 3664,
  "\u2581mountain": 3665,
  "\u2581\u0254daa": 3666,
  "My": 3667,
  "aho\u0254den": 3668,
  "\u2581Biblical": 3669,
  "\u2581ahene": 3670,
  "\u2581as\u025bmti": 3671,
  "\u2581beneficial": 3672,
  "\u2581etu": 3673,
  "\u2581nkumaa": 3674,
  "\u2581nkwammoaa": 3675,
  "\u2581nyansahufo": 3676,
  "\u2581w\u0254mm\u0254": 3677,
  "\u2581\u0254kwampaefo": 3678,
  "\u2581applied": 3679,
  "\u2581associated": 3680,
  "\u2581kumaa": 3681,
  "\u2581kyer\u025bws\u025bm": 3682,
  "\u2581yerenom": 3683,
  "\u2581East": 3684,
  "\u2581satisfaction": 3685,
  "hyehy\u025b\u025b": 3686,
  "\u258143": 3687,
  "\u2581Leviticus": 3688,
  "\u2581adwemm\u0254ne": 3689,
  "\u2581ntom": 3690,
  "\u2581process": 3691,
  "\u2581adamfofa": 3692,
  "\u2581baanan": 3693,
  "\u2581mmiako": 3694,
  "\u2581ntamadan": 3695,
  "\u2581waiting": 3696,
  "\u2581Its": 3697,
  "\u2581NNWOM": 3698,
  "\u2581midii": 3699,
  "\u2581144,000": 3700,
  "\u2581Naomi": 3701,
  "\u2581immoral": 3702,
  "\u2581kamfo": 3703,
  "\u2581Heb": 3704,
  "\u2581SONGS": 3705,
  "\u2581company": 3706,
  "\u2581contrary": 3707,
  "\u2581ebesi": 3708,
  "\u2581enemy": 3709,
  "\u2581ns\u025bmfua": 3710,
  "What": 3711,
  "\u258117]": 3712,
  "\u2581National": 3713,
  "\u2581appears": 3714,
  "\u2581b\u025bhw\u025b": 3715,
  "\u2581joyful": 3716,
  "\u2581\u0254tan": 3717,
  "\u2581\u025bky\u025bn": 3718,
  "\u25811996": 3719,
  "\u2581UN": 3720,
  "\u2581abo": 3721,
  "\u2581formed": 3722,
  "\u2581ntew": 3723,
  "\u2581promote": 3724,
  "\u2581request": 3725,
  "\u2581views": 3726,
  "\u2581wish": 3727,
  "\u25811919": 3728,
  "\u2581abeawa": 3729,
  "\u2581agyae": 3730,
  "\u2581aso\u0254den": 3731,
  "\u2581ayarefo": 3732,
  "\u2581chose": 3733,
  "\u2581wei": 3734,
  "\u2581wogyee": 3735,
  "g": 3736,
  "\u2581contains": 3737,
  "\u2581krado": 3738,
  "\u2581letters": 3739,
  "\u2581loves": 3740,
  "\u2581resom": 3741,
  "\u2581HO": 3742,
  "\u2581conflict": 3743,
  "\u2581difference": 3744,
  "\u2581notice": 3745,
  "\u2581responded": 3746,
  "\u2581y\u025brentumi": 3747,
  "\u2581zealous": 3748,
  "\u2581\u0254rey\u025b": 3749,
  "\u2581copy": 3750,
  "\u2581subjects": 3751,
  "\u2581tr\u025bw": 3752,
  "\u258126,": 3753,
  "\u2581Sara": 3754,
  "\u2581b\u025bfa": 3755,
  "\u2581easier": 3756,
  "\u2581governments": 3757,
  "R": 3758,
  "\u2581Without": 3759,
  "\u2581edii": 3760,
  "\u2581likewise": 3761,
  "\u2581non": 3762,
  "\u2581opportunities": 3763,
  "ity": 3764,
  "\u2581North": 3765,
  "\u2581developing": 3766,
  "\u2581distress": 3767,
  "\u2581rejected": 3768,
  "\u2581y\u025bkenkan": 3769,
  "\u2581\u0254b\u0254nefo": 3770,
  "\u2581gui": 3771,
  "\u2581China": 3772,
  "\u2581Kyer\u025b": 3773,
  "\u2581V": 3774,
  "\u2581abisa": 3775,
  "\u2581aspects": 3776,
  "\u2581drug": 3777,
  "\u2581f\u025bf\u025b": 3778,
  "ion": 3779,
  "\u258125]": 3780,
  "\u2581Hav": 3781,
  "\u2581ahohiahia": 3782,
  "\u2581bua": 3783,
  "\u2581evidently": 3784,
  "\u2581kronn": 3785,
  "baa": 3786,
  "tuu": 3787,
  "\u2581Think": 3788,
  "\u2581anifere": 3789,
  "\u2581dealing": 3790,
  "\u2581remma": 3791,
  "\u2581Tebea": 3792,
  "\u2581blind": 3793,
  "\u2581conclude": 3794,
  "\u2581garden": 3795,
  "\u2581recognized": 3796,
  "\u2581shared": 3797,
  "\u2581wealth": 3798,
  "\u2581wide": 3799,
  "gyaw": 3800,
  "\u2581TO": 3801,
  "\u2581forces": 3802,
  "\u2581island": 3803,
  "\u2581joined": 3804,
  "\u2581master": 3805,
  "\u2581renya": 3806,
  "\u2581resist": 3807,
  "\u2581Farisifo": 3808,
  "\u2581as\u0254": 3809,
  "\u2581drinking": 3810,
  "\u2581ebefi": 3811,
  "\u2581mpoano": 3812,
  "\u2581Mede": 3813,
  "\u2581exist": 3814,
  "\u2581remains": 3815,
  "\u2581woay\u025b": 3816,
  "\u2581w\u0254mp\u025b": 3817,
  "\u25816]": 3818,
  "\u2581At\u0254e": 3819,
  "\u2581forms": 3820,
  "\u2581united": 3821,
  "\u2581worshippers": 3822,
  "betumi": 3823,
  "ive": 3824,
  "\u2581discovered": 3825,
  "\u2581healthy": 3826,
  "\u2581low": 3827,
  "\u2581ntra": 3828,
  "Ma": 3829,
  "\u2581Kwan": 3830,
  "\u2581animtiaa": 3831,
  "\u2581nokwarem": 3832,
  "\u2581pride": 3833,
  "\u2581Un": 3834,
  "\u2581apuei": 3835,
  "\u2581bless": 3836,
  "\u2581closely": 3837,
  "\u2581designed": 3838,
  "\u2581trial": 3839,
  "\u2581y\u025breka": 3840,
  "\u2581annye": 3841,
  "\u2581asasesin": 3842,
  "\u2581buy": 3843,
  "\u2581financial": 3844,
  "\u2581husbands": 3845,
  "\u2581lasting": 3846,
  "\u2581setting": 3847,
  "\u2581severe": 3848,
  "\u2581t\u1ebd\u1ebd": 3849,
  "\u2581wab\u0254": 3850,
  "9": 3851,
  "\u2581asesa": 3852,
  "\u2581heavy": 3853,
  "\u2581keteke": 3854,
  "\u2581se": 3855,
  "\u2581\u025bna": 3856,
  "\u2581pattern": 3857,
  "\u2581\u0186bea": 3858,
  "\u2581\u0254tee": 3859,
  "we": 3860,
  "\u2581Mat": 3861,
  "\u2581aside": 3862,
  "\u2581safe": 3863,
  "\u2581slaves": 3864,
  "U": 3865,
  "\u25811999": 3866,
  "\u2581ahokafo": 3867,
  "\u2581facts": 3868,
  "\u2581gyinaesi": 3869,
  "\u2581endeavor": 3870,
  "\u2581inhabitants": 3871,
  "\u2581providing": 3872,
  "ry": 3873,
  "ted": 3874,
  "\u2581Day": 3875,
  "\u2581George": 3876,
  "\u2581Wob\u025by\u025b": 3877,
  "\u2581drawn": 3878,
  "\u2581entertainment": 3879,
  "\u2581escape": 3880,
  "\u2581faithfully": 3881,
  "\u2581ministers": 3882,
  "\u2581mmofraase": 3883,
  "\u2581outstanding": 3884,
  "\u2581white": 3885,
  "\u2581woma": 3886,
  "\u2581\u025bremma": 3887,
  "\u2581Bisa": 3888,
  "\u2581Pet": 3889,
  "So": 3890,
  "dwontofo": 3891,
  "\u2581Imagine": 3892,
  "\u2581Rom": 3893,
  "\u2581box": 3894,
  "\u2581fafiri": 3895,
  "\u2581sesa": 3896,
  "\u2581daughters": 3897,
  "G": 3898,
  "\u258129,": 3899,
  "\u2581Asuafo": 3900,
  "\u2581Kings": 3901,
  "\u2581beyi": 3902,
  "\u2581decide": 3903,
  "\u2581feels": 3904,
  "\u2581odwen": 3905,
  "\u2581tiawa": 3906,
  "by": 3907,
  "kum": 3908,
  "\u2581emotions": 3909,
  "\u2581receiving": 3910,
  "\u2581sinful": 3911,
  "\u2581woka": 3912,
  "fr\u025b\u025b": 3913,
  "ko": 3914,
  "\u2581afraid": 3915,
  "\u2581atos\u025bm": 3916,
  "\u2581churches": 3917,
  "\u2581gyaw": 3918,
  "\u2581harvest": 3919,
  "\u2581witnessing": 3920,
  "asan": 3921,
  "\u2581\"\"": 3922,
  "\u2581Monkenkan": 3923,
  "\u2581mode": 3924,
  "\u2581sie": 3925,
  "ro": 3926,
  "\u2581ad\u025bn": 3927,
  "\u2581begyina": 3928,
  "\u2581connection": 3929,
  "\u2581obtain": 3930,
  "\u2581Ay\u025b": 3931,
  "\u2581Biribi": 3932,
  "\u2581Health": 3933,
  "\u2581Kan": 3934,
  "\u2581attendance": 3935,
  "\u2581date": 3936,
  "\u2581nuabarima": 3937,
  "\u2581soldiers": 3938,
  "\u2581sword": 3939,
  "ta": 3940,
  "\u258134.": 3941,
  "\u2581ruler": 3942,
  "\u2581Isak": 3943,
  "\u2581amfi": 3944,
  "\u2581entered": 3945,
  "\u2581honest": 3946,
  "\u2581nyin": 3947,
  "\u2581relates": 3948,
  "kwan": 3949,
  "\u2581Apuei": 3950,
  "\u2581ahw\u025byiye": 3951,
  "\u2581darkness": 3952,
  "\u2581higher": 3953,
  "\u2581lessons": 3954,
  "\u2581mintumi": 3955,
  "\u2581released": 3956,
  "\u2581undeserved": 3957,
  "\u2581wugye": 3958,
  "\u2581\u0254baa": 3959,
  "\u25811998": 3960,
  "\u2581Ireland": 3961,
  "\u2581kokoram": 3962,
  "\u2581meda": 3963,
  "bisabisaa": 3964,
  "\u258125,": 3965,
  "\u2581Israelite": 3966,
  "\u2581Sarah": 3967,
  "\u2581adagyew": 3968,
  "\u2581afifide": 3969,
  "\u2581bearing": 3970,
  "\u2581conventions": 3971,
  "\u2581depression": 3972,
  "\u2581indicates": 3973,
  "\u2581leaving": 3974,
  "\u2581count": 3975,
  "\u2581fuw": 3976,
  "\u2581nhwiren": 3977,
  "\u2581ntua": 3978,
  "4": 3979,
  "\u2581B\u0254ne": 3980,
  "\u2581cry": 3981,
  "\u2581ideas": 3982,
  "\u2581obegye": 3983,
  "\u2581occurred": 3984,
  "\u2581speaks": 3985,
  "\u2581superior": 3986,
  "\u2581telling": 3987,
  "\u2581wagye": 3988,
  "si": 3989,
  "\u2581(3)": 3990,
  "\u2581Oduruy\u025bfo": 3991,
  "\u2581Pharisees": 3992,
  "\u2581center": 3993,
  "\u2581yie": 3994,
  "\u2581\u0190w\u0254": 3995,
  "\u2581\u025bnam": 3996,
  "\u2581d\u0254la": 3997,
  "\u2581nnyinaso": 3998,
  "\u2581trees": 3999,
  "ar": 4000,
  "pa": 4001,
  "\u2581Asetra": 4002,
  "\u2581Buronya": 4003,
  "\u2581B\u0254hy\u025b": 4004,
  "\u2581Hitler": 4005,
  "\u2581across": 4006,
  "\u2581adwumam": 4007,
  "\u2581balanced": 4008,
  "\u2581create": 4009,
  "\u2581divorce": 4010,
  "\u2581fearing": 4011,
  "\u2581writes": 4012,
  "\u2581directed": 4013,
  "\u2581guan": 4014,
  "\u2581hundred": 4015,
  "\u2581constantly": 4016,
  "\u2581nyansahy\u025b": 4017,
  "\u2581y\u025brey\u025b": 4018,
  "\u2581\u0254tra": 4019,
  "\u2581\u0254yarefo": 4020,
  "\u2581Both": 4021,
  "\u2581Students": 4022,
  "\u2581b\u025bs\u025be": 4023,
  "\u2581nn\u0254bae": 4024,
  "\u2581otu": 4025,
  "\u2581radio": 4026,
  "\u2581sought": 4027,
  "\u2581\u0254b\u025bk\u0254": 4028,
  "\u2581Spanish": 4029,
  "\u2581Tumi": 4030,
  "\u2581agyanom": 4031,
  "\u2581beloved": 4032,
  "\u2581send": 4033,
  "\u2581Note": 4034,
  "\u2581Nsuyiri": 4035,
  "\u2581dealings": 4036,
  "\u2581expressions": 4037,
  "\u2581tintim": 4038,
  "\u2581wotintim": 4039,
  "\u2581Columbia": 4040,
  "\u2581Mfiase": 4041,
  "\u2581Regard": 4042,
  "\u2581w\u0254kyer\u025bkyer\u025b": 4043,
  "\u2581Answer": 4044,
  "\u2581afr\u025b": 4045,
  "\u2581amammui": 4046,
  "\u2581companions": 4047,
  "\u2581directly": 4048,
  "\u2581gathered": 4049,
  "\u2581mmae": 4050,
  "\u2581nhomanimfo": 4051,
  "\u2581apem": 4052,
  "\u2581as\u025bmpatr\u025bw": 4053,
  "\u2581brain": 4054,
  "\u2581stopped": 4055,
  "\u2581wedding": 4056,
  "\u2581b\u025bda": 4057,
  "\u2581mmabea": 4058,
  "All": 4059,
  "\u258144": 4060,
  "\u2581William": 4061,
  "\u2581abasamtu": 4062,
  "\u2581atetes\u025bm": 4063,
  "\u2581worse": 4064,
  "\u2581\u025btaa": 4065,
  "\u2581Nna": 4066,
  "\u2581c": 4067,
  "\u2581critical": 4068,
  "\u2581impossible": 4069,
  "\u2581ky\u025bw": 4070,
  "\u2581moving": 4071,
  "\u2581refuge": 4072,
  "\u2581wickedness": 4073,
  "\u2581wob\u025bp\u025b": 4074,
  "\u2581abaw": 4075,
  "\u2581entitled": 4076,
  "\u2581owui": 4077,
  "\u2581400": 4078,
  "\u2581ayeyi": 4079,
  "\u2581basaa": 4080,
  "\u2581y\u025bak\u0254": 4081,
  "\u2581\u025bb\u025bkyer\u025b": 4082,
  "\u2581Earth": 4083,
  "\u2581carrying": 4084,
  "\u2581ill": 4085,
  "\u2581kasae": 4086,
  "\u2581national": 4087,
  "\u2581w\u0254b\u025bb\u0254": 4088,
  "at": 4089,
  "ia": 4090,
  "\u2581Give": 4091,
  "\u2581armies": 4092,
  "\u2581br\u025b\u025b": 4093,
  "\u2581concluded": 4094,
  "\u2581deliver": 4095,
  "\u2581trouble": 4096,
  "\u2581w\u0254to": 4097,
  "1": 4098,
  "\u258113]": 4099,
  "\u2581appearance": 4100,
  "\u2581assistance": 4101,
  "\u2581slow": 4102,
  "\u2581yegyina": 4103,
  "\u2581Kuw": 4104,
  "\u2581OF": 4105,
  "\u2581abosonsom": 4106,
  "\u2581forced": 4107,
  "\u2581god": 4108,
  "\u2581mountains": 4109,
  "\u2581performed": 4110,
  "\u2581vast": 4111,
  "\u25812001": 4112,
  "\u2581Could": 4113,
  "\u2581NS\u0190M": 4114,
  "\u2581Den": 4115,
  "\u2581may\u025b": 4116,
  "\u2581wawu": 4117,
  "\u2581yes": 4118,
  "\u25811950": 4119,
  "\u2581Poland": 4120,
  "\u2581Sodikuw": 4121,
  "\u2581nananom": 4122,
  "\u2581succeed": 4123,
  "\u2581surprise": 4124,
  "\u258124;": 4125,
  "\u2581render": 4126,
  "\u2581w\u0254tete": 4127,
  "\u2581\u0254benfo": 4128,
  "\u2581Asomdwoe": 4129,
  "\u2581fekub\u0254": 4130,
  "\u2581obehu": 4131,
  "\u2581refer": 4132,
  "\u2581Mosaic": 4133,
  "\u2581deeds": 4134,
  "\u2581pointed": 4135,
  "\u2581struggle": 4136,
  "\u2581\u025bs\u025be": 4137,
  "\u0190y\u025b": 4138,
  "\u2581heed": 4139,
  "\u2581osusuw": 4140,
  "\u2581NA": 4141,
  "\u2581Ps": 4142,
  "\u2581delivered": 4143,
  "\u2581granted": 4144,
  "\u2581gya": 4145,
  "\u2581indicated": 4146,
  "\u2581journey": 4147,
  "\u2581unable": 4148,
  "\u2581Charles": 4149,
  "\u2581akodu": 4150,
  "\u2581billion": 4151,
  "\u2581kindly": 4152,
  "\u2581separate": 4153,
  "\u2581wahu": 4154,
  "\u2581y\u025bnam": 4155,
  "Y\u025bn": 4156,
  "\u2581Blur": 4157,
  "\u2581Study": 4158,
  "\u2581adesuafo": 4159,
  "\u2581strengthened": 4160,
  "nna": 4161,
  "\u2581Dwuma": 4162,
  "\u2581Farao": 4163,
  "\u2581significant": 4164,
  "6": 4165,
  "\u2581Ebi": 4166,
  "\u2581MA": 4167,
  "\u2581awotwe": 4168,
  "\u2581diseases": 4169,
  "\u2581doctors": 4170,
  "\u2581freely": 4171,
  "\u2581listened": 4172,
  "\u2581saafo": 4173,
  "\u2581sit": 4174,
  "\u2581\u0254s\u0254retia": 4175,
  "\u2581akwantufo": 4176,
  "\u2581meal": 4177,
  "\u2581reveals": 4178,
  "\u2581travel": 4179,
  "\u2581wudi": 4180,
  "\u2581Ahene": 4181,
  "\u2581aguadi": 4182,
  "\u2581anamm\u0254n": 4183,
  "\u2581applying": 4184,
  "\u2581nwoma": 4185,
  "\u2581widow": 4186,
  "\u2581w\u0254nom": 4187,
  "\u2581Mika": 4188,
  "\u2581Nnans": 4189,
  "\u2581adesoa": 4190,
  "\u2581adults": 4191,
  "\u2581habits": 4192,
  "\u2581peaceful": 4193,
  "\u2581perform": 4194,
  "\u2581waters": 4195,
  "\u2581y\u025bb\u025bfa": 4196,
  "ary": 4197,
  "\u2581b\u025bte": 4198,
  "\u2581describe": 4199,
  "\u2581katee": 4200,
  "\u2581requirements": 4201,
  "\u2581\u025breny\u025b": 4202,
  "nea": 4203,
  "\u258139": 4204,
  "\u2581Christmas": 4205,
  "\u2581abarimaa": 4206,
  "\u2581list": 4207,
  "\u2581ogyina": 4208,
  "EACH": 4209,
  "\u2581Ama": 4210,
  "\u2581BE": 4211,
  "\u2581prophetic": 4212,
  "\u2581contribute": 4213,
  "\u2581keka": 4214,
  "\u2581require": 4215,
  "ho": 4216,
  "um": 4217,
  "z": 4218,
  "\u2581Pharaoh": 4219,
  "\u2581rules": 4220,
  "\u2581w\u0254nhw\u025b": 4221,
  "\u2581Union": 4222,
  "\u2581chief": 4223,
  "\u2581metee": 4224,
  "\u2581total": 4225,
  "\u2581ahyehy\u025b": 4226,
  "\u2581asotwe": 4227,
  "\u2581girls": 4228,
  "\u2581terms": 4229,
  "\u2581y\u025bhwehw\u025b": 4230,
  "ling": 4231,
  "\u258146": 4232,
  "\u2581Gye": 4233,
  "\u2581Micah": 4234,
  "\u2581News": 4235,
  "\u2581highly": 4236,
  "\u2581involve": 4237,
  "Momfa": 4238,
  "hether": 4239,
  "\u0186": 4240,
  "\u2581alcohol": 4241,
  "\u2581construction": 4242,
  "\u2581rise": 4243,
  "\u2581tender": 4244,
  "\u2581\u0254kyer\u025bkyer\u025bfo": 4245,
  "il": 4246,
  "\u2581Bl": 4247,
  "\u2581Never": 4248,
  "\u2581animdefo": 4249,
  "\u2581at\u0254e": 4250,
  "\u2581dear": 4251,
  "\u2581w\u0254atu": 4252,
  "Compare": 4253,
  "abam": 4254,
  "nhaw": 4255,
  "\u258127,": 4256,
  "\u2581Likewise": 4257,
  "\u2581atwe": 4258,
  "\u2581discernment": 4259,
  "\u2581handle": 4260,
  "\u2581hell": 4261,
  "\u2581parable": 4262,
  "\u2581rentumi": 4263,
  "\u2581temptation": 4264,
  "\u2581wobeyi": 4265,
  "\u2581Gideon": 4266,
  "\u2581Has": 4267,
  "\u2581Y\u025bw\u0254": 4268,
  "\u2581ahaw": 4269,
  "\u2581heartfelt": 4270,
  "\u2581nkrante": 4271,
  "\u2581recalls": 4272,
  "\u2581science": 4273,
  "\u2581w\u0254faa": 4274,
  "yi": 4275,
  "\u2581Every": 4276,
  "\u2581Ns\u025bmpa": 4277,
  "\u2581b\u025btumi": 4278,
  "\u2581grown": 4279,
  "\u2581majority": 4280,
  "\u2581privileges": 4281,
  "\u2581provisions": 4282,
  "\u2581throne": 4283,
  "\u2581Anidaso": 4284,
  "\u2581British": 4285,
  "\u2581Ehia": 4286,
  "\u2581El": 4287,
  "\u2581Yi": 4288,
  "\u2581anwonwa": 4289,
  "\u2581awosu": 4290,
  "\u2581brochure": 4291,
  "\u2581fish": 4292,
  "\u2581injustice": 4293,
  "ba": 4294,
  "\u2581West": 4295,
  "\u2581reject": 4296,
  "\u2581verses": 4297,
  "\u2581weak": 4298,
  "\u2581w\u0254awuwu": 4299,
  "\u2581Aba": 4300,
  "\u2581Nehemia": 4301,
  "\u2581mighty": 4302,
  "\u2581mony\u025b": 4303,
  "\u2581\u0254to": 4304,
  "asomafo": 4305,
  "\u25811992": 4306,
  "\u2581Apam": 4307,
  "\u2581atiefo": 4308,
  "\u2581details": 4309,
  "\u2581difficulties": 4310,
  "\u2581ended": 4311,
  "\u2581mmabarima": 4312,
  "\u2581replied": 4313,
  "\u2581satisfying": 4314,
  "\u2581sees": 4315,
  "2": 4316,
  "\u2581ahofama": 4317,
  "\u2581nneduafo": 4318,
  "\u2581otwa": 4319,
  "\u2581anhy\u025b": 4320,
  "\u2581meditate": 4321,
  "\u2581stick": 4322,
  "\u2581wild": 4323,
  "\u2581\u0254hwehw\u025b": 4324,
  "\u25812,000": 4325,
  "\u25818]": 4326,
  "\u2581Ahab": 4327,
  "\u2581European": 4328,
  "\u2581Paris": 4329,
  "\u2581copies": 4330,
  "\u2581determination": 4331,
  "\u2581suasua": 4332,
  "\u2581\u0186y\u025b": 4333,
  "\u2581Beach": 4334,
  "\u2581Nisan": 4335,
  "\u2581Readers": 4336,
  "\u2581Republic": 4337,
  "\u2581boys": 4338,
  "\u2581cancer": 4339,
  "\u2581hyiaa": 4340,
  "\u2581w\u0254redi": 4341,
  "\u25811945": 4342,
  "\u2581Edi": 4343,
  "\u2581Kasa": 4344,
  "\u2581Tesalonikafo": 4345,
  "\u2581ankyer\u025b": 4346,
  "\u2581atade": 4347,
  "\u2581lay": 4348,
  "\u2581paid": 4349,
  "\u2581Mprempren": 4350,
  "\u2581belong": 4351,
  "\u2581lying": 4352,
  "\u2581nearby": 4353,
  "\u2581style": 4354,
  "\u2581wususuw": 4355,
  "\u25811991": 4356,
  "\u2581Cor": 4357,
  "\u2581cares": 4358,
  "\u2581enya": 4359,
  "\u2581marry": 4360,
  "\u2581rulership": 4361,
  "\u2581wob\u0254": 4362,
  "\u2581Biribiara": 4363,
  "\u2581abundance": 4364,
  "\u2581ad\u0254fo": 4365,
  "\u2581background": 4366,
  "\u2581fekuw": 4367,
  "\u2581illustrate": 4368,
  "\u2581sickness": 4369,
  "\u2581successfully": 4370,
  "rentumi": 4371,
  "\u2581Dw": 4372,
  "\u2581w\u0254reb\u0254": 4373,
  "\u2581adap\u025bn": 4374,
  "\u2581amann\u0254ne": 4375,
  "\u2581asuade": 4376,
  "\u2581damage": 4377,
  "\u2581gyaee": 4378,
  "\u2581moment": 4379,
  "\u2581reference": 4380,
  "\u2581series": 4381,
  "ment": 4382,
  "\u2581Hokwan": 4383,
  "\u2581Hosea": 4384,
  "\u2581Ministry": 4385,
  "\u2581Ntease": 4386,
  "\u2581Peace": 4387,
  "\u2581scriptures": 4388,
  "\u2581supply": 4389,
  "\u2581Aman": 4390,
  "\u2581akasakasa": 4391,
  "\u2581herself": 4392,
  "\u2581keeps": 4393,
  "\u2581migye": 4394,
  "\u2581rain": 4395,
  "\u2581walked": 4396,
  "\u2581wok\u0254": 4397,
  "out": 4398,
  "\u2581Court": 4399,
  "\u2581Nehemiah": 4400,
  "\u2581Thessalonians": 4401,
  "\u2581Way": 4402,
  "\u2581calling": 4403,
  "\u2581considering": 4404,
  "\u2581pagan": 4405,
  "\u2581ruin": 4406,
  "\u2581solution": 4407,
  "\u2581traveled": 4408,
  "\u2581w\u0254apaw": 4409,
  "\u2581w\u0254ayi": 4410,
  "\u2581MU": 4411,
  "\u2581causing": 4412,
  "\u2581occasions": 4413,
  "\u2581osua": 4414,
  "\u2581resolve": 4415,
  "\u2581totoo": 4416,
  "W\u0254n": 4417,
  "lo": 4418,
  "\u2581Sunday": 4419,
  "\u2581angry": 4420,
  "\u2581apart": 4421,
  "\u2581mistakes": 4422,
  "\u2581reminded": 4423,
  "est": 4424,
  "\u258119;": 4425,
  "\u2581Yiye": 4426,
  "\u2581cold": 4427,
  "\u2581eager": 4428,
  "\u2581goodness": 4429,
  "\u2581marvelous": 4430,
  "\u2581nsrahw\u025b": 4431,
  "\u2581official": 4432,
  "L": 4433,
  "\u2581Assembly": 4434,
  "\u2581Harmagedon": 4435,
  "\u2581ayeforohyia": 4436,
  "\u2581bisae": 4437,
  "\u2581exactly": 4438,
  "\u2581nine": 4439,
  "\u2581nkitahodi": 4440,
  "\u2581simma": 4441,
  "\u2581\u0254b\u025bboa": 4442,
  "\u2581\u025bpo": 4443,
  "F": 4444,
  "\u25813]": 4445,
  "\u2581accomplished": 4446,
  "\u2581agreed": 4447,
  "\u2581anafo": 4448,
  "\u2581gyae": 4449,
  "\u2581victim": 4450,
  "\u2581w\u0254b\u025bboa": 4451,
  "\u2581Pii": 4452,
  "\u2581Teach": 4453,
  "\u2581Visit": 4454,
  "\u2581additional": 4455,
  "\u2581determine": 4456,
  "\u2581engage": 4457,
  "\u2581hate": 4458,
  "\u2581leads": 4459,
  "\u2581miracles": 4460,
  "\u2581Rutherford": 4461,
  "\u2581bea": 4462,
  "\u2581reny\u025b": 4463,
  "\u2581scholars": 4464,
  "\u2581wotintimii": 4465,
  "Spanish": 4466,
  "\u258172": 4467,
  "\u2581Kyer\u025bw": 4468,
  "\u2581kanea": 4469,
  "\u2581minni": 4470,
  "\u2581rights": 4471,
  "\u2581t\u025bkr\u025bma": 4472,
  "\u2581pre": 4473,
  "\u2581siw": 4474,
  "\u2581spouse": 4475,
  "\u2581stood": 4476,
  "kyeree": 4477,
  "\u2581arranged": 4478,
  "\u2581glorious": 4479,
  "\u2581osuani": 4480,
  "\u2581rebellion": 4481,
  "\u2581remarkable": 4482,
  "\u2581w\u0254t\u0254n": 4483,
  "behyira": 4484,
  "\u2581AS\u0190M": 4485,
  "\u2581Elisa": 4486,
  "\u2581Look": 4487,
  "\u2581Sadly": 4488,
  "\u2581balance": 4489,
  "\u2581instructions": 4490,
  "\u2581resulted": 4491,
  "\u2581wahy\u025b": 4492,
  "\u2581w\u0254fata": 4493,
  "\u2581Ben": 4494,
  "\u2581Bo": 4495,
  "\u2581Nhyira": 4496,
  "\u2581skills": 4497,
  "\u2581visiting": 4498,
  "Look": 4499,
  "nom": 4500,
  "\u2581Accra": 4501,
  "\u2581FL": 4502,
  "\u2581ab\u0254nten": 4503,
  "\u2581ahotew": 4504,
  "\u2581compare": 4505,
  "\u2581fast": 4506,
  "\u2581secure": 4507,
  "\u2581tax": 4508,
  "\u258121]": 4509,
  "\u2581Abak\u0254s\u025bm": 4510,
  "\u2581NE": 4511,
  "\u2581assembly": 4512,
  "\u2581bodies": 4513,
  "\u2581clergy": 4514,
  "\u2581primary": 4515,
  "\u2581serves": 4516,
  "\u2581straight": 4517,
  "\u2581w\u0254reka": 4518,
  "\u2581\u0254fr\u025b": 4519,
  "\u258122;": 4520,
  "\u2581Spirit": 4521,
  "\u2581appreciated": 4522,
  "\u2581culture": 4523,
  "\u2581egu": 4524,
  "\u2581kwae": 4525,
  "\u2581te\u025b": 4526,
  "\u2581y\u025bhu": 4527,
  "bere": 4528,
  "\u2581Go": 4529,
  "\u2581Pope": 4530,
  "\u2581Surely": 4531,
  "\u2581Truth": 4532,
  "\u2581beauty": 4533,
  "\u2581pleased": 4534,
  "\u2581pr\u025bko": 4535,
  "\u2581toa": 4536,
  "\u2581\u0254mp\u025b": 4537,
  "They": 4538,
  "pe": 4539,
  "\u2581Adanse": 4540,
  "\u2581ahwehw\u025bde": 4541,
  "\u2581finding": 4542,
  "\u2581identified": 4543,
  "\u2581indefinite": 4544,
  "ga": 4545,
  "\u2581aspect": 4546,
  "\u2581emufo": 4547,
  "\u2581provision": 4548,
  "\u2581song": 4549,
  "\u2581upright": 4550,
  "go": 4551,
  "ism": 4552,
  "\u2581Explain": 4553,
  "\u2581compared": 4554,
  "\u2581constant": 4555,
  "\u2581tan": 4556,
  "\u2581w\u0254tee": 4557,
  "\u258130,": 4558,
  "\u2581Armageddon": 4559,
  "\u2581Titus": 4560,
  "\u2581as\u025bmpaka": 4561,
  "\u2581boom": 4562,
  "la": 4563,
  "\u25812002": 4564,
  "\u258166": 4565,
  "\u2581Service": 4566,
  "\u2581mfitiase": 4567,
  "\u2581momfa": 4568,
  "\u2581nkoasom": 4569,
  "\u2581t\u0254n": 4570,
  "tow": 4571,
  "\u25811940": 4572,
  "\u2581adultery": 4573,
  "\u2581awer\u025bhos\u025bm": 4574,
  "\u2581capital": 4575,
  "\u2581private": 4576,
  "\u2581spirituality": 4577,
  "\u2581500": 4578,
  "\u2581Bor\u0254fo": 4579,
  "\u2581Heights": 4580,
  "\u2581akwanside": 4581,
  "\u2581comforting": 4582,
  "\u2581dignity": 4583,
  "\u2581firmly": 4584,
  "\u2581grasp": 4585,
  "\u2581guank\u0254bea": 4586,
  "\u2581proof": 4587,
  "\u2581s\u0254fo": 4588,
  "\u2581wotwa": 4589,
  "\u2581w\u0254akyer\u025b": 4590,
  "Eyi": 4591,
  "\u2581Asuade": 4592,
  "\u2581Kwasida": 4593,
  "\u2581Sodom": 4594,
  "\u2581akwanhyia": 4595,
  "\u2581komm": 4596,
  "\u2581p": 4597,
  "\u2581paanoo": 4598,
  "\u2581sow": 4599,
  "\u2581sraadi": 4600,
  "\u2581surprised": 4601,
  "\u2581wobuu": 4602,
  "Momma": 4603,
  "ase": 4604,
  "\u2581As\u025bnka": 4605,
  "\u2581San": 4606,
  "\u2581atete": 4607,
  "\u2581exists": 4608,
  "\u2581methods": 4609,
  "\u2581minutes": 4610,
  "\u2581touched": 4611,
  "\u2581\u0190he": 4612,
  "\u258129:": 4613,
  "\u2581Biara": 4614,
  "\u2581Joel": 4615,
  "\u2581couples": 4616,
  "\u2581factor": 4617,
  "\u2581k\u0254la": 4618,
  "\u2581motivated": 4619,
  "\u2581silver": 4620,
  "\u2581treasure": 4621,
  "\u2581\u0254fata": 4622,
  "\u2581altar": 4623,
  "\u2581cells": 4624,
  "\u2581declare": 4625,
  "\u2581esisii": 4626,
  "\u2581happens": 4627,
  "\u2581increasing": 4628,
  "\u2581region": 4629,
  "\u2581variety": 4630,
  "\u2581\u0254kwampa": 4631,
  "Jesus": 4632,
  "ce": 4633,
  "\u2581affairs": 4634,
  "\u2581as\u0254redan": 4635,
  "\u2581average": 4636,
  "\u2581weapons": 4637,
  "\u2581Knorr": 4638,
  "\u2581huge": 4639,
  "\u2581relationships": 4640,
  "\u2581wind": 4641,
  "\u2581YOU": 4642,
  "\u2581path": 4643,
  "Awurade": 4644,
  "ver": 4645,
  "\u258112]": 4646,
  "\u2581Recall": 4647,
  "\u2581anxious": 4648,
  "\u2581asie": 4649,
  "\u2581potential": 4650,
  "co": 4651,
  "\u2581ns\u00e3": 4652,
  "\u2581writings": 4653,
  "BY": 4654,
  "\u2581adwennwen": 4655,
  "\u2581dwell": 4656,
  "\u2581ns\u025b": 4657,
  "\u2581physically": 4658,
  "\u2581remaining": 4659,
  "\u2581sad": 4660,
  "\u2581souls": 4661,
  "\u2581stake": 4662,
  "\u2581Helafo": 4663,
  "\u2581af\u0254remuka": 4664,
  "\u2581asasewosow": 4665,
  "\u2581conducted": 4666,
  "\u2581diyifo": 4667,
  "\u2581mmi\u025bnsa": 4668,
  "\u2581plant": 4669,
  "\u2581threat": 4670,
  "\u2581w\u0254s\u025be": 4671,
  "\u2581Hwehw\u025b": 4672,
  "\u2581apparently": 4673,
  "\u2581audience": 4674,
  "\u2581customs": 4675,
  "\u2581nyansam": 4676,
  "\u2581w\u0254nka": 4677,
  "\u2581yeyi": 4678,
  "ian": 4679,
  "\u2581Often": 4680,
  "\u2581\u0186kyer\u025bwee": 4681,
  "nsusuw": 4682,
  "\u2581acted": 4683,
  "\u2581amum\u0254y\u025b": 4684,
  "\u2581bed": 4685,
  "\u2581influenced": 4686,
  "\u2581inhabited": 4687,
  "\u2581mum": 4688,
  "\u2581relations": 4689,
  "\u2581w\u0254amfa": 4690,
  "\u2581Dad": 4691,
  "\u2581Ntam": 4692,
  "\u2581corruption": 4693,
  "\u2581mothers": 4694,
  "\u258131,": 4695,
  "\u2581officials": 4696,
  "\u2581w\u0254ba": 4697,
  "\u258134,": 4698,
  "\u2581advance": 4699,
  "\u2581mekae": 4700,
  "\u2581osii": 4701,
  "\u2581task": 4702,
  "\u2581yennim": 4703,
  "\u2581\u0190kyer\u025b": 4704,
  "As": 4705,
  "vd": 4706,
  "\u258144.": 4707,
  "\u2581asub\u0254nten": 4708,
  "\u2581burden": 4709,
  "\u2581commission": 4710,
  "\u2581foot": 4711,
  "\u2581foundation": 4712,
  "\u2581level": 4713,
  "\u2581shepherds": 4714,
  "\u25812012": 4715,
  "\u2581Akenkanfo": 4716,
  "\u2581Dictionary": 4717,
  "\u2581Second": 4718,
  "\u2581WHAT": 4719,
  "\u2581aniwu": 4720,
  "\u2581asiw": 4721,
  "\u2581b\u025bbam": 4722,
  "\u2581nsiesiei": 4723,
  "\u2581scientists": 4724,
  "daadaa": 4725,
  "\u25811970": 4726,
  "\u2581abandoned": 4727,
  "\u2581grief": 4728,
  "\u2581misusuw": 4729,
  "\u2581nhwi": 4730,
  "\u2581nnomaa": 4731,
  "\u2581numerous": 4732,
  "\u2581remove": 4733,
  "\u2581selfish": 4734,
  "\u2581street": 4735,
  "\u2581trip": 4736,
  "How": 4737,
  "ies": 4738,
  "wiase": 4739,
  "\u2581Promised": 4740,
  "\u2581Sovereign": 4741,
  "\u2581adepa": 4742,
  "\u2581ap\u0254w": 4743,
  "\u2581demonstrated": 4744,
  "\u2581ntaa": 4745,
  "\u2581useful": 4746,
  "\u2581w\u0254s\u0254re": 4747,
  "\u2581Compare": 4748,
  "\u2581Rd": 4749,
  "\u2581abodwoky\u025bre": 4750,
  "\u2581adaemone": 4751,
  "\u2581anymore": 4752,
  "\u2581claimed": 4753,
  "\u2581district": 4754,
  "\u2581familiar": 4755,
  "\u2581hy\u025be": 4756,
  "\u2581toaa": 4757,
  "\u2581tribes": 4758,
  "\u2581\u0186kasa": 4759,
  "\u2581\u0190ne": 4760,
  "great": 4761,
  "\u2581Long": 4762,
  "\u2581Nyansa": 4763,
  "\u2581atie": 4764,
  "\u2581attitudes": 4765,
  "\u2581inheritance": 4766,
  "\u2581none": 4767,
  "\u2581WHO": 4768,
  "\u2581Whatever": 4769,
  "\u2581abundant": 4770,
  "\u2581approached": 4771,
  "\u2581aw\u0254w": 4772,
  "\u2581gratitude": 4773,
  "anom": 4774,
  "\u2581Bill": 4775,
  "\u2581Pentekoste": 4776,
  "\u2581Upon": 4777,
  "\u2581W\u0254kyer\u025b": 4778,
  "\u2581ahemfo": 4779,
  "\u2581atoto": 4780,
  "\u2581bem": 4781,
  "\u2581otie": 4782,
  "\u2581ruling": 4783,
  "\u2581turning": 4784,
  "\u2581wosi": 4785,
  "un": 4786,
  "\u2581Flood": 4787,
  "\u2581Nk\u0254mhy\u025b": 4788,
  "\u2581Nsakrae": 4789,
  "\u2581motivate": 4790,
  "\u2581nguankuw": 4791,
  "\u2581reaction": 4792,
  "\u2581rekasa": 4793,
  "\u2581willingly": 4794,
  "\u2581worthy": 4795,
  "tetee": 4796,
  "\u2581Dan": 4797,
  "\u2581Pentecost": 4798,
  "\u2581anika": 4799,
  "\u2581assignments": 4800,
  "\u2581bond": 4801,
  "\u2581rendered": 4802,
  "\u2581scholar": 4803,
  "\u2581woatumi": 4804,
  "\u2581wob\u025bma": 4805,
  "\u2581y\u025bb\u025bb\u0254": 4806,
  "7": 4807,
  "\u2581Cain": 4808,
  "\u2581Eventually": 4809,
  "\u2581Kain": 4810,
  "\u2581cell": 4811,
  "\u2581fit": 4812,
  "\u2581hw\u025be": 4813,
  "\u2581opposite": 4814,
  "\u2581wilderness": 4815,
  "\u2581wosii": 4816,
  "\u2581w\u0254tow": 4817,
  "amfa": 4818,
  "awiei": 4819,
  "\u258116]": 4820,
  "\u2581Don": 4821,
  "\u2581Elisha": 4822,
  "\u2581Nathan": 4823,
  "\u2581nitan": 4824,
  "\u2581rulers": 4825,
  "\u2581srade": 4826,
  "8": 4827,
  "one": 4828,
  "\u2581COVER": 4829,
  "\u2581tintimii": 4830,
  "\u2581wubedi": 4831,
  "\u2581\u0254hw\u025bfo": 4832,
  "ton": 4833,
  "\u25814]": 4834,
  "\u2581allows": 4835,
  "\u2581arise": 4836,
  "\u2581ark": 4837,
  "\u2581concerns": 4838,
  "\u2581differ": 4839,
  "\u2581suicide": 4840,
  "\u2581wob\u025bk\u0254": 4841,
  "\u2581Halls": 4842,
  "\u2581Learn": 4843,
  "\u2581dwet\u025b": 4844,
  "\u2581failure": 4845,
  "\u2581focused": 4846,
  "\u2581meny\u025b": 4847,
  "\u2581nkogu": 4848,
  "\u2581nnam": 4849,
  "\u2581root": 4850,
  "\u2581top": 4851,
  "\u2581\u025bb\u025bka": 4852,
  "S\u025bnea": 4853,
  "\u2581Abram": 4854,
  "\u2581Nyamesom": 4855,
  "\u2581Religion": 4856,
  "\u2581TX": 4857,
  "\u2581akokoaa": 4858,
  "\u2581chapters": 4859,
  "\u2581corrupt": 4860,
  "\u2581mpaapaemu": 4861,
  "\u2581nyame": 4862,
  "\u2581ought": 4863,
  "\u2581remfi": 4864,
  "\u2581speaker": 4865,
  "\u2581witnesses": 4866,
  "\u2581\u0190ba": 4867,
  "\u2581Amanne\u025bb\u0254": 4868,
  "\u2581Nigeria": 4869,
  "\u2581Tito": 4870,
  "\u2581dream": 4871,
  "\u2581male": 4872,
  "\u2581nyiyim": 4873,
  "\u2581qualified": 4874,
  "Yesu": 4875,
  "\u2581discern": 4876,
  "\u2581innocent": 4877,
  "\u2581mmerewa": 4878,
  "\u2581offers": 4879,
  "\u2581okunafo": 4880,
  "\u2581pope": 4881,
  "\u2581quick": 4882,
  "\u2581represent": 4883,
  "\u2581stars": 4884,
  "\u2581visits": 4885,
  "\u2581ware": 4886,
  "\u2581weight": 4887,
  "fa": 4888,
  "firihyia": 4889,
  "ti": 4890,
  "\u2581ahia": 4891,
  "\u2581barima": 4892,
  "\u2581nyansap\u025b": 4893,
  "\u2581services": 4894,
  "K": 4895,
  "aso": 4896,
  "aware": 4897,
  "\u2581Am": 4898,
  "\u2581Protestant": 4899,
  "\u2581River": 4900,
  "\u2581Sakaria": 4901,
  "\u2581Zechariah": 4902,
  "\u2581development": 4903,
  "\u2581fornication": 4904,
  "\u2581involving": 4905,
  "\u2581nhwehw\u025b": 4906,
  "\u2581papay\u025b": 4907,
  "\u2581skin": 4908,
  "\u2581won": 4909,
  "\u2581w\u0254twe": 4910,
  "asetram": 4911,
  "\u2581apon": 4912,
  "\u2581career": 4913,
  "\u2581clothing": 4914,
  "\u2581conscious": 4915,
  "\u2581covered": 4916,
  "\u2581principal": 4917,
  "\u2581restored": 4918,
  "\u2581smoking": 4919,
  "\u2581supported": 4920,
  "\u2581tuo": 4921,
  "\u2581y\u025bnk\u0254": 4922,
  "mo": 4923,
  "\u00e9": 4924,
  "\u2581excellent": 4925,
  "\u2581midst": 4926,
  "\u2581mildness": 4927,
  "\u2581rely": 4928,
  "\u2581turo": 4929,
  "\u2581wus\u0254re": 4930,
  "\u2581y\u025bkyer\u025b": 4931,
  "\u2581Wokae": 4932,
  "\u2581sake": 4933,
  "\u2581stone": 4934,
  "\u2581y\u025basi": 4935,
  "nnipa": 4936,
  "son": 4937,
  "\u2581Abel": 4938,
  "\u2581Asiane": 4939,
  "\u2581m\u00e3": 4940,
  "\u2581observes": 4941,
  "\u2581release": 4942,
  "\u2581river": 4943,
  "\u2581\u0254b\u025bb\u0254": 4944,
  "5": 4945,
  "Keep": 4946,
  "bo": 4947,
  "ch": 4948,
  "\u2581Hia": 4949,
  "\u2581Nsrahw\u025b": 4950,
  "\u2581brotherhood": 4951,
  "\u2581etwaam": 4952,
  "\u2581reaching": 4953,
  "\u2581w\u0254tew": 4954,
  "\u0190ny\u025b": 4955,
  "\u258111201": 4956,
  "\u258114;": 4957,
  "\u2581Messianic": 4958,
  "\u2581aduruy\u025b": 4959,
  "\u2581aseni": 4960,
  "\u2581degree": 4961,
  "\u2581onnim": 4962,
  "\u2581suggestions": 4963,
  "\u258149": 4964,
  "\u2581BERE": 4965,
  "\u2581Josephus": 4966,
  "\u2581Yudani": 4967,
  "\u2581atuatew": 4968,
  "\u2581inner": 4969,
  "\u2581laid": 4970,
  "\u2581reasoning": 4971,
  "\u2581refuse": 4972,
  "\u2581yennya": 4973,
  "\u25811980": 4974,
  "\u2581Aka": 4975,
  "\u2581Almighty": 4976,
  "\u2581Mpanyimfo": 4977,
  "\u2581caught": 4978,
  "\u2581exposed": 4979,
  "\u2581gathering": 4980,
  "\u2581meb\u0254": 4981,
  "\u2581noticed": 4982,
  "\u2581plans": 4983,
  "\u2581pressures": 4984,
  "\u2581resources": 4985,
  "\u2581suddenly": 4986,
  "\u2581tw\u025bn": 4987,
  "\u2581wohyia": 4988,
  "\u2581Shortly": 4989,
  "\u2581akontaabu": 4990,
  "\u2581per": 4991,
  "\u2581p\u025by\u025b": 4992,
  "\u2581rate": 4993,
  "\u2581touch": 4994,
  "fi": 4995,
  "\u2581sakra": 4996,
  "\u2581sinned": 4997,
  "\u2581s\u0254\u0254": 4998,
  "\u2581\u0186kyer\u025bkyer\u025b": 4999,
  "\u2581\u0254mmoa": 5000,
  "ty": 5001,
  "\u2581Esau": 5002,
  "\u2581anhw\u025b": 5003,
  "\u2581dangers": 5004,
  "\u2581generally": 5005,
  "\u2581glad": 5006,
  "\u2581lovers": 5007,
  "\u2581mention": 5008,
  "\u2581nuklea": 5009,
  "\u2581viewpoint": 5010,
  "asetena": 5011,
  "\u25811930": 5012,
  "\u2581Portugal": 5013,
  "\u2581adult": 5014,
  "\u2581begotten": 5015,
  "\u2581invisible": 5016,
  "\u2581kama": 5017,
  "\u2581planet": 5018,
  "\u00c1": 5019,
  "\u2581Out": 5020,
  "\u2581disaster": 5021,
  "\u2581komapafo": 5022,
  "\u2581recall": 5023,
  "\u2581rekyer\u025b": 5024,
  "\u2581wore": 5025,
  "\u2581\u0254hyew": 5026,
  "but": 5027,
  "\u2581Mmea": 5028,
  "\u2581TB": 5029,
  "\u2581associate": 5030,
  "\u2581courageous": 5031,
  "\u2581ns\u025bmm\u0254ne": 5032,
  "\u2581oyi": 5033,
  "\u2581plan": 5034,
  "\u2581punishment": 5035,
  "\u2581site": 5036,
  "\u2581wuntumi": 5037,
  "\u2581\u25c6": 5038,
  "som": 5039,
  "\u2581Says": 5040,
  "\u2581anyinam": 5041,
  "\u2581arrested": 5042,
  "\u2581dade": 5043,
  "\u2581deliverance": 5044,
  "\u2581mild": 5045,
  "\u2581ngo": 5046,
  "\u2581pioneering": 5047,
  "\u2581w\u0254atwa": 5048,
  "\u2581\u0254treneeni": 5049,
  "Mommma": 5050,
  "nd": 5051,
  "\u2581Anka": 5052,
  "\u2581annya": 5053,
  "\u2581ethnic": 5054,
  "\u2581holding": 5055,
  "\u2581korakora": 5056,
  "\u2581theocratic": 5057,
  "\u2581wuntu": 5058,
  "\u2581wusua": 5059,
  "\u2581\u025by\u025be": 5060,
  "atra": 5061,
  "yii": 5062,
  "\u2581760,": 5063,
  "\u2581Kor": 5064,
  "\u2581Mpaeb\u0254": 5065,
  "\u2581Thomas": 5066,
  "\u2581abilities": 5067,
  "\u2581admonition": 5068,
  "\u2581bobesa": 5069,
  "\u2581differences": 5070,
  "\u2581dust": 5071,
  "\u2581houses": 5072,
  "\u2581literally": 5073,
  "\u2581ns\u0254": 5074,
  "\u2581wipe": 5075,
  "\u2581Report": 5076,
  "\u2581attempt": 5077,
  "\u2581bag": 5078,
  "\u2581located": 5079,
  "\u2581meaningful": 5080,
  "\u2581nuclear": 5081,
  "\u2581okura": 5082,
  "\u2581plague": 5083,
  "\u2581possess": 5084,
  "\u2581repentant": 5085,
  "\u2581signs": 5086,
  "\u2581suggest": 5087,
  "\u2581thereafter": 5088,
  "\u2581waka": 5089,
  "\u2581w\u0254abu": 5090,
  "\u2581\u0254hokafo": 5091,
  "ahonim": 5092,
  "\u2581Following": 5093,
  "\u2581Henry": 5094,
  "\u2581Tumfo\u0254": 5095,
  "\u2581amum\u0254y\u025bfo": 5096,
  "\u2581painful": 5097,
  "\u2581price": 5098,
  "\u2581properly": 5099,
  "\u2581suani": 5100,
  "li": 5101,
  "wo": 5102,
  "\u2581Ahyehy\u025bde": 5103,
  "\u2581Luther": 5104,
  "\u2581deaf": 5105,
  "\u2581mantam": 5106,
  "\u2581reflected": 5107,
  "\u2581represented": 5108,
  "\u2581sang": 5109,
  "\u2581tend": 5110,
  "-": 5111,
  "ist": 5112,
  "\u258139.": 5113,
  "\u2581Scripture": 5114,
  "\u2581Sukuup\u0254n": 5115,
  "\u2581adom": 5116,
  "\u2581displayed": 5117,
  "\u2581endured": 5118,
  "\u2581gradually": 5119,
  "\u2581labor": 5120,
  "\u2581nneduaban": 5121,
  "\u2581nnipad\u0254m": 5122,
  "\u2581pi": 5123,
  "\u2581union": 5124,
  "483,": 5125,
  "Spania": 5126,
  "\u25811939": 5127,
  "\u2581aguamamm\u0254": 5128,
  "\u2581amm\u0254": 5129,
  "\u2581arrangements": 5130,
  "\u2581d\u0254fo": 5131,
  "\u2581faithfulness": 5132,
  "\u2581m\u025bka": 5133,
  "\u2581nnu": 5134,
  "\u2581played": 5135,
  "\u2581repentance": 5136,
  "\u2581stories": 5137,
  "D\u025bn": 5138,
  "\u2581Akwankyer\u025b": 5139,
  "\u2581JEHOVAH": 5140,
  "\u2581Persia": 5141,
  "\u2581bata": 5142,
  "\u2581distance": 5143,
  "\u2581error": 5144,
  "\u2581invite": 5145,
  "\u2581kodu": 5146,
  "\u2581nimdefo": 5147,
  "\u2581nyins\u025bn": 5148,
  "Enti": 5149,
  "for": 5150,
  "\u25811960": 5151,
  "\u2581assures": 5152,
  "\u2581m\u025bma": 5153,
  "\u2581onnye": 5154,
  "\u2581warns": 5155,
  "\u2581wob\u025bte": 5156,
  "\u2581w\u0254asi": 5157,
  "\u25812011": 5158,
  "\u2581Aso\u025be": 5159,
  "\u2581ahum": 5160,
  "\u2581clothes": 5161,
  "\u025bsan": 5162,
  "\u2581Netherlands": 5163,
  "\u2581atr\u025bw": 5164,
  "\u2581companion": 5165,
  "\u2581discouraged": 5166,
  "\u2581dwelling": 5167,
  "\u2581historian": 5168,
  "\u2581kyim": 5169,
  "\u2581otherwise": 5170,
  "\u2581Chronicles": 5171,
  "\u2581Human": 5172,
  "\u2581Richard": 5173,
  "\u2581Yenya": 5174,
  "\u2581ahoni": 5175,
  "\u2581content": 5176,
  "\u2581nkyer\u025bwde": 5177,
  "\u2581outcome": 5178,
  "\u2581readily": 5179,
  "\u2581wall": 5180,
  "tic": 5181,
  "\u2581Alexander": 5182,
  "\u2581Get": 5183,
  "\u2581ahonhomm\u0254ne": 5184,
  "\u2581akum": 5185,
  "\u2581fighting": 5186,
  "\u2581persecuted": 5187,
  "\u2581\u0254bra": 5188,
  "\u2581\u0254soma": 5189,
  "ah": 5190,
  "\u2581Malaki": 5191,
  "\u2581Sanhedrin": 5192,
  "\u2581akwaa": 5193,
  "\u2581awi": 5194,
  "\u2581encourages": 5195,
  "\u2581m\u0169di": 5196,
  "\u2581nkamfo": 5197,
  "\u2581nt\u0254": 5198,
  "\u2581struck": 5199,
  "ant": 5200,
  "\u2581150": 5201,
  "\u258151": 5202,
  "\u2581Blvd": 5203,
  "\u2581doctrine": 5204,
  "\u2581huamm\u0254": 5205,
  "\u2581m\u025bk\u0254": 5206,
  "\u2581nnaw\u0254twe": 5207,
  "\u2581printed": 5208,
  "\u2581prominent": 5209,
  "\u2581removed": 5210,
  "\u2581reputation": 5211,
  "\u2581wondered": 5212,
  "\u2581w\u0254b\u025btra": 5213,
  "dii": 5214,
  "\u0186ne": 5215,
  "\u2581AS": 5216,
  "\u2581Boayikuw": 5217,
  "\u2581Mmuae": 5218,
  "\u2581Septuagint": 5219,
  "\u2581Switzerland": 5220,
  "\u2581ahy\u025bn": 5221,
  "\u2581akron": 5222,
  "\u2581employment": 5223,
  "\u2581harmful": 5224,
  "\u2581repeatedly": 5225,
  "\u2581Early": 5226,
  "\u2581Malachi": 5227,
  "\u2581NNIPA": 5228,
  "\u2581nkwakoraa": 5229,
  "\u2581president": 5230,
  "\u2581scene": 5231,
  "\u2581writers": 5232,
  "kora": 5233,
  "\u25812010": 5234,
  "\u2581Welcome": 5235,
  "\u2581birds": 5236,
  "\u2581complex": 5237,
  "\u2581didi": 5238,
  "\u2581pleasant": 5239,
  "\u2581remnant": 5240,
  "\u2581sofo": 5241,
  "\u2581sold": 5242,
  "\u2581temporary": 5243,
  "\u2581tests": 5244,
  "\u2581Baabi": 5245,
  "\u2581ahome": 5246,
  "\u2581daadaa": 5247,
  "\u2581numbers": 5248,
  "\u2581passing": 5249,
  "\u2581property": 5250,
  "\u2581tradition": 5251,
  "\u2581w\u0254nte": 5252,
  "\u258153": 5253,
  "\u2581Philippines": 5254,
  "\u2581Ukraine": 5255,
  "\u2581Wubebu": 5256,
  "\u2581adansedi": 5257,
  "\u2581besusuw": 5258,
  "\u2581bound": 5259,
  "\u2581brief": 5260,
  "\u2581dae": 5261,
  "\u2581d\u025bm": 5262,
  "\u2581gather": 5263,
  "\u2581kor\u0254n": 5264,
  "\u2581leaves": 5265,
  "\u2581possibly": 5266,
  "\u2581victory": 5267,
  "\u2581w\u0254tena": 5268,
  "\u2581Esther": 5269,
  "\u2581Fear": 5270,
  "\u2581asks": 5271,
  "\u2581healing": 5272,
  "\u2581possessions": 5273,
  "\u2581store": 5274,
  "\u2581\u0190fata": 5275,
  "ivic": 5276,
  "\u2581Ani": 5277,
  "\u2581Britannica": 5278,
  "\u2581Caesar": 5279,
  "\u2581Congregation": 5280,
  "\u2581Yona": 5281,
  "\u2581belongs": 5282,
  "\u2581benkum": 5283,
  "\u2581camps": 5284,
  "\u2581chance": 5285,
  "\u2581figurative": 5286,
  "\u2581fleshly": 5287,
  "\u2581ky\u025bn": 5288,
  "\u2581referring": 5289,
  "\u2581rightly": 5290,
  "\u2581standard": 5291,
  "mu": 5292,
  "\u2581Sika": 5293,
  "\u2581Ti": 5294,
  "\u2581WO": 5295,
  "\u2581broke": 5296,
  "\u2581hardly": 5297,
  "\u2581humbly": 5298,
  "\u2581literal": 5299,
  "\u2581mark": 5300,
  "\u2581mehw\u025b": 5301,
  "\u2581routine": 5302,
  "\u2581terrible": 5303,
  "\u2581tobacco": 5304,
  "\u2581tribe": 5305,
  "\u2581\u025bre": 5306,
  "will": 5307,
  "\u258137.": 5308,
  "\u2581Anna": 5309,
  "\u2581Jonathan": 5310,
  "\u2581Name": 5311,
  "\u2581acting": 5312,
  "\u2581ahyira": 5313,
  "\u2581approved": 5314,
  "\u2581asodi": 5315,
  "\u2581b\u025bsan": 5316,
  "\u2581dwo": 5317,
  "\u2581estimated": 5318,
  "\u2581memory": 5319,
  "\u2581midi": 5320,
  "\u2581ministeri": 5321,
  "\u2581ns\u025bnkyer\u025bnne": 5322,
  "\u2581prisoners": 5323,
  "\u2581sinners": 5324,
  "\u2581survey": 5325,
  "\u2581woo": 5326,
  "\u2581worldly": 5327,
  "\u2581w\u0254kenkan": 5328,
  "\u258120]": 5329,
  "\u2581Akyi": 5330,
  "\u2581Beresos\u025bm": 5331,
  "\u2581Enoch": 5332,
  "\u2581Photo": 5333,
  "\u2581Russian": 5334,
  "\u2581attacks": 5335,
  "\u2581awake": 5336,
  "\u2581civil": 5337,
  "\u2581everywhere": 5338,
  "\u2581k\u0254sra": 5339,
  "\u2581permanent": 5340,
  "\u2581quit": 5341,
  "\u2581reduce": 5342,
  "\u2581y\u025bate": 5343,
  "\u2581\u025bnkyer\u025b": 5344,
  "tew": 5345,
  "\u2581Athens": 5346,
  "\u2581Doing": 5347,
  "\u2581Him": 5348,
  "\u2581Korinto": 5349,
  "\u2581Martha": 5350,
  "\u2581YEHOWA": 5351,
  "\u2581afra": 5352,
  "\u2581alert": 5353,
  "\u2581atirim\u0254dens\u025bm": 5354,
  "\u2581broken": 5355,
  "\u2581descendants": 5356,
  "\u2581diet": 5357,
  "\u2581exercising": 5358,
  "\u2581footnote": 5359,
  "\u2581k\u0254hwehw\u025b": 5360,
  "\u2581mpem": 5361,
  "\u2581nnyigyei": 5362,
  "\u2581onyin": 5363,
  "\u2581w\u0254b\u025b": 5364,
  "\u2581w\u0254b\u025bs\u025be": 5365,
  "\u2581yebegye": 5366,
  "po": 5367,
  "su": 5368,
  "\u25812009": 5369,
  "\u25815;": 5370,
  "\u2581Aware": 5371,
  "\u2581Mmere": 5372,
  "\u2581abodoo": 5373,
  "\u2581ananses\u025bm": 5374,
  "\u2581species": 5375,
  "\u2581teokrase": 5376,
  "\u2581\u025bdi": 5377,
  "Nnipa": 5378,
  "\u25813,000": 5379,
  "\u2581Begy": 5380,
  "\u2581Ex": 5381,
  "\u2581agumadi": 5382,
  "\u2581apontow": 5383,
  "\u2581extended": 5384,
  "\u2581grave": 5385,
  "\u2581newly": 5386,
  "\u2581w\u0254wom": 5387,
  "ahy\u025bde": 5388,
  "\u2581Jonah": 5389,
  "\u2581Wohw\u025b": 5390,
  "\u2581admits": 5391,
  "\u2581arms": 5392,
  "\u2581facing": 5393,
  "\u2581finished": 5394,
  "\u2581forgiving": 5395,
  "\u2581mmoroso": 5396,
  "\u2581paying": 5397,
  "\u2581y\u025bsom": 5398,
  "\u2581\u025bb\u025b": 5399,
  "aba": 5400,
  "nguan": 5401,
  "\u2581Nimde\u025b": 5402,
  "\u2581W\u0254w\u0254": 5403,
  "\u2581custom": 5404,
  "\u2581kyer\u025bkyer\u025bfo": 5405,
  "\u2581pere": 5406,
  "\u2581schools": 5407,
  "\u2581stayed": 5408,
  "\u2581threatened": 5409,
  "\u2581wholesome": 5410,
  "s\u025bee": 5411,
  "vi": 5412,
  "\u2581As\u025bnnibea": 5413,
  "\u2581acknowledge": 5414,
  "\u2581adeb\u0254": 5415,
  "\u2581ahonhom": 5416,
  "\u2581henanom": 5417,
  "\u2581intense": 5418,
  "\u2581misua": 5419,
  "\u2581modest": 5420,
  "\u2581nkaefo": 5421,
  "\u2581phone": 5422,
  "\u2581project": 5423,
  "\u2581review": 5424,
  "\u2581talks": 5425,
  "\u2581torture": 5426,
  "\u2581yehui": 5427,
  "ous": 5428,
  "\u2581Anigyes\u025bm": 5429,
  "\u2581Dabida": 5430,
  "\u2581Papa": 5431,
  "\u2581ahosodi": 5432,
  "\u2581depends": 5433,
  "\u2581grand": 5434,
  "\u2581preced": 5435,
  "\u2581singing": 5436,
  "\u2581welfare": 5437,
  "im": 5438,
  "\u2581Habel": 5439,
  "\u2581Korea": 5440,
  "\u2581calm": 5441,
  "\u2581completed": 5442,
  "\u2581guilty": 5443,
  "\u2581impact": 5444,
  "\u2581nsusuw": 5445,
  "\u2581proud": 5446,
  "\u2581table": 5447,
  "\u2581\u0254b\u025bfa": 5448,
  "\u2581Kenya": 5449,
  "\u2581abue": 5450,
  "\u2581afterward": 5451,
  "\u2581generous": 5452,
  "\u2581merciful": 5453,
  "\u2581opinion": 5454,
  "\u2581siesiee": 5455,
  "\u2581traditional": 5456,
  "\u2581wa": 5457,
  "\u2581Concern": 5458,
  "\u2581Within": 5459,
  "\u2581Yoh": 5460,
  "\u2581computer": 5461,
  "\u2581empty": 5462,
  "\u2581limitations": 5463,
  "\u2581suggests": 5464,
  "\u2581w\u0254asiesie": 5465,
  "\u2581\u0190kam": 5466,
  "atamfo": 5467,
  "b\u025bsan": 5468,
  "\u2581Afotu": 5469,
  "\u2581agua": 5470,
  "\u2581atmosphere": 5471,
  "\u2581commit": 5472,
  "\u2581ears": 5473,
  "\u2581gets": 5474,
  "\u2581leader": 5475,
  "\u2581lowly": 5476,
  "\u2581patients": 5477,
  "\u2581trusted": 5478,
  "\u2581w\u0254daa": 5479,
  "\u2581Death": 5480,
  "\u2581Lasaro": 5481,
  "\u2581Wom": 5482,
  "\u2581charge": 5483,
  "\u2581dark": 5484,
  "\u2581dress": 5485,
  "\u2581d\u0254n": 5486,
  "\u2581northern": 5487,
  ">": 5488,
  "nhwehw\u025b": 5489,
  "\u2581Rahab": 5490,
  "\u2581Wonya": 5491,
  "\u2581accompany": 5492,
  "\u2581amemene": 5493,
  "\u2581appeal": 5494,
  "\u2581begins": 5495,
  "\u2581black": 5496,
  "\u2581contain": 5497,
  "\u2581marked": 5498,
  "\u2581ntawntawdi": 5499,
  "\u2581running": 5500,
  "\u2581safety": 5501,
  "\u2581sisii": 5502,
  "\u2581theme": 5503,
  "\u2581widely": 5504,
  "\u2581wobebu": 5505,
  "\u2581\u0186ba": 5506,
  "\u2581\u025bdaa": 5507,
  "abrab\u0254": 5508,
  "\u2581Civi": 5509,
  "\u2581Nkyer\u025bkyer\u025b": 5510,
  "\u2581accepting": 5511,
  "\u2581choices": 5512,
  "\u2581establish": 5513,
  "\u2581hot": 5514,
  "\u2581shed": 5515,
  "\u2581wob\u025bfa": 5516,
  "\u2581y\u025btaa": 5517,
  "\u2581\u0254dom": 5518,
  "Obiara": 5519,
  "ts": 5520,
  "\u2581Corinth": 5521,
  "\u2581Moab": 5522,
  "\u2581Show": 5523,
  "\u2581Three": 5524,
  "\u2581ab\u025bsen": 5525,
  "\u2581amammuis\u025bm": 5526,
  "\u2581assurance": 5527,
  "\u2581awaefo": 5528,
  "\u2581challenging": 5529,
  "\u2581dede": 5530,
  "\u2581frequently": 5531,
  "\u2581instructed": 5532,
  "\u2581lovingly": 5533,
  "\u2581moves": 5534,
  "\u2581nnompe": 5535,
  "\u2581pursuing": 5536,
  "\u2581Al": 5537,
  "\u2581Efeso": 5538,
  "\u2581Grand": 5539,
  "\u2581Internet": 5540,
  "\u2581Nazi": 5541,
  "\u2581Source": 5542,
  "\u2581Up": 5543,
  "\u2581kyere": 5544,
  "\u2581slavery": 5545,
  "\u2581yesuasua": 5546,
  "asefo": 5547,
  "hu": 5548,
  "ig": 5549,
  "\u2581120": 5550,
  "\u2581Encyclop\u00e6dia": 5551,
  "\u2581Gen": 5552,
  "\u2581Journal": 5553,
  "\u2581Organization": 5554,
  "\u2581Owura": 5555,
  "\u2581ahengua": 5556,
  "\u2581communicate": 5557,
  "\u2581fitaa": 5558,
  "\u2581ignore": 5559,
  "\u2581medicine": 5560,
  "\u2581onnya": 5561,
  "\u2581photo": 5562,
  "\u2581spirits": 5563,
  "\u2581sustain": 5564,
  "\u2581worker": 5565,
  "\u2581\u0254haha": 5566,
  "\u2581Happy": 5567,
  "\u2581aguanfo": 5568,
  "\u2581f\u025bf\u025b\u025bf\u025b": 5569,
  "\u2581headquarters": 5570,
  "\u2581inclined": 5571,
  "\u2581iron": 5572,
  "\u2581wotua": 5573,
  "\u2581\u025brey\u025b": 5574,
  "ama": 5575,
  "\u258136.": 5576,
  "\u2581Nn\u025b": 5577,
  "\u2581abandon": 5578,
  "\u2581devoted": 5579,
  "\u2581hair": 5580,
  "\u2581nkasa": 5581,
  "\u2581patiently": 5582,
  "\u2581reliable": 5583,
  "\u2581satisfied": 5584,
  "\u2581size": 5585,
  "\u2581songs": 5586,
  "\u2581strengthening": 5587,
  "our": 5588,
  "\u2581Le": 5589,
  "\u2581Odiyifo": 5590,
  "\u2581Si": 5591,
  "\u2581Twam": 5592,
  "\u2581abere": 5593,
  "\u2581adopted": 5594,
  "\u2581annual": 5595,
  "\u2581cared": 5596,
  "\u2581divided": 5597,
  "\u2581female": 5598,
  "\u2581habit": 5599,
  "\u2581nufu": 5600,
  "\u2581team": 5601,
  "\u2581texts": 5602,
  "\u2581thankful": 5603,
  "\u2581w\u0254b\u025bsan": 5604,
  "\u2581\u0254kwamm\u0254ne": 5605,
  "boaa": 5606,
  "tu": 5607,
  "ul": 5608,
  "\u258138.": 5609,
  "\u2581Mmarima": 5610,
  "\u2581depressed": 5611,
  "\u2581limit": 5612,
  "\u2581nhwehw\u025bmufo": 5613,
  "\u2581obligation": 5614,
  "\u2581rehw\u025b": 5615,
  "To": 5616,
  "\u258154": 5617,
  "\u2581Asub\u0254nten": 5618,
  "\u2581Sweden": 5619,
  "\u2581aged": 5620,
  "\u2581buae": 5621,
  "\u2581fundamental": 5622,
  "\u2581initiative": 5623,
  "\u2581menya": 5624,
  "\u2581reign": 5625,
  "\u2581tetefo": 5626,
  "\u2581w\u0254afi": 5627,
  "\u2581y\u025bb\u025bte": 5628,
  "ru": 5629,
  "\u258152": 5630,
  "\u2581conviction": 5631,
  "\u2581pasaa": 5632,
  "\u2581retw\u025bn": 5633,
  "\u2581soil": 5634,
  "\u2581wobenyan": 5635,
  "\u2581KA": 5636,
  "\u2581abosonsomfo": 5637,
  "\u2581anohyeto": 5638,
  "\u2581condemned": 5639,
  "\u2581contained": 5640,
  "\u2581interesting": 5641,
  "\u2581nnamfonom": 5642,
  "\u2581nn\u0254\u0254so": 5643,
  "\u2581onyansafo": 5644,
  "\u2581ordered": 5645,
  "\u2581pleasing": 5646,
  "\u2581\u0254s\u025bmpatr\u025bwfo": 5647,
  "ful": 5648,
  "tan": 5649,
  "\u2581607": 5650,
  "\u2581Absalom": 5651,
  "\u2581Besides": 5652,
  "\u2581aseda": 5653,
  "\u2581existed": 5654,
  "\u2581fathers": 5655,
  "\u2581motives": 5656,
  "\u2581restore": 5657,
  "\u2581solid": 5658,
  "\u2581wear": 5659,
  "\u2581w\u0254kasa": 5660,
  "\u2581Hesekia": 5661,
  "\u2581Year": 5662,
  "\u2581compassionate": 5663,
  "\u2581ebedi": 5664,
  "\u2581kaee": 5665,
  "\u2581moon": 5666,
  "\u2581nwura": 5667,
  "\u2581pornography": 5668,
  "\u2581protected": 5669,
  "\u2581ship": 5670,
  "\u2581surface": 5671,
  "\u2581\u025bnky\u025b": 5672,
  "Y\u025b": 5673,
  "\u25811943": 5674,
  "\u2581Hope": 5675,
  "\u2581Koma": 5676,
  "\u2581Worship": 5677,
  "\u2581aduonu": 5678,
  "\u2581benefited": 5679,
  "\u2581b\u0254beasu": 5680,
  "\u2581imperfection": 5681,
  "\u2581north": 5682,
  "\u2581ntoaso": 5683,
  "\u2581origin": 5684,
  "\u2581possession": 5685,
  "\u2581preparing": 5686,
  "\u2581season": 5687,
  "\u2581sorts": 5688,
  "\u2581trade": 5689,
  "\u2581wosiesie": 5690,
  "\u2581w\u0254b\u025bhy\u025b": 5691,
  "Be": 5692,
  "\u2581Aso": 5693,
  "\u2581Notice": 5694,
  "\u2581Stephen": 5695,
  "\u2581accord": 5696,
  "\u2581add": 5697,
  "\u2581ahode": 5698,
  "\u2581art": 5699,
  "\u2581drawing": 5700,
  "\u2581grain": 5701,
  "\u2581isolated": 5702,
  "\u2581maintaining": 5703,
  "\u2581mass": 5704,
  "\u2581model": 5705,
  "\u2581mpaboa": 5706,
  "\u2581nyi": 5707,
  "\u2581rehwehw\u025b": 5708,
  "rs": 5709,
  "\u2581Lazarus": 5710,
  "\u2581Ocean": 5711,
  "\u2581Western": 5712,
  "\u2581agreement": 5713,
  "\u2581asetenam": 5714,
  "\u2581primarily": 5715,
  "\u2581summer": 5716,
  "\u2581\u0254foforo": 5717,
  "dan": 5718,
  "\u258127]": 5719,
  "\u258140.": 5720,
  "\u2581Granted": 5721,
  "\u2581Please": 5722,
  "\u2581Rwanda": 5723,
  "\u2581Spiritual": 5724,
  "\u2581famous": 5725,
  "\u2581miraculous": 5726,
  "\u2581wisely": 5727,
  "\u2581wrath": 5728,
  "\u2581w\u0254nk\u0254": 5729,
  "\u2581y\u025bkaa": 5730,
  "ever": 5731,
  "\u258119]": 5732,
  "\u2581Drama": 5733,
  "\u2581Martin": 5734,
  "\u2581campaign": 5735,
  "\u2581context": 5736,
  "\u2581opposers": 5737,
  "\u2581plants": 5738,
  "\u2581subamm\u0254ne": 5739,
  "\u2581weaknesses": 5740,
  "\u2581w\u0254ada": 5741,
  "ad": 5742,
  "\u2581Bagua": 5743,
  "\u2581Gospels": 5744,
  "\u2581Prov": 5745,
  "\u2581Red": 5746,
  "\u2581ahobr\u025basefo": 5747,
  "\u2581b\u025btena": 5748,
  "\u2581commands": 5749,
  "\u2581ebehia": 5750,
  "\u2581elements": 5751,
  "\u2581flee": 5752,
  "\u2581inherited": 5753,
  "\u2581media": 5754,
  "\u2581unless": 5755,
  "\u2581visitors": 5756,
  "\u25811941": 5757,
  "\u25812013": 5758,
  "\u2581Men": 5759,
  "\u2581Sam": 5760,
  "\u2581Yare": 5761,
  "\u2581blame": 5762,
  "\u2581guilt": 5763,
  "\u2581minnim": 5764,
  "\u2581mourning": 5765,
  "\u2581nsisi": 5766,
  "\u2581prejudice": 5767,
  "\u2581professor": 5768,
  "\u2581tear": 5769,
  "\u2581unrighteous": 5770,
  "\u25811,000": 5771,
  "\u258111]": 5772,
  "\u258161": 5773,
  "\u2581Professor": 5774,
  "\u2581Y\u025bkenkan": 5775,
  "\u2581associates": 5776,
  "\u2581guided": 5777,
  "\u2581okyinnsoromma": 5778,
  "\u2581quiet": 5779,
  "\u2581red": 5780,
  "\u2581resua": 5781,
  "\u2581royal": 5782,
  "\u2581spending": 5783,
  "\u2581tired": 5784,
  "\u2581translations": 5785,
  "\u2581\u0186w\u0254": 5786,
  "\u2581\u0190renky\u025b": 5787,
  "ate": 5788,
  "ha": 5789,
  "with": 5790,
  "\u2581Ahemman": 5791,
  "\u2581ah\u0254hoy\u025b": 5792,
  "\u2581conflicts": 5793,
  "\u2581dying": 5794,
  "\u2581except": 5795,
  "\u2581recreation": 5796,
  "\u2581spite": 5797,
  "\u2581station": 5798,
  "\u2581unclean": 5799,
  "\u2581w\u0254anyan": 5800,
  "\u2581w\u0254asua": 5801,
  "\u2581\u0190ha": 5802,
  "os": 5803,
  "\u2581Passover": 5804,
  "\u2581adannandi": 5805,
  "\u2581ankonam": 5806,
  "\u2581harsh": 5807,
  "\u2581kata": 5808,
  "\u2581object": 5809,
  "\u2581\u0254pon": 5810,
  "\u25812003": 5811,
  "\u2581adefo": 5812,
  "\u2581ammu": 5813,
  "\u2581claims": 5814,
  "\u2581emotionally": 5815,
  "\u2581eti": 5816,
  "\u2581rejoicing": 5817,
  "\u2581sports": 5818,
  "\u2581thanks": 5819,
  "\u2581win": 5820,
  "\u2581wufi": 5821,
  "\u2581\u0186p\u025b": 5822,
  "men": 5823,
  "\u2581Orthodox": 5824,
  "\u2581Yudea": 5825,
  "\u2581acknowledged": 5826,
  "\u2581bedu": 5827,
  "\u2581explanation": 5828,
  "\u2581extend": 5829,
  "\u2581historical": 5830,
  "\u2581mihyia": 5831,
  "\u2581wamfa": 5832,
  "\u2581\u0254nokwafo": 5833,
  "not": 5834,
  "\u0190s\u025b": 5835,
  "\u2581Moscow": 5836,
  "\u2581Nsu": 5837,
  "\u2581Woy\u025b": 5838,
  "\u2581atip\u025bnfo": 5839,
  "\u2581atirim\u0254den": 5840,
  "\u2581calamity": 5841,
  "\u2581concentration": 5842,
  "\u2581cross": 5843,
  "\u2581cruel": 5844,
  "\u2581inherit": 5845,
  "\u2581mmonnaa": 5846,
  "\u2581shortly": 5847,
  "\u2581supposed": 5848,
  "\u2581w\u0254t\u0254": 5849,
  "\u2581Albert": 5850,
  "\u2581Hezekiah": 5851,
  "\u2581adwumakuw": 5852,
  "\u2581busuani": 5853,
  "\u2581fields": 5854,
  "\u2581gained": 5855,
  "\u2581k\u0254fa": 5856,
  "\u2581okununom": 5857,
  "\u2581onyamesom": 5858,
  "\u2581scripture": 5859,
  "\u2581significance": 5860,
  "\u2581sitting": 5861,
  "\u2581watching": 5862,
  "ccompanied": 5863,
  "\u2581Naaman": 5864,
  "\u2581Samaria": 5865,
  "\u2581Simon": 5866,
  "\u2581admitted": 5867,
  "\u2581beast": 5868,
  "\u2581comment": 5869,
  "\u2581enjoying": 5870,
  "\u2581gyigye": 5871,
  "\u2581jealousy": 5872,
  "\u2581pen": 5873,
  "\u2581traits": 5874,
  "\u2581upbuilding": 5875,
  "\u2581\u025bb\u025bhy\u025b": 5876,
  "\u258156": 5877,
  "\u258175": 5878,
  "\u2581Austria": 5879,
  "\u2581Baasakoro": 5880,
  "\u2581ahokokwaw": 5881,
  "\u2581fun": 5882,
  "\u2581g": 5883,
  "\u2581losing": 5884,
  "\u2581middle": 5885,
  "\u2581reply": 5886,
  "\u2581scale": 5887,
  "\u2581thrown": 5888,
  "\u2581y\u025bb\u025bda": 5889,
  "\u2581y\u025bb\u025bhw\u025b": 5890,
  "ON": 5891,
  "\u2581anhu": 5892,
  "\u2581entumi": 5893,
  "\u2581fears": 5894,
  "\u2581murder": 5895,
  "\u2581returning": 5896,
  "\u2581surgery": 5897,
  "\u2581wany\u025b": 5898,
  "\u2581yebisa": 5899,
  "ie": 5900,
  "\u25817;": 5901,
  "\u2581Meda": 5902,
  "\u2581atuo": 5903,
  "\u2581bobe": 5904,
  "\u2581distant": 5905,
  "\u2581ekura": 5906,
  "\u2581feed": 5907,
  "\u2581ran": 5908,
  "\u2581searching": 5909,
  "\u2581akasa": 5910,
  "\u2581anyansafo": 5911,
  "\u2581awe": 5912,
  "\u2581finds": 5913,
  "\u2581illustrations": 5914,
  "\u2581listeners": 5915,
  "\u2581ns\u025bmm\u0254nedifo": 5916,
  "\u2581partner": 5917,
  "\u2581reap": 5918,
  "\u2581replaced": 5919,
  "\u2581wodwen": 5920,
  "\u2581w\u0254agyae": 5921,
  "ahyehy\u025bde": 5922,
  "\u2581California": 5923,
  "\u2581Philip": 5924,
  "\u2581Sua": 5925,
  "\u2581burning": 5926,
  "\u2581childhood": 5927,
  "\u2581citizens": 5928,
  "\u2581eliminate": 5929,
  "\u2581executed": 5930,
  "\u2581hospitality": 5931,
  "\u2581onyae": 5932,
  "\u2581readers": 5933,
  "\u2581serew": 5934,
  "Onipa": 5935,
  "honhom": 5936,
  "\u2581Ephesus": 5937,
  "\u2581FOR": 5938,
  "\u2581Nasi": 5939,
  "\u2581Pro": 5940,
  "\u2581akwati": 5941,
  "\u2581ay\u0254nkofa": 5942,
  "\u2581dry": 5943,
  "\u2581experts": 5944,
  "\u2581fuwii": 5945,
  "\u2581monk\u0254": 5946,
  "\u2581officer": 5947,
  "\u2581perfection": 5948,
  "\u2581proceeded": 5949,
  "\u2581raising": 5950,
  "\u2581scientific": 5951,
  "\u2581ungodly": 5952,
  "\u2581w\u0254yare": 5953,
  "\u2581\u0254kenkan": 5954,
  "\u2581\u025bhw\u025b": 5955,
  "\u2581Mekae": 5956,
  "\u2581attain": 5957,
  "\u2581b\u0254s": 5958,
  "\u2581intended": 5959,
  "\u2581kusuu": 5960,
  "\u2581mpataa": 5961,
  "\u2581paragraph": 5962,
  "\u2581researchers": 5963,
  "\u2581surrounded": 5964,
  "\u2581throw": 5965,
  "\u2581widespread": 5966,
  "\u2581y\u025basusuw": 5967,
  "ish": 5968,
  "\u2581Minya": 5969,
  "\u2581Much": 5970,
  "\u2581Sinai": 5971,
  "\u2581Table": 5972,
  "\u2581aboro": 5973,
  "\u2581akyere": 5974,
  "\u2581cast": 5975,
  "\u2581drew": 5976,
  "\u2581philosophy": 5977,
  "\u2581tested": 5978,
  "\u2581weakness": 5979,
  "\u2581w\u0254b\u025bfr\u025b": 5980,
  "\u2581\u025bd\u0254\u0254so": 5981,
  "\u2581\u025bnanom": 5982,
  "01": 5983,
  "ized": 5984,
  "\u2581Betumi": 5985,
  "\u2581Hana": 5986,
  "\u2581Nnwom": 5987,
  "\u2581Wogye": 5988,
  "\u2581akansi": 5989,
  "\u2581mid": 5990,
  "\u2581products": 5991,
  "\u2581w\u0254ab\u025by\u025b": 5992,
  "que": 5993,
  "ter": 5994,
  "\u2581Kaesare": 5995,
  "\u2581Silas": 5996,
  "\u2581adesr\u025b": 5997,
  "\u2581defend": 5998,
  "\u2581fresh": 5999,
  "\u2581mfiridwuma": 6000,
  "\u2581teenager": 6001,
  "\u2581w\u0254b\u025bte": 6002,
  "bisaa": 6003,
  "land": 6004,
  "\u2581afipamfo": 6005,
  "\u2581fallen": 6006,
  "\u2581humankind": 6007,
  "\u2581hye": 6008,
  "\u2581judges": 6009,
  "\u2581meek": 6010,
  "\u2581obtained": 6011,
  "\u2581paper": 6012,
  "\u2581programs": 6013,
  "\u2581Old": 6014,
  "\u2581Sefania": 6015,
  "\u2581Unlike": 6016,
  "\u2581Wode": 6017,
  "\u2581befiri": 6018,
  "\u2581below": 6019,
  "\u2581capable": 6020,
  "\u2581description": 6021,
  "\u2581hidden": 6022,
  "\u2581mommma": 6023,
  "\u2581nt\u025bmp\u025b": 6024,
  "\u2581preserve": 6025,
  "\u2581rehy\u025b": 6026,
  "\u2581tempted": 6027,
  "Kristo": 6028,
  "No": 6029,
  "\u258147": 6030,
  "\u2581Egye": 6031,
  "\u2581Know": 6032,
  "\u2581akura": 6033,
  "\u2581ends": 6034,
  "\u2581merey\u025b": 6035,
  "\u2581nkonimdi": 6036,
  "\u2581w\u0254rentumi": 6037,
  "\u2581yenhu": 6038,
  "\u2581\u025bhwehw\u025b": 6039,
  "ntumi": 6040,
  "\u2581Committee": 6041,
  "\u2581access": 6042,
  "\u2581amany\u0254s\u025bm": 6043,
  "\u2581anibiannaso": 6044,
  "\u2581delighted": 6045,
  "\u2581load": 6046,
  "\u2581mm\u0254ho": 6047,
  "\u2581nsaano": 6048,
  "\u2581silent": 6049,
  "\u2581supplies": 6050,
  "\u2581tendency": 6051,
  "\u2581wrongdoing": 6052,
  "\u2581yesi": 6053,
  "\u2581y\u025bboa": 6054,
  "\u2581\u025bb\u025bk\u0254": 6055,
  "\u2581\u025btwe": 6056,
  "ED": 6057,
  "\u2581asekyer\u025b": 6058,
  "\u2581bebrebe": 6059,
  "\u2581besua": 6060,
  "\u2581burned": 6061,
  "\u2581debt": 6062,
  "\u2581finish": 6063,
  "\u2581fourth": 6064,
  "\u2581items": 6065,
  "\u2581length": 6066,
  "\u2581publicly": 6067,
  "\u2581repeated": 6068,
  "\u2581south": 6069,
  "\u2581urges": 6070,
  "\u2581volunteers": 6071,
  "\u2581w\u0254b\u025bhw\u025b": 6072,
  "Ahenni": 6073,
  "b\u025bma": 6074,
  "\u2581Marriage": 6075,
  "\u2581acquire": 6076,
  "\u2581ad\u0254\u0254so": 6077,
  "\u2581akyekye": 6078,
  "\u2581current": 6079,
  "\u2581evolution": 6080,
  "\u2581kesee": 6081,
  "\u2581miracle": 6082,
  "\u2581w\u0254b\u025bsom": 6083,
  "\u25811947": 6084,
  "\u2581Du": 6085,
  "\u2581Zephaniah": 6086,
  "\u2581ber\u025b": 6087,
  "\u2581ese": 6088,
  "\u2581introduced": 6089,
  "\u2581looks": 6090,
  "\u2581nkyene": 6091,
  "\u2581opposed": 6092,
  "\u2581outlook": 6093,
  "\u2581suggested": 6094,
  "as\u025bmti": 6095,
  "suafoy\u025b": 6096,
  "suasua": 6097,
  "\u2581Nniso": 6098,
  "\u2581Tyndale": 6099,
  "\u2581boafo": 6100,
  "\u2581images": 6101,
  "\u2581mmarimaa": 6102,
  "\u2581necessarily": 6103,
  "\u2581respected": 6104,
  "\u2581sat": 6105,
  "\u2581subjection": 6106,
  "\u2581wokenkan": 6107,
  "\u2581wommu": 6108,
  "\u2581\u0190mmr": 6109,
  "\u2581\u0254redi": 6110,
  "FO": 6111,
  "anigye": 6112,
  "em": 6113,
  "enim": 6114,
  "ph": 6115,
  "\u2581Jordan": 6116,
  "\u2581Mmeb": 6117,
  "\u2581Prayer": 6118,
  "\u2581Trinity": 6119,
  "\u2581ap\u0254wmuden": 6120,
  "\u2581atemmufo": 6121,
  "\u2581b\u025bt\u0254": 6122,
  "\u2581cure": 6123,
  "\u2581entrusted": 6124,
  "\u2581feature": 6125,
  "\u2581hyiam": 6126,
  "\u2581j": 6127,
  "\u2581komayare": 6128,
  "\u2581messages": 6129,
  "\u2581mm\u0254nten": 6130,
  "\u2581refreshing": 6131,
  "\u2581stronger": 6132,
  "\u2581twetwe": 6133,
  "\u2581wobegyina": 6134,
  "\u2581w\u0254ate": 6135,
  "anuonyam": 6136,
  "dwinnwen": 6137,
  "\u2581Ban": 6138,
  "\u2581Empire": 6139,
  "\u2581Millions": 6140,
  "\u2581contributed": 6141,
  "\u2581glorify": 6142,
  "\u2581heads": 6143,
  "\u2581idolatry": 6144,
  "\u2581kurop\u0254n": 6145,
  "\u2581mmeawa": 6146,
  "\u2581smoke": 6147,
  "\u2581traditions": 6148,
  "\u2581types": 6149,
  "\u2581warfare": 6150,
  "ci": 6151,
  "\u258142.": 6152,
  "\u2581Ny\u025b": 6153,
  "\u2581kununom": 6154,
  "\u2581mifi": 6155,
  "\u2581nye": 6156,
  "\u2581previously": 6157,
  "\u2581symbolic": 6158,
  "\u2581totally": 6159,
  "ab\u025by\u025b": 6160,
  "\u2581Gal": 6161,
  "\u2581Making": 6162,
  "\u2581Next": 6163,
  "\u2581Nkyer\u025base": 6164,
  "\u2581adwumay\u025b": 6165,
  "\u2581equal": 6166,
  "\u2581holds": 6167,
  "\u2581ohyia": 6168,
  "\u2581pregnant": 6169,
  "\u2581remembered": 6170,
  "\u2581rewarded": 6171,
  "\u2581schedule": 6172,
  "\u2581turns": 6173,
  "\u2581universal": 6174,
  "\u2581w\u0254b\u025bn": 6175,
  "ING": 6176,
  "b\u0254": 6177,
  "faa": 6178,
  "id": 6179,
  "mi": 6180,
  "\u2581145": 6181,
  "\u2581Akwahosan": 6182,
  "\u2581Apem": 6183,
  "\u2581Living": 6184,
  "\u2581Things": 6185,
  "\u2581adopt": 6186,
  "\u2581believing": 6187,
  "\u2581features": 6188,
  "\u2581greed": 6189,
  "\u2581mema": 6190,
  "\u2581mine": 6191,
  "\u2581pictures": 6192,
  "\u2581relate": 6193,
  "\u2581survived": 6194,
  "\u2581s\u0254ree": 6195,
  "\u2581typical": 6196,
  "\u2581yiw": 6197,
  "ER": 6198,
  "ab\u025bn": 6199,
  "asafo": 6200,
  "\u25811935": 6201,
  "\u2581Abofra": 6202,
  "\u2581Women": 6203,
  "\u2581accident": 6204,
  "\u2581consist": 6205,
  "\u2581discussions": 6206,
  "\u2581foolish": 6207,
  "\u2581identity": 6208,
  "\u2581lower": 6209,
  "\u2581operation": 6210,
  "\u2581possibility": 6211,
  "\u2581sets": 6212,
  "\u2581worry": 6213,
  "\u2581\u0254reb\u0254": 6214,
  "tra": 6215,
  "y\u025bn": 6216,
  "\u2581Evidently": 6217,
  "\u2581Stadium": 6218,
  "\u2581Tie": 6219,
  "\u2581Tom": 6220,
  "\u2581Wisdom": 6221,
  "\u2581W\u0254taa": 6222,
  "\u2581Yudasom": 6223,
  "\u2581meditation": 6224,
  "\u2581mistake": 6225,
  "\u2581mprenu": 6226,
  "\u2581obeying": 6227,
  "\u2581telephone": 6228,
  "\u2581whereas": 6229,
  "\u2581yebesua": 6230,
  "\u2581\u025bnne": 6231,
  "J": 6232,
  "aniwa": 6233,
  "hw\u025b\u025b": 6234,
  "t\u0254\u0254": 6235,
  "\u25812008": 6236,
  "\u2581Nhyehy\u025be": 6237,
  "\u2581Use": 6238,
  "\u2581apira": 6239,
  "\u2581applies": 6240,
  "\u2581asra": 6241,
  "\u2581dies": 6242,
  "\u2581dinn": 6243,
  "\u2581kyeky\u025b": 6244,
  "\u2581location": 6245,
  "\u2581oyii": 6246,
  "\u2581solve": 6247,
  "\u2581storm": 6248,
  "\u2581walls": 6249,
  "\u2581\u0254b\u025bs\u025be": 6250,
  "am": 6251,
  "his": 6252,
  "nya": 6253,
  "\u2581ADESUA": 6254,
  "\u2581Jean": 6255,
  "\u2581Were": 6256,
  "\u2581accused": 6257,
  "\u2581afternoon": 6258,
  "\u2581b\u0254fo": 6259,
  "\u2581b\u025bs\u0254re": 6260,
  "\u2581educational": 6261,
  "\u2581enwu": 6262,
  "\u2581kinds": 6263,
  "\u2581method": 6264,
  "\u2581sacrificing": 6265,
  "\u2581symptoms": 6266,
  "\u2581unusual": 6267,
  "ina": 6268,
  "\u258100": 6269,
  "\u2581Back": 6270,
  "\u2581Car": 6271,
  "\u2581Ur": 6272,
  "\u2581W\u0254b\u0254": 6273,
  "\u2581Yonatan": 6274,
  "\u2581addressed": 6275,
  "\u2581ananmusifo": 6276,
  "\u2581desirable": 6277,
  "\u2581esum": 6278,
  "\u2581mene": 6279,
  "\u2581movement": 6280,
  "\u2581sigaretnom": 6281,
  "\u2581tamfo": 6282,
  "By": 6283,
  "\u2581Boa": 6284,
  "\u2581D\u0254": 6285,
  "\u2581Palm": 6286,
  "\u2581Spania": 6287,
  "\u2581abodin": 6288,
  "\u2581bitter": 6289,
  "\u2581b\u025bhwehw\u025b": 6290,
  "\u2581capacity": 6291,
  "\u2581hunger": 6292,
  "\u2581nneb\u0254ney\u025bfo": 6293,
  "\u2581residents": 6294,
  "\u2581sufficient": 6295,
  "\u2581\u0186maa": 6296,
  "600": 6297,
  "\u2581Come": 6298,
  "\u2581Judea": 6299,
  "\u2581ahodwiriw": 6300,
  "\u2581check": 6301,
  "\u2581engaged": 6302,
  "\u2581eternity": 6303,
  "\u2581profound": 6304,
  "\u2581reminders": 6305,
  "\u2581wob\u025bhw\u025b": 6306,
  "\u2581wuwui": 6307,
  "\u2581yetu": 6308,
  "ine": 6309,
  "sh": 6310,
  "\u25811946": 6311,
  "\u2581W\u0254kae": 6312,
  "\u2581ak\u0254y\u025b": 6313,
  "\u2581atuatewfo": 6314,
  "\u2581color": 6315,
  "\u2581reads": 6316,
  "Ade": 6317,
  "\u2581Contents": 6318,
  "\u2581Lewifo": 6319,
  "\u2581S\u0254hw\u025b": 6320,
  "\u2581Wura": 6321,
  "\u2581agodie": 6322,
  "\u2581begun": 6323,
  "\u2581commandment": 6324,
  "\u2581director": 6325,
  "\u2581exert": 6326,
  "\u2581insurance": 6327,
  "\u2581onhu": 6328,
  "\u2581planning": 6329,
  "\u2581previous": 6330,
  "\u2581proverb": 6331,
  "\u2581refugees": 6332,
  "Wi\u025b": 6333,
  "\u2581Association": 6334,
  "\u2581Mm\u0254den": 6335,
  "\u2581Museum": 6336,
  "\u2581anti": 6337,
  "\u2581coast": 6338,
  "\u2581demands": 6339,
  "\u2581examination": 6340,
  "\u2581income": 6341,
  "\u2581mates": 6342,
  "\u2581rock": 6343,
  "\u2581southern": 6344,
  "\u2581\u025bbere": 6345,
  "keep": 6346,
  "\u0254too": 6347,
  "\u2581Catholics": 6348,
  "\u2581Eastern": 6349,
  "\u2581End": 6350,
  "\u2581aguaman": 6351,
  "\u2581as\u025bmpakafo": 6352,
  "\u2581bride": 6353,
  "\u2581nnommum": 6354,
  "\u2581rescue": 6355,
  "\u2581seeming": 6356,
  "\u2581somee": 6357,
  "\u2581s\u00f5": 6358,
  "\u2581Egyptian": 6359,
  "\u2581IT": 6360,
  "\u2581Lamb": 6361,
  "\u2581Marta": 6362,
  "\u2581W\u0254ases": 6363,
  "\u2581changing": 6364,
  "\u2581crisis": 6365,
  "\u2581forest": 6366,
  "\u2581handed": 6367,
  "\u2581space": 6368,
  "\u2581streets": 6369,
  "\u2581woadi": 6370,
  "\u2581wuram": 6371,
  "mmisa": 6372,
  "\u25811;": 6373,
  "\u2581700": 6374,
  "\u2581Aduan": 6375,
  "\u2581Hannah": 6376,
  "\u2581as\u025bnnennen": 6377,
  "\u2581heal": 6378,
  "\u2581infected": 6379,
  "\u2581jobs": 6380,
  "\u2581milk": 6381,
  "\u2581mpr\u025bnsa": 6382,
  "\u2581mubetumi": 6383,
  "\u2581obeyi": 6384,
  "\u2581yebefi": 6385,
  "\u2581\u0186kyer\u025bkyer\u025bfo": 6386,
  "\u2581\u0254bo": 6387,
  "if": 6388,
  "per": 6389,
  "\u2581Habakuk": 6390,
  "\u2581Jude": 6391,
  "\u2581Knowledge": 6392,
  "\u2581View": 6393,
  "\u2581asakra": 6394,
  "\u2581b\u025bkaa": 6395,
  "\u2581choosing": 6396,
  "\u2581hintidua": 6397,
  "\u2581nnan": 6398,
  "\u2581participate": 6399,
  "\u2581poured": 6400,
  "\u2581rage": 6401,
  "\u2581Babylonian": 6402,
  "\u2581IS": 6403,
  "\u2581Lakes": 6404,
  "\u2581anyin": 6405,
  "\u2581b\u025bsra": 6406,
  "\u2581crowds": 6407,
  "\u2581didii": 6408,
  "\u2581hit": 6409,
  "\u2581killing": 6410,
  "\u2581oguanhw\u025bfo": 6411,
  "\u2581t\u0254nn": 6412,
  "\u2581waree": 6413,
  "\u2581\u0190nte": 6414,
  "\u2581\u0254nk\u0254": 6415,
  "age": 6416,
  "\u2581103": 6417,
  "\u2581Nhwehw\u025bmufo": 6418,
  "\u2581Years": 6419,
  "\u2581abubu": 6420,
  "\u2581admit": 6421,
  "\u2581boaboa": 6422,
  "\u2581b\u025bkyer\u025bkyer\u025b": 6423,
  "\u2581d\u0254nhwerew": 6424,
  "\u2581elsewhere": 6425,
  "\u2581figure": 6426,
  "\u2581lion": 6427,
  "\u2581marital": 6428,
  "\u2581mmob\u0254wee": 6429,
  "\u2581nantwi": 6430,
  "\u2581nnamy\u025b": 6431,
  "\u2581stones": 6432,
  "\u2581visible": 6433,
  "\u2581\u0186ma": 6434,
  "ance": 6435,
  "waw": 6436,
  "\u2581Amansan": 6437,
  "\u2581Eli": 6438,
  "\u2581Habakkuk": 6439,
  "\u2581Italian": 6440,
  "\u2581ME": 6441,
  "\u2581baanum": 6442,
  "\u2581depend": 6443,
  "\u2581extra": 6444,
  "\u2581happening": 6445,
  "\u2581immortal": 6446,
  "\u2581k\u0254kaa": 6447,
  "\u2581minhu": 6448,
  "\u2581nkuraase": 6449,
  "\u2581nky\u025b": 6450,
  "\u2581trusting": 6451,
  "\u2581w\u0254annya": 6452,
  "Why": 6453,
  "that": 6454,
  "\u2581Bu": 6455,
  "\u2581Heart": 6456,
  "\u2581Mar": 6457,
  "\u2581approaching": 6458,
  "\u2581b\u025bsom": 6459,
  "\u2581drive": 6460,
  "\u2581execution": 6461,
  "\u2581market": 6462,
  "\u2581treasures": 6463,
  "\u2581upset": 6464,
  "\u2581wiee": 6465,
  "\u2581witnessed": 6466,
  "\u2581wunni": 6467,
  "of": 6468,
  "pi": 6469,
  "sa": 6470,
  "\u25811918": 6471,
  "\u258183": 6472,
  "\u2581Interesting": 6473,
  "\u2581Karen": 6474,
  "\u2581ahenkurow": 6475,
  "\u2581imprisoned": 6476,
  "\u2581nsom": 6477,
  "\u2581nsua": 6478,
  "\u2581objective": 6479,
  "\u2581\u0254nte": 6480,
  "\u2581\u0254yerenom": 6481,
  "Saa": 6482,
  "abufuw": 6483,
  "\u258118;": 6484,
  "\u2581AND": 6485,
  "\u2581Child": 6486,
  "\u2581Gu": 6487,
  "\u2581ear": 6488,
  "\u2581fitting": 6489,
  "\u2581games": 6490,
  "\u2581informed": 6491,
  "\u2581nufusu": 6492,
  "\u2581peer": 6493,
  "\u2581regardless": 6494,
  "\u2581safeguard": 6495,
  "\u2581sentence": 6496,
  "\u2581sikakorabea": 6497,
  "\u2581talked": 6498,
  "\u2581treneefo": 6499,
  "\u2581y\u025byere": 6500,
  "\u2581\u0254b\u025b": 6501,
  "\u2581\u0254defo": 6502,
  "\u2581Creation": 6503,
  "\u2581Mr": 6504,
  "\u2581Nni": 6505,
  "\u2581achieve": 6506,
  "\u2581arrival": 6507,
  "\u2581difficulty": 6508,
  "\u2581experiencing": 6509,
  "\u2581faces": 6510,
  "\u2581portion": 6511,
  "\u2581w\u0254abara": 6512,
  "haw": 6513,
  "\u2581Ara": 6514,
  "\u2581Con": 6515,
  "\u2581Elihu": 6516,
  "\u2581Pilato": 6517,
  "\u2581cup": 6518,
  "\u2581lips": 6519,
  "\u2581wonyae": 6520,
  "\u2581w\u0254awo": 6521,
  "\u2581w\u0254kyere": 6522,
  "\u2581\u025bkeka": 6523,
  "Who": 6524,
  "\u2581Abigail": 6525,
  "\u2581Panyin": 6526,
  "\u2581afflicted": 6527,
  "\u2581ahosiesie": 6528,
  "\u2581ayeforo": 6529,
  "\u2581observing": 6530,
  "\u2581printing": 6531,
  "\u2581sending": 6532,
  "\u2581wada": 6533,
  "\u2581weigh": 6534,
  "mfi": 6535,
  "\u2581Franse": 6536,
  "\u2581Teokrase": 6537,
  "\u2581application": 6538,
  "\u2581dawurub\u0254": 6539,
  "\u2581mmaranimfo": 6540,
  "\u2581playing": 6541,
  "\u2581preserved": 6542,
  "\u2581satisfy": 6543,
  "\u2581tragedy": 6544,
  "\u2581y\u025bagyina": 6545,
  "W\u0186": 6546,
  "ya": 6547,
  "\u25811953": 6548,
  "\u2581Elders": 6549,
  "\u2581Pacific": 6550,
  "\u2581acquainted": 6551,
  "\u2581aguade": 6552,
  "\u2581ahosohyira": 6553,
  "\u2581anantew": 6554,
  "\u2581author": 6555,
  "\u2581conversations": 6556,
  "\u2581enhia": 6557,
  "\u2581hama": 6558,
  "\u2581inspiring": 6559,
  "\u2581res\u025be": 6560,
  "\u2581rewarding": 6561,
  "\u2581ruled": 6562,
  "\u2581seventh": 6563,
  "\u2581woda": 6564,
  "\u2581wubegye": 6565,
  "\u2581w\u0254adu": 6566,
  "\u2581y\u025bkwati": 6567,
  "\u2581\u0254b\u025bhw\u025b": 6568,
  "ng": 6569,
  "\u25811951": 6570,
  "\u2581Right": 6571,
  "\u2581Truly": 6572,
  "\u2581Wodi": 6573,
  "\u2581Yebesusuw": 6574,
  "\u2581afobu": 6575,
  "\u2581ahopere": 6576,
  "\u2581announced": 6577,
  "\u2581credit": 6578,
  "\u2581detail": 6579,
  "\u2581earnestly": 6580,
  "\u2581fault": 6581,
  "\u2581influences": 6582,
  "\u2581likened": 6583,
  "\u2581nsiy\u025b": 6584,
  "\u2581resolved": 6585,
  "\u2581sukuup\u0254n": 6586,
  "other": 6587,
  "\u2581Atemmufo": 6588,
  "\u2581P\u025b": 6589,
  "\u2581akan": 6590,
  "\u2581amantam": 6591,
  "\u2581ayera": 6592,
  "\u2581begu": 6593,
  "\u2581central": 6594,
  "\u2581comfortable": 6595,
  "\u2581declaring": 6596,
  "\u2581deeper": 6597,
  "\u2581farm": 6598,
  "\u2581grandparents": 6599,
  "\u2581k\u0254ndua": 6600,
  "\u2581larger": 6601,
  "\u2581memp\u025b": 6602,
  "\u2581nnii": 6603,
  "\u2581\u0186s\u0254fo": 6604,
  "mma": 6605,
  "v": 6606,
  "\u2581Again": 6607,
  "\u2581Babilonfo": 6608,
  "\u2581Daily": 6609,
  "\u2581Frank": 6610,
  "\u2581Jew": 6611,
  "\u2581Little": 6612,
  "\u2581ademude": 6613,
  "\u2581ahohuru": 6614,
  "\u2581dwoodwoo": 6615,
  "\u2581kogu": 6616,
  "\u2581minded": 6617,
  "\u2581nnafua": 6618,
  "\u2581nnwinnade": 6619,
  "\u2581ntraso": 6620,
  "\u2581obvious": 6621,
  "\u2581pick": 6622,
  "\u2581practiced": 6623,
  "\u2581prophesied": 6624,
  "\u2581p\u025bnkoro": 6625,
  "\u2581twice": 6626,
  "\u2581woate": 6627,
  "\u2581worey\u025b": 6628,
  "AL": 6629,
  "ad\u0254e": 6630,
  "b\u025bb\u025bn": 6631,
  "\u2581Dwumadibea": 6632,
  "\u2581Nabal": 6633,
  "\u2581Office": 6634,
  "\u2581Vatican": 6635,
  "\u2581commonly": 6636,
  "\u2581ebedu": 6637,
  "\u2581famine": 6638,
  "\u2581gyata": 6639,
  "\u2581impression": 6640,
  "\u2581kyee": 6641,
  "\u2581memfa": 6642,
  "\u2581oguan": 6643,
  "\u2581realm": 6644,
  "\u2581sincerely": 6645,
  "\u2581wogu": 6646,
  "\u2581w\u0254any\u025b": 6647,
  "feha": 6648,
  "\u2581(4)": 6649,
  "\u258145.": 6650,
  "\u2581Akodi": 6651,
  "\u2581Eye": 6652,
  "\u2581Zion": 6653,
  "\u2581asleep": 6654,
  "\u2581disobedience": 6655,
  "\u2581exciting": 6656,
  "\u2581fought": 6657,
  "\u2581kyer\u025bkyer\u025be": 6658,
  "\u2581nsiw": 6659,
  "\u2581nyaatwom": 6660,
  "\u2581oppression": 6661,
  "\u2581repent": 6662,
  "\u2581similarly": 6663,
  "\u2581zealously": 6664,
  "ge": 6665,
  "\u258110,000": 6666,
  "\u2581Any": 6667,
  "\u2581Pilate": 6668,
  "\u2581Published": 6669,
  "\u2581THIS": 6670,
  "\u2581bus": 6671,
  "\u2581pursuit": 6672,
  "\u2581serpent": 6673,
  "\u2581sources": 6674,
  "\u2581\u0254nhw\u025b": 6675,
  "\u2581\u0254paw": 6676,
  "\u2581\u0254remma": 6677,
  "mantam": 6678,
  "\u258133:": 6679,
  "\u2581County": 6680,
  "\u2581Easter": 6681,
  "\u2581Esra": 6682,
  "\u2581Ezra": 6683,
  "\u2581Henok": 6684,
  "\u2581W\u0254ne": 6685,
  "\u2581akunafo": 6686,
  "\u2581beat": 6687,
  "\u2581covering": 6688,
  "\u2581drama": 6689,
  "\u2581effectively": 6690,
  "\u2581ensure": 6691,
  "\u2581healed": 6692,
  "\u2581kwantufo": 6693,
  "\u2581meat": 6694,
  "\u2581mfuw": 6695,
  "\u2581nkokoaa": 6696,
  "\u2581periods": 6697,
  "\u2581proclaimers": 6698,
  "\u2581sayings": 6699,
  "\u2581symbol": 6700,
  "\u2581tabernacle": 6701,
  "\u2581wobetie": 6702,
  "\u2581wotwaa": 6703,
  "\u2581\u0186ko": 6704,
  "bu": 6705,
  "mmfa": 6706,
  "nee": 6707,
  "\u25812004": 6708,
  "\u258173": 6709,
  "\u2581Daakye": 6710,
  "\u2581Master": 6711,
  "\u2581adjust": 6712,
  "\u2581akunkum": 6713,
  "\u2581declaration": 6714,
  "\u2581defense": 6715,
  "\u2581facilities": 6716,
  "\u2581morally": 6717,
  "\u2581reasoned": 6718,
  "\u2581reside": 6719,
  "\u2581w\u0254ko": 6720,
  "\u2581y\u025bb\u025b": 6721,
  "\u2581\u025bb\u025bto": 6722,
  "Go": 6723,
  "ab\u0254de": 6724,
  "ated": 6725,
  "\u2581100,000": 6726,
  "\u2581adwo": 6727,
  "\u2581as\u025bmm\u0254ne": 6728,
  "\u2581criminal": 6729,
  "\u2581fled": 6730,
  "\u2581floor": 6731,
  "\u2581format": 6732,
  "\u2581judicial": 6733,
  "\u2581kuruwa": 6734,
  "\u2581k\u0254traa": 6735,
  "\u2581nky\u025be": 6736,
  "\u2581privileged": 6737,
  "\u2581systems": 6738,
  "\u2581wood": 6739,
  "\u2581wosisi": 6740,
  "\u2581w\u0254b\u025bkyer\u025b": 6741,
  "et": 6742,
  "ir": 6743,
  "\u2581Department": 6744,
  "\u2581H\u0186": 6745,
  "\u2581equipped": 6746,
  "\u2581kyekye": 6747,
  "\u2581limits": 6748,
  "\u2581nnidiso": 6749,
  "\u2581tent": 6750,
  "\u2581testimony": 6751,
  "\u2581title": 6752,
  "\u2581wheat": 6753,
  "Your": 6754,
  "are": 6755,
  "\u25811952": 6756,
  "\u2581Biako": 6757,
  "\u2581Institute": 6758,
  "\u2581Joy": 6759,
  "\u2581Washington": 6760,
  "\u2581Yosia": 6761,
  "\u2581cried": 6762,
  "\u2581disasters": 6763,
  "\u2581discussing": 6764,
  "\u2581fruits": 6765,
  "\u2581helper": 6766,
  "\u2581host": 6767,
  "\u2581illustrated": 6768,
  "\u2581linked": 6769,
  "\u2581med\u0254": 6770,
  "\u2581permission": 6771,
  "\u2581regret": 6772,
  "\u2581represents": 6773,
  "\u2581strangers": 6774,
  "\u2581yafunu": 6775,
  "aa": 6776,
  "\u25811958": 6777,
  "\u2581Arthur": 6778,
  "\u2581Atirimp\u0254w": 6779,
  "\u2581Insight": 6780,
  "\u2581Need": 6781,
  "\u2581Rev": 6782,
  "\u2581ans\u025be": 6783,
  "\u2581disorder": 6784,
  "\u2581foro": 6785,
  "\u2581heat": 6786,
  "\u2581hide": 6787,
  "\u2581hweree": 6788,
  "\u2581injury": 6789,
  "\u2581lacking": 6790,
  "\u2581nt\u0254kwaw": 6791,
  "\u2581ose": 6792,
  "\u2581prosperity": 6793,
  "\u2581tutu": 6794,
  "\u2581willingness": 6795,
  "\u2581w\u0254kyer\u025bwee": 6796,
  "\u2581yoke": 6797,
  "\u2581\u0190DA": 6798,
  "\u2581\u0254sen": 6799,
  "awo": 6800,
  "za": 6801,
  "\u25812]": 6802,
  "\u2581Draw": 6803,
  "\u2581D\u0190N": 6804,
  "\u2581Gabriel": 6805,
  "\u2581Galilea": 6806,
  "\u2581Gyinae": 6807,
  "\u2581Josiah": 6808,
  "\u2581Kyer\u025bwtoh\u0254": 6809,
  "\u2581Sermon": 6810,
  "\u2581Which": 6811,
  "\u2581abroad": 6812,
  "\u2581adaadaa": 6813,
  "\u2581ahokeka": 6814,
  "\u2581assume": 6815,
  "\u2581badness": 6816,
  "\u2581commented": 6817,
  "\u2581commercial": 6818,
  "\u2581considerable": 6819,
  "\u2581errors": 6820,
  "\u2581foods": 6821,
  "\u2581lines": 6822,
  "\u2581nnwumakuw": 6823,
  "\u2581nsiesie": 6824,
  "\u2581peaceable": 6825,
  "\u2581peers": 6826,
  "\u2581plenty": 6827,
  "\u2581producing": 6828,
  "\u2581yedii": 6829,
  "\u2581\u0190to": 6830,
  "\u2581Judaism": 6831,
  "\u2581Judges": 6832,
  "\u2581Ohio": 6833,
  "\u2581Ten": 6834,
  "\u2581design": 6835,
  "\u2581politics": 6836,
  "\u2581prefer": 6837,
  "\u2581prospects": 6838,
  "\u2581wob\u025bb\u0254": 6839,
  "\u2581wowuwui": 6840,
  "\u2581w\u0254br\u025b": 6841,
  "\u2581w\u0254hyehy\u025b\u025b": 6842,
  "\u2581w\u0254rehwehw\u025b": 6843,
  "\u2581\u0254rentumi": 6844,
  "610": 6845,
  "\u2581Aboa": 6846,
  "\u2581Faithful": 6847,
  "\u2581Kanaan": 6848,
  "\u2581Kunini": 6849,
  "\u2581Modern": 6850,
  "\u2581Supreme": 6851,
  "\u2581adansefo": 6852,
  "\u2581adjustments": 6853,
  "\u2581aguadifo": 6854,
  "\u2581ak\u0254fa": 6855,
  "\u2581exchange": 6856,
  "\u2581expectations": 6857,
  "\u2581friendly": 6858,
  "\u2581motive": 6859,
  "\u2581neglect": 6860,
  "\u2581presents": 6861,
  "\u2581professional": 6862,
  "\u2581worst": 6863,
  "\u2581Abien": 6864,
  "\u2581Central": 6865,
  "\u2581Learning": 6866,
  "\u2581Mom": 6867,
  "\u2581atopae": 6868,
  "\u2581billions": 6869,
  "\u2581entirely": 6870,
  "\u2581grant": 6871,
  "\u2581hungry": 6872,
  "\u2581increasingly": 6873,
  "\u2581kotoku": 6874,
  "\u2581missing": 6875,
  "\u2581ns\u025be": 6876,
  "\u2581okum": 6877,
  "\u2581recognition": 6878,
  "\u2581rendering": 6879,
  "\u2581w\u0254amma": 6880,
  "\u2581y\u025bnhwehw\u025b": 6881,
  "\u2581\u0186san": 6882,
  "mm\u025bn": 6883,
  "\u2581Above": 6884,
  "\u2581Barak": 6885,
  "\u2581Certainly": 6886,
  "\u2581Mass": 6887,
  "\u2581Near": 6888,
  "\u2581abesi": 6889,
  "\u2581adifudep\u025b": 6890,
  "\u2581anxieties": 6891,
  "\u2581bought": 6892,
  "\u2581creature": 6893,
  "\u2581despair": 6894,
  "\u2581eagerly": 6895,
  "\u2581hoped": 6896,
  "\u2581miss": 6897,
  "\u2581modesty": 6898,
  "\u2581nwonwaso": 6899,
  "\u2581realistic": 6900,
  "\u2581rewards": 6901,
  "\u2581surprising": 6902,
  "\u2581Ann": 6903,
  "\u2581Asram": 6904,
  "\u2581Judge": 6905,
  "\u2581Likely": 6906,
  "\u2581Ns\u025bnnennen": 6907,
  "\u2581PALM": 6908,
  "\u2581Power": 6909,
  "\u2581ahintas\u025bm": 6910,
  "\u2581deaths": 6911,
  "\u2581encounter": 6912,
  "\u2581enduring": 6913,
  "\u2581islands": 6914,
  "\u2581meditating": 6915,
  "\u2581mm\u025bn": 6916,
  "\u2581nn\u0254": 6917,
  "\u2581openly": 6918,
  "\u2581post": 6919,
  "\u2581wak\u0254": 6920,
  "\u2581wealthy": 6921,
  "\u2581\u0254temmufo": 6922,
  "nokware": 6923,
  "\u25811988": 6924,
  "\u2581EFI": 6925,
  "\u2581Nk\u0254so": 6926,
  "\u2581advancement": 6927,
  "\u2581akuafo": 6928,
  "\u2581atreneefo": 6929,
  "\u2581b\u025bdan": 6930,
  "\u2581fulfilling": 6931,
  "\u2581outset": 6932,
  "\u2581rebellious": 6933,
  "\u2581respects": 6934,
  "\u2581sot\u0254\u0254": 6935,
  "\u2581y\u025bfr\u025b": 6936,
  "ical": 6937,
  "\u258164": 6938,
  "\u2581Additionally": 6939,
  "\u2581Dead": 6940,
  "\u2581Nyansahufo": 6941,
  "\u2581ade\u025b": 6942,
  "\u2581ahohora": 6943,
  "\u2581demand": 6944,
  "\u2581depth": 6945,
  "\u2581doors": 6946,
  "\u2581doubts": 6947,
  "\u2581governing": 6948,
  "\u2581kyi": 6949,
  "\u2581largest": 6950,
  "\u2581settled": 6951,
  "\u2581uphold": 6952,
  "\u2581virtual": 6953,
  "\u2581vow": 6954,
  "\u25811938": 6955,
  "\u25811942": 6956,
  "\u2581Barnaba": 6957,
  "\u2581Star": 6958,
  "\u2581akowie": 6959,
  "\u2581ak\u0254neaba": 6960,
  "\u2581festival": 6961,
  "\u2581friendships": 6962,
  "\u2581globe": 6963,
  "\u2581journal": 6964,
  "\u2581lifestyle": 6965,
  "\u2581neutral": 6966,
  "\u2581priesthood": 6967,
  "\u2581reboa": 6968,
  "\u2581senses": 6969,
  "\u2581urge": 6970,
  "K\u0254": 6971,
  "adi": 6972,
  "firi": 6973,
  "\u25811955": 6974,
  "\u2581Awarefo": 6975,
  "\u2581Dwumadi": 6976,
  "\u2581HOW": 6977,
  "\u2581Wunim": 6978,
  "\u2581as\u025bndua": 6979,
  "\u2581buildings": 6980,
  "\u2581compromise": 6981,
  "\u2581conform": 6982,
  "\u2581expressing": 6983,
  "\u2581goats": 6984,
  "\u2581manifested": 6985,
  "\u2581memories": 6986,
  "\u2581nyansafo": 6987,
  "\u2581remote": 6988,
  "\u2581resort": 6989,
  "\u2581status": 6990,
  "\u2581urgency": 6991,
  "\u2581wogyae": 6992,
  "\u2581\u0186soro": 6993,
  "\u2581\u0254kyena": 6994,
  "\u2581\u0254rek\u0254": 6995,
  "\u2581\u0254y\u025bkyer\u025b": 6996,
  "\u2581\u025bsow": 6997,
  "ku": 6998,
  "ye": 6999,
  "\u2581110": 7000,
  "\u2581CITY": 7001,
  "\u2581Nhomanimfo": 7002,
  "\u2581Wonim": 7003,
  "\u2581adansi": 7004,
  "\u2581hated": 7005,
  "\u2581nhaw": 7006,
  "\u2581ntoto": 7007,
  "\u2581offerings": 7008,
  "\u2581passage": 7009,
  "\u2581pieces": 7010,
  "\u2581rep\u025b": 7011,
  "\u2581resi": 7012,
  "\u2581sole": 7013,
  "\u2581statements": 7014,
  "\u2581titrani": 7015,
  "\u2581wogyaee": 7016,
  "\u2581\u0254b\u025bba": 7017,
  "\u2581\u0254fasu": 7018,
  "Mede": 7019,
  "ck": 7020,
  "yere": 7021,
  "\u25811949": 7022,
  "\u2581Dodow": 7023,
  "\u2581Onii": 7024,
  "\u2581Owu": 7025,
  "\u2581Wobu": 7026,
  "\u2581attempts": 7027,
  "\u2581celebration": 7028,
  "\u2581dekode": 7029,
  "\u2581driving": 7030,
  "\u2581element": 7031,
  "\u2581expensive": 7032,
  "\u2581funeral": 7033,
  "\u2581gambling": 7034,
  "\u2581immediate": 7035,
  "\u2581measures": 7036,
  "\u2581minor": 7037,
  "\u2581obstacles": 7038,
  "\u2581records": 7039,
  "\u2581sexually": 7040,
  "\u2581survival": 7041,
  "\u2581taxes": 7042,
  "\u2581w\u0254as\u025be": 7043,
  "akum": 7044,
  "hyira": 7045,
  "mp\u025b": 7046,
  "\u2581600": 7047,
  "\u258163": 7048,
  "\u2581Din": 7049,
  "\u2581Ester": 7050,
  "\u2581Japanese": 7051,
  "\u2581Middle": 7052,
  "\u2581Se": 7053,
  "\u2581Seed": 7054,
  "\u2581Yordan": 7055,
  "\u2581appealing": 7056,
  "\u2581b\u025bs\u0254": 7057,
  "\u2581desired": 7058,
  "\u2581fango": 7059,
  "\u2581hopes": 7060,
  "\u2581k\u0254m": 7061,
  "\u2581meantime": 7062,
  "\u2581occurs": 7063,
  "\u2581wamma": 7064,
  "\u2581y\u025bb\u025bhwehw\u025b": 7065,
  "\u2581y\u025bmm\u0254": 7066,
  "\u2581\u0254h\u0254ho": 7067,
  "good": 7068,
  "\u2581Albania": 7069,
  "\u2581Amerikafo": 7070,
  "\u2581GP": 7071,
  "\u2581Galilee": 7072,
  "\u2581Toronto": 7073,
  "\u2581Yearbook": 7074,
  "\u2581engaging": 7075,
  "\u2581expects": 7076,
  "\u2581highest": 7077,
  "\u2581osi": 7078,
  "\u2581reflects": 7079,
  "\u2581sell": 7080,
  "\u2581submit": 7081,
  "\u2581tragic": 7082,
  "\u2581weather": 7083,
  "\u2581w\u0254b\u025bda": 7084,
  "Monk\u0254": 7085,
  "Wop\u025b": 7086,
  "aduan": 7087,
  "\u0254soro": 7088,
  "\u2581Chinese": 7089,
  "\u2581Ebedu": 7090,
  "\u2581Onya": 7091,
  "\u2581ansi": 7092,
  "\u2581bank": 7093,
  "\u2581d": 7094,
  "\u2581discover": 7095,
  "\u2581duties": 7096,
  "\u2581empire": 7097,
  "\u2581firstborn": 7098,
  "\u2581obiako": 7099,
  "\u2581produces": 7100,
  "\u2581production": 7101,
  "\u2581wasi": 7102,
  "\u2581waste": 7103,
  "\u2581y\u025bnka": 7104,
  "\u2581y\u025bt\u0254": 7105,
  "\u2581\u0254sraani": 7106,
  "akyere": 7107,
  "fo\u0254": 7108,
  "ke": 7109,
  "new": 7110,
  "\u258132]": 7111,
  "\u258197": 7112,
  "\u2581Anya": 7113,
  "\u2581Avoid": 7114,
  "\u2581Yebenya": 7115,
  "\u2581abusive": 7116,
  "\u2581akoten": 7117,
  "\u2581amansin": 7118,
  "\u2581atoyer\u025bnky\u025bm": 7119,
  "\u2581bow": 7120,
  "\u2581courageously": 7121,
  "\u2581disappointed": 7122,
  "\u2581extraordinary": 7123,
  "\u2581handling": 7124,
  "\u2581hardships": 7125,
  "\u2581initial": 7126,
  "\u2581loyally": 7127,
  "\u2581mama": 7128,
  "\u2581namely": 7129,
  "\u2581priority": 7130,
  "\u2581promotes": 7131,
  "\u2581range": 7132,
  "\u2581rekyer\u025bkyer\u025b": 7133,
  "\u2581stage": 7134,
  "\u2581stands": 7135,
  "\u2581strike": 7136,
  "\u2581supporting": 7137,
  "\u2581te\u025bte\u025b": 7138,
  "\u2581wubebisa": 7139,
  "\u2581wubu": 7140,
  "\u2581\u0254home": 7141,
  "beyi": 7142,
  "\u2581Anim": 7143,
  "\u2581Herod": 7144,
  "\u2581Jersey": 7145,
  "\u2581SAN": 7146,
  "\u2581Trust": 7147,
  "\u2581ad\u0254": 7148,
  "\u2581avoided": 7149,
  "\u2581earnest": 7150,
  "\u2581k\u025bsey\u025b": 7151,
  "\u2581maintained": 7152,
  "\u2581maturity": 7153,
  "\u2581menka": 7154,
  "\u2581pam": 7155,
  "\u2581priorities": 7156,
  "\u2581strange": 7157,
  "\u2581wofa": 7158,
  "\u2581wotutu": 7159,
  "\u2581w\u0254bom": 7160,
  "anaa": 7161,
  "atiefo": 7162,
  "gainst": 7163,
  "ial": 7164,
  "most": 7165,
  "rekenkan": 7166,
  "remma": 7167,
  "\u2581Divine": 7168,
  "\u2581Everyone": 7169,
  "\u2581Jerome": 7170,
  "\u2581Ortod\u0254ks": 7171,
  "\u2581Osuahu": 7172,
  "\u2581Put": 7173,
  "\u2581adwinni": 7174,
  "\u2581distributed": 7175,
  "\u2581ebegye": 7176,
  "\u2581foa": 7177,
  "\u2581materials": 7178,
  "\u2581ntie": 7179,
  "\u2581surrounding": 7180,
  "\u2581w\u0254hw\u025b\u025b": 7181,
  "\u2581w\u0254wo": 7182,
  "akora": 7183,
  "x": 7184,
  "\u25811944": 7185,
  "\u2581Israelni": 7186,
  "\u2581Levites": 7187,
  "\u2581Rachel": 7188,
  "\u2581amazing": 7189,
  "\u2581base": 7190,
  "\u2581boat": 7191,
  "\u2581b\u025bp\u025b": 7192,
  "\u2581chronic": 7193,
  "\u2581cultivating": 7194,
  "\u2581gaining": 7195,
  "\u2581gyidihunu": 7196,
  "\u2581hates": 7197,
  "\u2581honesty": 7198,
  "\u2581ignored": 7199,
  "\u2581nnade": 7200,
  "\u2581obeyed": 7201,
  "\u2581objects": 7202,
  "\u2581reproach": 7203,
  "\u2581shoulder": 7204,
  "\u2581sorrow": 7205,
  "\u2581w\u0254b\u025btena": 7206,
  "ab\u0254fo": 7207,
  "pp": 7208,
  "\u25811948": 7209,
  "\u25811957": 7210,
  "\u2581Assembl": 7211,
  "\u2581Barnabas": 7212,
  "\u2581Become": 7213,
  "\u2581Constantine": 7214,
  "\u2581Gentiles": 7215,
  "\u2581Milton": 7216,
  "\u2581Reading": 7217,
  "\u2581Sa": 7218,
  "\u2581Teaching": 7219,
  "\u2581Try": 7220,
  "\u2581amum\u0254y\u025bs\u025bm": 7221,
  "\u2581awares\u025be": 7222,
  "\u2581breast": 7223,
  "\u2581bright": 7224,
  "\u2581instruct": 7225,
  "\u2581mmoawammoawa": 7226,
  "\u2581moay\u025b": 7227,
  "\u2581pity": 7228,
  "\u2581press": 7229,
  "\u2581reduced": 7230,
  "\u2581tetee": 7231,
  "\u2581tiny": 7232,
  "\u2581unexpected": 7233,
  "\u2581virtue": 7234,
  "ot": 7235,
  "rennyaw": 7236,
  "\u2581Canaan": 7237,
  "\u2581Far": 7238,
  "\u2581Sydney": 7239,
  "\u2581ages": 7240,
  "\u2581ahonhons\u025bmdi": 7241,
  "\u2581akyinnyegye": 7242,
  "\u2581edition": 7243,
  "\u2581emphasized": 7244,
  "\u2581everyday": 7245,
  "\u2581misii": 7246,
  "\u2581parental": 7247,
  "\u2581patriarch": 7248,
  "\u2581permit": 7249,
  "\u2581resentment": 7250,
  "\u2581resident": 7251,
  "\u2581shame": 7252,
  "\u2581teenagers": 7253,
  "\u2581\u025bh\u0254nom": 7254,
  "IN": 7255,
  "ally": 7256,
  "asiesie": 7257,
  "\u0254b\u025bsan": 7258,
  "\u25811931": 7259,
  "\u2581Misrifo": 7260,
  "\u2581Park": 7261,
  "\u2581SUBJECT": 7262,
  "\u2581Theocratic": 7263,
  "\u2581angelic": 7264,
  "\u2581betwa": 7265,
  "\u2581bosea": 7266,
  "\u2581endless": 7267,
  "\u2581esisi": 7268,
  "\u2581exact": 7269,
  "\u2581fann": 7270,
  "\u2581fat": 7271,
  "\u2581green": 7272,
  "\u2581hwe": 7273,
  "\u2581kwati": 7274,
  "\u2581ntu": 7275,
  "\u2581retu": 7276,
  "\u2581shine": 7277,
  "\u2581starting": 7278,
  "\u2581unbeliev": 7279,
  "\u2581unfaithful": 7280,
  "\u2581widows": 7281,
  "foro": 7282,
  "\u025bkari": 7283,
  "\u25811985": 7284,
  "\u25811989": 7285,
  "\u2581Aky\u025bde": 7286,
  "\u2581Numbers": 7287,
  "\u2581ananafo": 7288,
  "\u2581assemblies": 7289,
  "\u2581awaregyae": 7290,
  "\u2581comparison": 7291,
  "\u2581kingdoms": 7292,
  "\u2581lifetime": 7293,
  "\u2581mekenkan": 7294,
  "\u2581mmr\u025b": 7295,
  "\u2581narrow": 7296,
  "\u2581ntwa": 7297,
  "\u2581obegyina": 7298,
  "\u2581piece": 7299,
  "\u2581poo": 7300,
  "\u2581replace": 7301,
  "\u2581requirement": 7302,
  "\u2581sing": 7303,
  "\u2581urgent": 7304,
  "\u2581w\u0254nhy\u025b": 7305,
  "\u2581\u0254sr\u025b": 7306,
  "\u2581\u025bkae": 7307,
  "asusuw": 7308,
  "ley": 7309,
  "sen": 7310,
  "twetwe": 7311,
  "\u2581Abusuab\u0254": 7312,
  "\u2581Close": 7313,
  "\u2581Hungary": 7314,
  "\u2581Isa": 7315,
  "\u2581M\u025by\u025b": 7316,
  "\u2581Nt\u025bm": 7317,
  "\u2581W\u0254ay\u025b": 7318,
  "\u2581abotan": 7319,
  "\u2581b\u025bkasa": 7320,
  "\u2581east": 7321,
  "\u2581era": 7322,
  "\u2581fapem": 7323,
  "\u2581joyfully": 7324,
  "\u2581mibehu": 7325,
  "\u2581nguanhw\u025bfo": 7326,
  "\u2581nsuyiri": 7327,
  "\u2581nuabeanom": 7328,
  "\u2581nyansap\u025bfo": 7329,
  "\u2581organizations": 7330,
  "\u2581positions": 7331,
  "\u2581presentation": 7332,
  "\u2581separated": 7333,
  "\u2581staff": 7334,
  "\u2581strongly": 7335,
  "\u2581whenever": 7336,
  "\u2581w\u0254atew": 7337,
  "Happy": 7338,
  "ler": 7339,
  "\u258162": 7340,
  "\u2581Ro": 7341,
  "\u2581ahemfie": 7342,
  "\u2581armed": 7343,
  "\u2581at\u025bnkyea": 7344,
  "\u2581climate": 7345,
  "\u2581crying": 7346,
  "\u2581ekunkum": 7347,
  "\u2581loose": 7348,
  "\u2581nwini": 7349,
  "\u2581soldier": 7350,
  "\u2581temper": 7351,
  "\u2581weekly": 7352,
  "\u2581wobeku": 7353,
  "\u2581w\u0254antumi": 7354,
  "\u2581w\u0254s\u0254": 7355,
  "\u2581w\u0254te\u025b": 7356,
  "Bible": 7357,
  "anhw\u025b": 7358,
  "ten": 7359,
  "\u258132,": 7360,
  "\u258168": 7361,
  "\u2581Ab\u0254fo": 7362,
  "\u2581Bethlehem": 7363,
  "\u2581Centre": 7364,
  "\u2581Elizabeth": 7365,
  "\u2581Mmusua": 7366,
  "\u2581USED": 7367,
  "\u2581bones": 7368,
  "\u2581bue": 7369,
  "\u2581exile": 7370,
  "\u2581hyer\u025bn": 7371,
  "\u2581kyakyatow": 7372,
  "\u2581native": 7373,
  "\u2581nsup\u0254w": 7374,
  "\u2581opinions": 7375,
  "\u2581permitted": 7376,
  "\u2581restoration": 7377,
  "\u2581settle": 7378,
  "\u2581sides": 7379,
  "\u2581vain": 7380,
  "\u2581y\u025bbr\u025b": 7381,
  "\u2581y\u025breb\u0254": 7382,
  "\u2581\u0186temmufo": 7383,
  "\u2581\u0254nka": 7384,
  "op": 7385,
  "there": 7386,
  "\u25811986": 7387,
  "\u2581En": 7388,
  "\u2581Food": 7389,
  "\u2581Religious": 7390,
  "\u2581WHEN": 7391,
  "\u2581ab\u025bka": 7392,
  "\u2581amanne\u025bb\u0254fo": 7393,
  "\u2581arose": 7394,
  "\u2581badly": 7395,
  "\u2581classes": 7396,
  "\u2581code": 7397,
  "\u2581destructive": 7398,
  "\u2581diligent": 7399,
  "\u2581explaining": 7400,
  "\u2581feeding": 7401,
  "\u2581ntaban": 7402,
  "\u2581thoroughly": 7403,
  "\u2581warnings": 7404,
  "\u2581yebebu": 7405,
  "tes\u025bm": 7406,
  "\u2581'!": 7407,
  "\u258157": 7408,
  "\u2581Happiness": 7409,
  "\u2581Ni": 7410,
  "\u2581Ogye": 7411,
  "\u2581Rose": 7412,
  "\u2581Ruler": 7413,
  "\u2581atim": 7414,
  "\u2581awuduru": 7415,
  "\u2581board": 7416,
  "\u2581falling": 7417,
  "\u2581hohoro": 7418,
  "\u2581incident": 7419,
  "\u2581kowie": 7420,
  "\u2581mmofraberem": 7421,
  "\u2581pursuits": 7422,
  "\u2581teenage": 7423,
  "\u2581tract": 7424,
  "\u2581valid": 7425,
  "\u2581wobisa": 7426,
  "\u2581\u0254sa": 7427,
  "anamm\u0254n": 7428,
  "con": 7429,
  "p\u025b": 7430,
  "\u25811956": 7431,
  "\u2581Ahotoso": 7432,
  "\u2581Numeri": 7433,
  "\u2581OH": 7434,
  "\u2581Priest": 7435,
  "\u2581akora": 7436,
  "\u2581bob\u0254": 7437,
  "\u2581b\u025bbr\u025b": 7438,
  "\u2581duty": 7439,
  "\u2581dwumay\u025bni": 7440,
  "\u2581ennyina": 7441,
  "\u2581gyidini": 7442,
  "\u2581menk\u0254": 7443,
  "\u2581nnuaba": 7444,
  "\u2581prize": 7445,
  "\u2581receives": 7446,
  "\u2581shape": 7447,
  "\u2581somewhat": 7448,
  "\u2581thrilling": 7449,
  "\u2581w\u0254awie": 7450,
  "\u2581\u0254b\u025bhy\u025b": 7451,
  "\u2581\u0254te\u025b": 7452,
  "\u2581\u025bkyer\u025bkyer\u025b": 7453,
  "0,000": 7454,
  "adaemone": 7455,
  "va": 7456,
  "\u2581Belgium": 7457,
  "\u2581Courtesy": 7458,
  "\u2581Jos\u00e9": 7459,
  "\u2581Last": 7460,
  "\u2581Library": 7461,
  "\u2581Mediterranea": 7462,
  "\u2581Monk\u0254": 7463,
  "\u2581Wop\u025b": 7464,
  "\u2581adwinnade": 7465,
  "\u2581asekyer\u025bfo": 7466,
  "\u2581deserve": 7467,
  "\u2581distinguish": 7468,
  "\u2581earn": 7469,
  "\u2581expectation": 7470,
  "\u2581fed": 7471,
  "\u2581hurtful": 7472,
  "\u2581judged": 7473,
  "\u2581mail": 7474,
  "\u2581nnub\u0254nenom": 7475,
  "\u2581overwhelming": 7476,
  "\u2581sensitive": 7477,
  "\u2581woasi": 7478,
  "\u2581w\u0254nsom": 7479,
  "\u2581w\u0254rek\u0254": 7480,
  "\u2581yare\u025b": 7481,
  "\u2581\u0254pene": 7482,
  "akwankyer\u025b": 7483,
  "\u0190": 7484,
  "\u2581Eric": 7485,
  "\u2581Ever": 7486,
  "\u2581Freedom": 7487,
  "\u2581JUN": 7488,
  "\u2581Meanwhile": 7489,
  "\u2581Obisa": 7490,
  "\u2581Review": 7491,
  "\u2581Worldwide": 7492,
  "\u2581W\u0254fr\u025b": 7493,
  "\u2581Y\u025bte": 7494,
  "\u2581agyiraehy\u025bde": 7495,
  "\u2581buee": 7496,
  "\u2581commendation": 7497,
  "\u2581continually": 7498,
  "\u2581cultures": 7499,
  "\u2581grows": 7500,
  "\u2581highlight": 7501,
  "\u2581nnaka": 7502,
  "\u2581obebu": 7503,
  "\u2581onyame": 7504,
  "\u2581outcry": 7505,
  "\u2581resurrect": 7506,
  "\u2581technology": 7507,
  "\u2581transferred": 7508,
  "\u2581translators": 7509,
  "\u2581twaam": 7510,
  "\u2581unknown": 7511,
  "\u2581w\u0254b\u0254e": 7512,
  "\u2581w\u0254tra": 7513,
  "\u2581yebetie": 7514,
  "\u2581\u0254somfo": 7515,
  "\u2581\u025bko": 7516,
  "ac": 7517,
  "bi": 7518,
  "bom": 7519,
  "b\u025btow": 7520,
  "ious": 7521,
  "up": 7522,
  "\u258133,": 7523,
  "\u2581Rebeka": 7524,
  "\u2581Sabbath": 7525,
  "\u2581Siria": 7526,
  "\u2581Tokyo": 7527,
  "\u2581character": 7528,
  "\u2581concept": 7529,
  "\u2581dramatic": 7530,
  "\u2581gatherings": 7531,
  "\u2581nkosi": 7532,
  "\u2581obetie": 7533,
  "\u2581product": 7534,
  "\u2581publisher": 7535,
  "\u2581wobefi": 7536,
  "com": 7537,
  "hi": 7538,
  "\u2581DE": 7539,
  "\u2581Protestantfo": 7540,
  "\u2581Wu": 7541,
  "\u2581Yefta": 7542,
  "\u2581adetrenee": 7543,
  "\u2581advanced": 7544,
  "\u2581akwansin": 7545,
  "\u2581akyide": 7546,
  "\u2581asaw": 7547,
  "\u2581document": 7548,
  "\u2581nnwonto": 7549,
  "\u2581owner": 7550,
  "\u2581rennya": 7551,
  "\u2581rid": 7552,
  "\u2581spreading": 7553,
  "\u2581winter": 7554,
  "\u2581wishes": 7555,
  "\u2581y\u025basua": 7556,
  "\u2581Afi": 7557,
  "\u2581Education": 7558,
  "\u2581Geneva": 7559,
  "\u2581Viewpoint": 7560,
  "\u2581Z": 7561,
  "\u2581as\u0254retiafo": 7562,
  "\u2581banned": 7563,
  "\u2581continuing": 7564,
  "\u2581contribution": 7565,
  "\u2581correction": 7566,
  "\u2581drop": 7567,
  "\u2581garments": 7568,
  "\u2581hare": 7569,
  "\u2581k\u0254ka": 7570,
  "\u2581lift": 7571,
  "\u2581loud": 7572,
  "\u2581nkuraa": 7573,
  "\u2581plain": 7574,
  "\u2581qualify": 7575,
  "\u2581tenteenten": 7576,
  "\u2581theory": 7577,
  "\u2581thrilled": 7578,
  "\u2581voluntary": 7579,
  "\u2581wonyi": 7580,
  "\u2581w\u0254nkyer\u025b": 7581,
  "\u2581yebegyina": 7582,
  "\u2581\u025bhe": 7583,
  "kyer\u025b": 7584,
  "nim": 7585,
  "rd": 7586,
  "rekyer\u025bw": 7587,
  "remfa": 7588,
  "\u2581Knowing": 7589,
  "\u2581WAS": 7590,
  "\u2581attractive": 7591,
  "\u2581babies": 7592,
  "\u2581co": 7593,
  "\u2581consult": 7594,
  "\u2581cooperate": 7595,
  "\u2581cycle": 7596,
  "\u2581flight": 7597,
  "\u2581hall": 7598,
  "\u2581intimate": 7599,
  "\u2581medi": 7600,
  "\u2581mena": 7601,
  "\u2581mibisa": 7602,
  "\u2581reb\u025bn": 7603,
  "\u2581sharp": 7604,
  "\u2581suitable": 7605,
  "\u2581wony\u025b": 7606,
  "\u2581\u0190b\u025bm": 7607,
  "day": 7608,
  "\u2581Consequently": 7609,
  "\u2581Happily": 7610,
  "\u2581Herode": 7611,
  "\u2581Lo": 7612,
  "\u2581Malawi": 7613,
  "\u2581Nokwaredi": 7614,
  "\u2581STUDY": 7615,
  "\u2581Science": 7616,
  "\u2581abua": 7617,
  "\u2581admonished": 7618,
  "\u2581afford": 7619,
  "\u2581asotifo": 7620,
  "\u2581atenten": 7621,
  "\u2581basabasay\u025bfo": 7622,
  "\u2581bob\u0254\u0254": 7623,
  "\u2581domestic": 7624,
  "\u2581m\u025b": 7625,
  "\u2581noise": 7626,
  "\u2581preparation": 7627,
  "\u2581productive": 7628,
  "\u2581round": 7629,
  "\u2581sakre": 7630,
  "\u2581specifically": 7631,
  "\u2581\u0254b\u025bn": 7632,
  "\u2581\u0254kasafo": 7633,
  "Hena": 7634,
  "der": 7635,
  "k\u0254": 7636,
  "mmere": 7637,
  "\u2581104": 7638,
  "\u258129]": 7639,
  "\u2581Afahy\u025b": 7640,
  "\u2581Golden": 7641,
  "\u2581PS": 7642,
  "\u2581comforted": 7643,
  "\u2581delegates": 7644,
  "\u2581ebesisi": 7645,
  "\u2581infant": 7646,
  "\u2581marriages": 7647,
  "\u2581nkras\u025bm": 7648,
  "\u2581obuu": 7649,
  "\u2581smile": 7650,
  "\u2581speed": 7651,
  "\u2581spring": 7652,
  "\u2581w\u0254atwe": 7653,
  "\u2581y\u025bmp\u025b": 7654,
  "\u2581\u0190na": 7655,
  "\u2581\u0254nom": 7656,
  "LAND": 7657,
  "nso": 7658,
  "\u025bboro": 7659,
  "\u25811975": 7660,
  "\u2581Simeon": 7661,
  "\u2581Tu": 7662,
  "\u2581bears": 7663,
  "\u2581belongings": 7664,
  "\u2581commitment": 7665,
  "\u2581flood": 7666,
  "\u2581immune": 7667,
  "\u2581loneliness": 7668,
  "\u2581manuscripts": 7669,
  "\u2581structure": 7670,
  "\u2581tawa": 7671,
  "\u2581\u0254twe": 7672,
  "Mmofra": 7673,
  "fe": 7674,
  "ists": 7675,
  "nnipakuw": 7676,
  "onipa": 7677,
  "proving": 7678,
  "ung": 7679,
  "\u2581130": 7680,
  "\u2581Ahobr\u025base": 7681,
  "\u2581Betlehem": 7682,
  "\u2581Boas": 7683,
  "\u2581Especially": 7684,
  "\u2581Germanfo": 7685,
  "\u2581Haran": 7686,
  "\u2581Judas": 7687,
  "\u2581Mozambique": 7688,
  "\u2581W\u0254ma": 7689,
  "\u2581ab\u0254nefos\u025bm": 7690,
  "\u2581atetew": 7691,
  "\u2581cloud": 7692,
  "\u2581donations": 7693,
  "\u2581graduates": 7694,
  "\u2581hoping": 7695,
  "\u2581improved": 7696,
  "\u2581kratawa": 7697,
  "\u2581ns\u025bntitiriw": 7698,
  "\u2581prais": 7699,
  "\u2581renka": 7700,
  "\u2581sorry": 7701,
  "\u2581target": 7702,
  "\u2581tongues": 7703,
  "\u2581tools": 7704,
  "IA": 7705,
  "nkwa": 7706,
  "\u258186": 7707,
  "\u2581GA": 7708,
  "\u2581Helen": 7709,
  "\u2581Maintain": 7710,
  "\u2581Medical": 7711,
  "\u2581Samson": 7712,
  "\u2581Thessalonica": 7713,
  "\u2581VA": 7714,
  "\u2581Wodii": 7715,
  "\u2581Yugoslavia": 7716,
  "\u2581aguan": 7717,
  "\u2581agyirae": 7718,
  "\u2581anantwi": 7719,
  "\u2581asanom": 7720,
  "\u2581branches": 7721,
  "\u2581communities": 7722,
  "\u2581deception": 7723,
  "\u2581ease": 7724,
  "\u2581enjoyable": 7725,
  "\u2581favorable": 7726,
  "\u2581fierce": 7727,
  "\u2581haughty": 7728,
  "\u2581hypocrisy": 7729,
  "\u2581intelligent": 7730,
  "\u2581kyekyee": 7731,
  "\u2581selected": 7732,
  "\u2581sleeping": 7733,
  "\u2581taste": 7734,
  "\u2581trustworthy": 7735,
  "\u2581wanka": 7736,
  "\u2581w\u0254aba": 7737,
  "\u2581w\u0254aboa": 7738,
  "den": 7739,
  "ex": 7740,
  "\u2581Afterward": 7741,
  "\u2581Baa": 7742,
  "\u2581Egyptians": 7743,
  "\u2581Mogya": 7744,
  "\u2581akwakoraa": 7745,
  "\u2581bosome": 7746,
  "\u2581farmers": 7747,
  "\u2581fiery": 7748,
  "\u2581funds": 7749,
  "\u2581immortality": 7750,
  "\u2581industry": 7751,
  "\u2581kannifo": 7752,
  "\u2581meals": 7753,
  "\u2581nsen": 7754,
  "\u2581overwhelmed": 7755,
  "\u2581saving": 7756,
  "\u2581strict": 7757,
  "\u2581yedwen": 7758,
  "\u2581yesuro": 7759,
  "gram": 7760,
  "om": 7761,
  "\u258135:": 7762,
  "\u2581Home": 7763,
  "\u2581Kanaanfo": 7764,
  "\u2581Sen": 7765,
  "\u2581Talmud": 7766,
  "\u2581adidibea": 7767,
  "\u2581ahomaso": 7768,
  "\u2581amoa": 7769,
  "\u2581antom": 7770,
  "\u2581arrive": 7771,
  "\u2581awuwu": 7772,
  "\u2581exercised": 7773,
  "\u2581fixed": 7774,
  "\u2581horse": 7775,
  "\u2581ns\u0254e": 7776,
  "\u2581paths": 7777,
  "\u2581promoted": 7778,
  "\u2581repair": 7779,
  "\u2581sounds": 7780,
  "\u2581w\u0254resom": 7781,
  "\u2581\u0254b\u025bsom": 7782,
  "\u2581\u0254kyer\u025bwfo": 7783,
  "Afei": 7784,
  "Esian": 7785,
  "gu": 7786,
  "nsan": 7787,
  "nt": 7788,
  "\u2581Ahofadi": 7789,
  "\u2581Ancient": 7790,
  "\u2581Filistifo": 7791,
  "\u2581Light": 7792,
  "\u2581Louis": 7793,
  "\u2581Syria": 7794,
  "\u2581Tak": 7795,
  "\u2581W\u0254san": 7796,
  "\u2581aduaba": 7797,
  "\u2581akae": 7798,
  "\u2581associations": 7799,
  "\u2581constitute": 7800,
  "\u2581dwudwo": 7801,
  "\u2581ku": 7802,
  "\u2581nkoekoemmoa": 7803,
  "\u2581perfectly": 7804,
  "\u2581practicing": 7805,
  "\u2581proclaimed": 7806,
  "\u2581representative": 7807,
  "\u2581sentenced": 7808,
  "\u2581striving": 7809,
  "\u2581wayi": 7810,
  "\u2581w\u0254b\u025bba": 7811,
  "disfellowshipped": 7812,
  "gye": 7813,
  "my": 7814,
  "they": 7815,
  "was": 7816,
  "\u258143.": 7817,
  "\u2581Answers": 7818,
  "\u2581Care": 7819,
  "\u2581Koraa": 7820,
  "\u2581abansoro": 7821,
  "\u2581ahotefo": 7822,
  "\u2581ahwere": 7823,
  "\u2581bagua": 7824,
  "\u2581deceived": 7825,
  "\u2581follows": 7826,
  "\u2581forgotten": 7827,
  "\u2581householder": 7828,
  "\u2581mainly": 7829,
  "\u2581momm\u0254": 7830,
  "\u2581neutrality": 7831,
  "\u2581nurse": 7832,
  "\u2581pounds": 7833,
  "\u2581p\u0254w": 7834,
  "\u2581slowly": 7835,
  "\u2581stream": 7836,
  "\u2581w\u0254atintim": 7837,
  "doubtedly": 7838,
  "tie": 7839,
  "\u2581Mfatoho": 7840,
  "\u2581Purpose": 7841,
  "\u2581Wonni": 7842,
  "\u2581abenfo": 7843,
  "\u2581afata": 7844,
  "\u2581alongside": 7845,
  "\u2581ateasefo": 7846,
  "\u2581delay": 7847,
  "\u2581double": 7848,
  "\u2581extensive": 7849,
  "\u2581fair": 7850,
  "\u2581highlights": 7851,
  "\u2581nguamans\u025bm": 7852,
  "\u2581owura": 7853,
  "\u2581rehu": 7854,
  "\u2581roads": 7855,
  "\u2581shadow": 7856,
  "\u2581struggling": 7857,
  "\u2581symbolized": 7858,
  "\u2581thereby": 7859,
  "\u2581wohyira": 7860,
  "\u2581y\u025bab\u0254": 7861,
  "\u2581\u0190boa": 7862,
  "\u2581\u0190son": 7863,
  "begye": 7864,
  "dua": 7865,
  "reb\u0254": 7866,
  "\u25811987": 7867,
  "\u2581Edin": 7868,
  "\u2581Ki": 7869,
  "\u2581Leader": 7870,
  "\u2581Map": 7871,
  "\u2581Ns\u025bmma": 7872,
  "\u2581Street": 7873,
  "\u2581Wofi": 7874,
  "\u2581Zambia": 7875,
  "\u2581aim": 7876,
  "\u2581anto": 7877,
  "\u2581ashamed": 7878,
  "\u2581believer": 7879,
  "\u2581bit": 7880,
  "\u2581bui": 7881,
  "\u2581disappointment": 7882,
  "\u2581ebu": 7883,
  "\u2581formerly": 7884,
  "\u2581founded": 7885,
  "\u2581highlighted": 7886,
  "\u2581hoahoa": 7887,
  "\u2581mehu": 7888,
  "\u2581munni": 7889,
  "\u2581onto": 7890,
  "\u2581phrase": 7891,
  "\u2581sesae": 7892,
  "\u2581wapaw": 7893,
  "\u2581wokae": 7894,
  "\u2581w\u0254tan": 7895,
  "\u2581yekura": 7896,
  "\u2581\u0254s\u025bmpakafo": 7897,
  "V": 7898,
  "as\u025by\u025bde": 7899,
  "io": 7900,
  "rema": 7901,
  "\u2581250": 7902,
  "\u258195": 7903,
  "\u2581Bay": 7904,
  "\u2581EYI": 7905,
  "\u2581Future": 7906,
  "\u2581HAVE": 7907,
  "\u2581Lessons": 7908,
  "\u2581Mihui": 7909,
  "\u2581Nk\u025bnt\u025bnso": 7910,
  "\u2581anwens\u025bm": 7911,
  "\u2581apostate": 7912,
  "\u2581asete": 7913,
  "\u2581confirmed": 7914,
  "\u2581crushed": 7915,
  "\u2581deadly": 7916,
  "\u2581happily": 7917,
  "\u2581independence": 7918,
  "\u2581kodii": 7919,
  "\u2581latter": 7920,
  "\u2581materially": 7921,
  "\u2581ogyaee": 7922,
  "\u2581ordinary": 7923,
  "\u2581party": 7924,
  "\u2581pollution": 7925,
  "\u2581preachers": 7926,
  "\u2581roof": 7927,
  "\u2581seeds": 7928,
  "\u2581stumble": 7929,
  "\u2581succeeded": 7930,
  "\u2581w\u0254hyehy\u025b": 7931,
  "\u2581\u0254rekyer\u025b": 7932,
  "OLD": 7933,
  "kan": 7934,
  "\u25811920": 7935,
  "\u2581Alex": 7936,
  "\u2581Answered": 7937,
  "\u2581Cyprus": 7938,
  "\u2581GOD": 7939,
  "\u2581ON": 7940,
  "\u2581Plato": 7941,
  "\u2581Sup\u0254w": 7942,
  "\u2581absolutely": 7943,
  "\u2581afeb\u0254\u0254": 7944,
  "\u2581asow": 7945,
  "\u2581associating": 7946,
  "\u2581confronted": 7947,
  "\u2581damaged": 7948,
  "\u2581ef\u0129": 7949,
  "\u2581equipment": 7950,
  "\u2581fiefo": 7951,
  "\u2581forgiven": 7952,
  "\u2581hyiadan": 7953,
  "\u2581ns\u025bmns\u025bm": 7954,
  "\u2581ohyira": 7955,
  "\u2581prey": 7956,
  "\u2581prime": 7957,
  "\u2581refreshment": 7958,
  "\u2581rennye": 7959,
  "\u2581traffic": 7960,
  "\u2581transfusions": 7961,
  "\u2581tremendous": 7962,
  "\u2581university": 7963,
  "\u2581unscriptural": 7964,
  "\u2581villages": 7965,
  "\u2581wuhia": 7966,
  "\u2581\u025bnka": 7967,
  "\u2581Age": 7968,
  "\u2581DNA": 7969,
  "\u2581Persian": 7970,
  "\u2581Portuguese": 7971,
  "\u2581Press": 7972,
  "\u2581Yoel": 7973,
  "\u2581aging": 7974,
  "\u2581amu": 7975,
  "\u2581betu": 7976,
  "\u2581connected": 7977,
  "\u2581desert": 7978,
  "\u2581fifth": 7979,
  "\u2581guarantee": 7980,
  "\u2581hesitate": 7981,
  "\u2581imperfections": 7982,
  "\u2581l\u0254re": 7983,
  "\u2581occasionally": 7984,
  "\u2581proves": 7985,
  "\u2581sand": 7986,
  "\u2581susuwii": 7987,
  "\u2581understands": 7988,
  "\u2581wod\u0254": 7989,
  "\u2581w\u0254anni": 7990,
  "Monhw\u025b": 7991,
  "abehu": 7992,
  "ahu": 7993,
  "gi": 7994,
  "now": 7995,
  "\u258191": 7996,
  "\u2581Island": 7997,
  "\u2581K\u0254k\u0254\u0254": 7998,
  "\u2581Obviously": 7999,
  "\u2581Real": 8000,
  "\u2581Saulo": 8001,
  "\u2581Serving": 8002,
  "\u2581Studies": 8003,
  "\u2581ak\u0254ma": 8004,
  "\u2581amazed": 8005,
  "\u2581arrest": 8006,
  "\u2581blow": 8007,
  "\u2581ideal": 8008,
  "\u2581judgments": 8009,
  "\u2581k\u0169": 8010,
  "\u2581lonely": 8011,
  "\u2581mentions": 8012,
  "\u2581mow\u0254": 8013,
  "\u2581ntena": 8014,
  "\u2581olive": 8015,
  "\u2581representatives": 8016,
  "\u2581reto": 8017,
  "\u2581risks": 8018,
  "\u2581scribes": 8019,
  "\u2581span": 8020,
  "\u2581utmost": 8021,
  "\u2581\u0254kwa": 8022,
  "?...": 8023,
  "Now": 8024,
  "ner": 8025,
  "niwam": 8026,
  "\u25812006": 8027,
  "\u2581Memeneda": 8028,
  "\u2581Mey\u025b": 8029,
  "\u2581Quebec": 8030,
  "\u2581afasu": 8031,
  "\u2581conquered": 8032,
  "\u2581convince": 8033,
  "\u2581cooperation": 8034,
  "\u2581detailed": 8035,
  "\u2581devastating": 8036,
  "\u2581entering": 8037,
  "\u2581kwankyer\u025bfo": 8038,
  "\u2581minyae": 8039,
  "\u2581mmfi": 8040,
  "\u2581nhama": 8041,
  "\u2581oppose": 8042,
  "\u2581recommended": 8043,
  "\u2581silence": 8044,
  "\u2581wash": 8045,
  "ki": 8046,
  "red": 8047,
  "ster": 8048,
  "\u2581Anuonyam": 8049,
  "\u2581Britania": 8050,
  "\u2581Lines": 8051,
  "\u2581Palace": 8052,
  "\u2581afotus\u025bm": 8053,
  "\u2581aguamans\u025bm": 8054,
  "\u2581bara": 8055,
  "\u2581defined": 8056,
  "\u2581educated": 8057,
  "\u2581emphasis": 8058,
  "\u2581fever": 8059,
  "\u2581generosity": 8060,
  "\u2581managed": 8061,
  "\u2581nnaadaas\u025bm": 8062,
  "\u2581ohiani": 8063,
  "\u2581rapidly": 8064,
  "\u2581respectful": 8065,
  "\u2581survivors": 8066,
  "\u2581tease\u025bnam": 8067,
  "\u2581tempered": 8068,
  "\u2581v": 8069,
  "\u2581wubesua": 8070,
  "\u2581\u0190nna": 8071,
  "daa": 8072,
  "\u03b5": 8073,
  "\u25811974": 8074,
  "\u258123;": 8075,
  "\u258130:": 8076,
  "\u258141.": 8077,
  "\u2581Andrew": 8078,
  "\u2581Antioch": 8079,
  "\u2581Kora": 8080,
  "\u2581anigyes\u025bm": 8081,
  "\u2581apo": 8082,
  "\u2581driver": 8083,
  "\u2581flow": 8084,
  "\u2581generations": 8085,
  "\u2581honesthearted": 8086,
  "\u2581illustrates": 8087,
  "\u2581mm\u0254bor\u0254hunu": 8088,
  "\u2581naturally": 8089,
  "\u2581unwise": 8090,
  "\u2581viewing": 8091,
  "\u2581wanyin": 8092,
  "\u2581\u0254babarima": 8093,
  "EL": 8094,
  "agyapade": 8095,
  "ns\u025bm": 8096,
  "\u25811959": 8097,
  "\u25812014": 8098,
  "\u2581Atifi": 8099,
  "\u2581Fekuw": 8100,
  "\u2581Francisco": 8101,
  "\u2581akata": 8102,
  "\u2581anigyefo": 8103,
  "\u2581ankonamy\u025b": 8104,
  "\u2581centered": 8105,
  "\u2581dedicate": 8106,
  "\u2581desperate": 8107,
  "\u2581developments": 8108,
  "\u2581fra": 8109,
  "\u2581jealous": 8110,
  "\u2581miraculously": 8111,
  "\u2581offices": 8112,
  "\u2581red\u0254\u0254so": 8113,
  "\u2581roll": 8114,
  "\u2581seat": 8115,
  "\u2581t": 8116,
  "\u2581touching": 8117,
  "\u2581wasua": 8118,
  "\u2581woak\u0254": 8119,
  "\u2581\u0254hemp\u0254n": 8120,
  "\u2581\u0254sesa": 8121,
  "Anigye": 8122,
  "bea": 8123,
  "ent": 8124,
  "let": 8125,
  "\u258124]": 8126,
  "\u25814,000": 8127,
  "\u258184": 8128,
  "\u2581Anis\u0254": 8129,
  "\u2581Find": 8130,
  "\u2581Homeda": 8131,
  "\u2581Index": 8132,
  "\u2581Leads": 8133,
  "\u2581Nsa": 8134,
  "\u2581Reflect": 8135,
  "\u2581Zealand": 8136,
  "\u2581actual": 8137,
  "\u2581aduhuam": 8138,
  "\u2581adwenkyer\u025b": 8139,
  "\u2581ahonu": 8140,
  "\u2581attracted": 8141,
  "\u2581deliberately": 8142,
  "\u2581dwinnwen": 8143,
  "\u2581foremost": 8144,
  "\u2581guidelines": 8145,
  "\u2581judging": 8146,
  "\u2581kyeree": 8147,
  "\u2581nwie": 8148,
  "\u2581originally": 8149,
  "\u2581proclaim": 8150,
  "\u2581references": 8151,
  "\u2581salt": 8152,
  "\u2581sinner": 8153,
  "\u2581sky": 8154,
  "\u2581spiritism": 8155,
  "\u2581w\u0254anyinyin": 8156,
  "20": 8157,
  "gen": 8158,
  "\u2581Ab\u0254de": 8159,
  "\u2581Actually": 8160,
  "\u2581Evening": 8161,
  "\u2581House": 8162,
  "\u2581Mari": 8163,
  "\u2581Nso": 8164,
  "\u2581Saturday": 8165,
  "\u2581abusuakuw": 8166,
  "\u2581antie": 8167,
  "\u2581apere": 8168,
  "\u2581apostasy": 8169,
  "\u2581apparent": 8170,
  "\u2581atintim": 8171,
  "\u2581atuu": 8172,
  "\u2581biological": 8173,
  "\u2581b\u025btew": 8174,
  "\u2581characterize": 8175,
  "\u2581combat": 8176,
  "\u2581contributions": 8177,
  "\u2581decade": 8178,
  "\u2581largely": 8179,
  "\u2581lawlessness": 8180,
  "\u2581mekaa": 8181,
  "\u2581nsuo": 8182,
  "\u2581oldest": 8183,
  "\u2581rare": 8184,
  "\u2581rebel": 8185,
  "\u2581ridicule": 8186,
  "\u2581stating": 8187,
  "\u2581steadfast": 8188,
  "\u2581talents": 8189,
  "\u2581vessel": 8190,
  "\u2581wearing": 8191,
  "\u2581wobetu": 8192,
  "\u2581wogyaw": 8193,
  "\u2581wontua": 8194,
  "\u2581w\u0254bara": 8195,
  "\u2581y\u025bb\u025bsom": 8196,
  "\u2581\u025bwow\u0254": 8197,
  "hoahoa": 8198,
  "ill": 8199,
  "\u2581Adawurub\u0254fo": 8200,
  "\u2581Baruk": 8201,
  "\u2581Botae": 8202,
  "\u2581Coast": 8203,
  "\u2581Ntetee": 8204,
  "\u2581Set": 8205,
  "\u2581Sheol": 8206,
  "\u2581Speaking": 8207,
  "\u2581catch": 8208,
  "\u2581concludes": 8209,
  "\u2581doctrines": 8210,
  "\u2581expose": 8211,
  "\u2581falls": 8212,
  "\u2581flowers": 8213,
  "\u2581gladly": 8214,
  "\u2581idols": 8215,
  "\u2581implies": 8216,
  "\u2581pleasures": 8217,
  "\u2581regye": 8218,
  "\u2581seated": 8219,
  "\u2581tropical": 8220,
  "\u2581valley": 8221,
  "ES": 8222,
  "Metee": 8223,
  "\u25815,000": 8224,
  "\u2581Cleveland": 8225,
  "\u2581Col": 8226,
  "\u2581Giving": 8227,
  "\u2581Indian": 8228,
  "\u2581Jane": 8229,
  "\u2581Mpae": 8230,
  "\u2581ST": 8231,
  "\u2581WA": 8232,
  "\u2581akra": 8233,
  "\u2581bird": 8234,
  "\u2581boldness": 8235,
  "\u2581broad": 8236,
  "\u2581execute": 8237,
  "\u2581feared": 8238,
  "\u2581headship": 8239,
  "\u2581imprisonment": 8240,
  "\u2581ofiewura": 8241,
  "\u2581outright": 8242,
  "\u2581paragraphs": 8243,
  "\u2581planned": 8244,
  "\u2581route": 8245,
  "\u2581smaller": 8246,
  "\u2581souled": 8247,
  "\u2581w\u0254akyer\u025bkyer\u025b": 8248,
  "\u2581w\u0254hyew": 8249,
  "\u2581yeraw": 8250,
  "\u2581\u0186panyin": 8251,
  "as\u0254re": 8252,
  "lin": 8253,
  "nne\u025bma": 8254,
  "nsom": 8255,
  "this": 8256,
  "\u2581Adesamma": 8257,
  "\u2581Hagai": 8258,
  "\u2581Jephthah": 8259,
  "\u2581Kurow": 8260,
  "\u2581Nairobi": 8261,
  "\u2581Nsonsonoe": 8262,
  "\u2581Ponti": 8263,
  "\u2581as\u025bnni": 8264,
  "\u2581atenka": 8265,
  "\u2581b\u025bbom": 8266,
  "\u2581combined": 8267,
  "\u2581cultural": 8268,
  "\u2581delightful": 8269,
  "\u2581esteem": 8270,
  "\u2581favorably": 8271,
  "\u2581heartwarming": 8272,
  "\u2581k\u0254y\u025b": 8273,
  "\u2581manage": 8274,
  "\u2581manfo": 8275,
  "\u2581nsesa": 8276,
  "\u2581rarely": 8277,
  "\u2581select": 8278,
  "\u2581teens": 8279,
  "\u2581territories": 8280,
  "\u2581towns": 8281,
  "\u2581version": 8282,
  "\u2581volunteer": 8283,
  "\u2581warn": 8284,
  "\u2581wobesua": 8285,
  "\u2581\u0254tena": 8286,
  "Nyankop\u0254n": 8287,
  "her": 8288,
  "\u25811982": 8289,
  "\u2581AWAKE": 8290,
  "\u2581Denmark": 8291,
  "\u2581Mfa": 8292,
  "\u2581Nnyinasos\u025bm": 8293,
  "\u2581Nothing": 8294,
  "\u2581Psalms": 8295,
  "\u2581Siberia": 8296,
  "\u2581Teacher": 8297,
  "\u2581Words": 8298,
  "\u2581adwiriw": 8299,
  "\u2581ahintaw": 8300,
  "\u2581arrange": 8301,
  "\u2581backgrounds": 8302,
[...]
